{
  "version": "1.0",
  "truncation": null,
  "padding": {
    "strategy": "BatchLongest",
    "direction": "Right",
    "pad_to_multiple_of": null,
    "pad_id": 0,
    "pad_type_id": 0,
    "pad_token": "[PAD]"
  },
  "added_tokens": [
    {
      "id": 0,
      "content": "[PAD]",
      "single_word": false,
      "lstrip": false,
      "rstrip": false,
      "normalized": false,
      "special": true
    },
    {
      "id": 1,
      "content": "[UNK]",
      "single_word": false,
      "lstrip": false,
      "rstrip": false,
      "normalized": false,
      "special": true
    },
    {
      "id": 2,
      "content": "[BOS]",
      "single_word": false,
      "lstrip": false,
      "rstrip": false,
      "normalized": false,
      "special": true
    },
    {
      "id": 3,
      "content": "[EOS]",
      "single_word": false,
      "lstrip": false,
      "rstrip": false,
      "normalized": false,
      "special": true
    }
  ],
  "normalizer": null,
  "pre_tokenizer": {
    "type": "Metaspace",
    "replacement": "▁",
    "prepend_scheme": "always",
    "split": true
  },
  "post_processor": null,
  "decoder": {
    "type": "Metaspace",
    "replacement": "▁",
    "prepend_scheme": "always",
    "split": true
  },
  "model": {
    "type": "BPE",
    "dropout": null,
    "unk_token": "[UNK]",
    "continuing_subword_prefix": null,
    "end_of_word_suffix": null,
    "fuse_unk": false,
    "byte_fallback": false,
    "ignore_merges": false,
    "vocab": {
      "[PAD]": 0,
      "[UNK]": 1,
      "[BOS]": 2,
      "[EOS]": 3,
      "\n": 4,
      "!": 5,
      "\"": 6,
      "#": 7,
      "$": 8,
      "%": 9,
      "&": 10,
      "'": 11,
      "(": 12,
      ")": 13,
      "*": 14,
      "+": 15,
      ",": 16,
      "-": 17,
      ".": 18,
      "/": 19,
      "0": 20,
      "1": 21,
      "2": 22,
      "3": 23,
      "4": 24,
      "5": 25,
      "6": 26,
      "7": 27,
      "8": 28,
      "9": 29,
      ":": 30,
      ";": 31,
      "<": 32,
      "=": 33,
      ">": 34,
      "?": 35,
      "@": 36,
      "A": 37,
      "B": 38,
      "C": 39,
      "D": 40,
      "E": 41,
      "F": 42,
      "G": 43,
      "H": 44,
      "I": 45,
      "J": 46,
      "K": 47,
      "L": 48,
      "M": 49,
      "N": 50,
      "O": 51,
      "P": 52,
      "Q": 53,
      "R": 54,
      "S": 55,
      "T": 56,
      "U": 57,
      "V": 58,
      "W": 59,
      "X": 60,
      "Y": 61,
      "Z": 62,
      "\\": 63,
      "^": 64,
      "_": 65,
      "`": 66,
      "a": 67,
      "b": 68,
      "c": 69,
      "d": 70,
      "e": 71,
      "f": 72,
      "g": 73,
      "h": 74,
      "i": 75,
      "j": 76,
      "k": 77,
      "l": 78,
      "m": 79,
      "n": 80,
      "o": 81,
      "p": 82,
      "q": 83,
      "r": 84,
      "s": 85,
      "t": 86,
      "u": 87,
      "v": 88,
      "w": 89,
      "x": 90,
      "y": 91,
      "z": 92,
      "|": 93,
      "~": 94,
      "": 95,
      "": 96,
      " ": 97,
      "¡": 98,
      "£": 99,
      "¤": 100,
      "§": 101,
      "©": 102,
      "«": 103,
      "­": 104,
      "®": 105,
      "¯": 106,
      "°": 107,
      "±": 108,
      "²": 109,
      "³": 110,
      "´": 111,
      "µ": 112,
      "¶": 113,
      "·": 114,
      "¹": 115,
      "º": 116,
      "»": 117,
      "¼": 118,
      "½": 119,
      "¾": 120,
      "À": 121,
      "Á": 122,
      "Â": 123,
      "Ä": 124,
      "Æ": 125,
      "Ç": 126,
      "É": 127,
      "Ì": 128,
      "Í": 129,
      "Î": 130,
      "Ó": 131,
      "Ô": 132,
      "Ö": 133,
      "×": 134,
      "Ú": 135,
      "Ü": 136,
      "Þ": 137,
      "ß": 138,
      "à": 139,
      "á": 140,
      "â": 141,
      "ã": 142,
      "ä": 143,
      "æ": 144,
      "ç": 145,
      "è": 146,
      "é": 147,
      "ê": 148,
      "ë": 149,
      "ì": 150,
      "í": 151,
      "î": 152,
      "ï": 153,
      "ð": 154,
      "ñ": 155,
      "ò": 156,
      "ó": 157,
      "ô": 158,
      "õ": 159,
      "ö": 160,
      "÷": 161,
      "ø": 162,
      "ù": 163,
      "ú": 164,
      "û": 165,
      "ü": 166,
      "ý": 167,
      "þ": 168,
      "ÿ": 169,
      "Ā": 170,
      "ā": 171,
      "ă": 172,
      "ą": 173,
      "ć": 174,
      "Č": 175,
      "č": 176,
      "đ": 177,
      "ē": 178,
      "ĕ": 179,
      "ę": 180,
      "ě": 181,
      "ğ": 182,
      "ġ": 183,
      "ħ": 184,
      "Ī": 185,
      "ī": 186,
      "İ": 187,
      "ı": 188,
      "Ľ": 189,
      "ł": 190,
      "ń": 191,
      "Ō": 192,
      "ō": 193,
      "ő": 194,
      "Œ": 195,
      "œ": 196,
      "Ř": 197,
      "ř": 198,
      "Ś": 199,
      "Ş": 200,
      "ş": 201,
      "Š": 202,
      "š": 203,
      "Ū": 204,
      "ū": 205,
      "ű": 206,
      "Ż": 207,
      "ž": 208,
      "ǧ": 209,
      "ǭ": 210,
      "ȃ": 211,
      "ȝ": 212,
      "ȧ": 213,
      "ɐ": 214,
      "ɑ": 215,
      "ɓ": 216,
      "ɔ": 217,
      "ə": 218,
      "ɛ": 219,
      "ɡ": 220,
      "ɪ": 221,
      "ɱ": 222,
      "ɲ": 223,
      "ʃ": 224,
      "ʎ": 225,
      "ʒ": 226,
      "ʕ": 227,
      "ʦ": 228,
      "ʰ": 229,
      "ʻ": 230,
      "ʼ": 231,
      "ʾ": 232,
      "ʿ": 233,
      "ˁ": 234,
      "ˈ": 235,
      "ː": 236,
      "˘": 237,
      "˙": 238,
      "˚": 239,
      "̀": 240,
      "́": 241,
      "̂": 242,
      "̃": 243,
      "̄": 244,
      "̅": 245,
      "̆": 246,
      "̈": 247,
      "̜": 248,
      "̣": 249,
      "̩": 250,
      "̪": 251,
      "̲": 252,
      "̼": 253,
      "͗": 254,
      "͟": 255,
      "΄": 256,
      "Ά": 257,
      "Έ": 258,
      "Ή": 259,
      "Ί": 260,
      "Ώ": 261,
      "ΐ": 262,
      "Α": 263,
      "Β": 264,
      "Γ": 265,
      "Δ": 266,
      "Ε": 267,
      "Ζ": 268,
      "Η": 269,
      "Θ": 270,
      "Ι": 271,
      "Κ": 272,
      "Λ": 273,
      "Μ": 274,
      "Ν": 275,
      "Ξ": 276,
      "Ο": 277,
      "Π": 278,
      "Ρ": 279,
      "Σ": 280,
      "Τ": 281,
      "Υ": 282,
      "Φ": 283,
      "Χ": 284,
      "Ψ": 285,
      "Ω": 286,
      "Ϊ": 287,
      "ά": 288,
      "έ": 289,
      "ή": 290,
      "ί": 291,
      "α": 292,
      "β": 293,
      "γ": 294,
      "δ": 295,
      "ε": 296,
      "ζ": 297,
      "η": 298,
      "θ": 299,
      "ι": 300,
      "κ": 301,
      "λ": 302,
      "μ": 303,
      "ν": 304,
      "ξ": 305,
      "ο": 306,
      "π": 307,
      "ρ": 308,
      "ς": 309,
      "σ": 310,
      "τ": 311,
      "υ": 312,
      "φ": 313,
      "χ": 314,
      "ψ": 315,
      "ω": 316,
      "ϊ": 317,
      "ό": 318,
      "ύ": 319,
      "ώ": 320,
      "ϐ": 321,
      "ϛ": 322,
      "Ϝ": 323,
      "ϝ": 324,
      "Ϣ": 325,
      "ϣ": 326,
      "Ϥ": 327,
      "ϥ": 328,
      "Ϧ": 329,
      "ϧ": 330,
      "Ϩ": 331,
      "ϩ": 332,
      "Ϫ": 333,
      "ϫ": 334,
      "Ϭ": 335,
      "ϭ": 336,
      "Ϯ": 337,
      "ϯ": 338,
      "ϰ": 339,
      "Ϲ": 340,
      "Є": 341,
      "Ї": 342,
      "Љ": 343,
      "Њ": 344,
      "Ћ": 345,
      "Џ": 346,
      "А": 347,
      "Б": 348,
      "В": 349,
      "Г": 350,
      "Д": 351,
      "Е": 352,
      "Ж": 353,
      "З": 354,
      "И": 355,
      "Й": 356,
      "К": 357,
      "Л": 358,
      "М": 359,
      "Н": 360,
      "О": 361,
      "П": 362,
      "Р": 363,
      "С": 364,
      "Т": 365,
      "У": 366,
      "Ф": 367,
      "Х": 368,
      "Ц": 369,
      "Ч": 370,
      "Ш": 371,
      "Щ": 372,
      "Ъ": 373,
      "Ы": 374,
      "Ь": 375,
      "Ю": 376,
      "Я": 377,
      "а": 378,
      "б": 379,
      "в": 380,
      "г": 381,
      "д": 382,
      "е": 383,
      "ж": 384,
      "з": 385,
      "и": 386,
      "й": 387,
      "к": 388,
      "л": 389,
      "м": 390,
      "н": 391,
      "о": 392,
      "п": 393,
      "р": 394,
      "с": 395,
      "т": 396,
      "у": 397,
      "ф": 398,
      "х": 399,
      "ц": 400,
      "ч": 401,
      "ш": 402,
      "щ": 403,
      "ы": 404,
      "ь": 405,
      "я": 406,
      "ѐ": 407,
      "Ա": 408,
      "Բ": 409,
      "Գ": 410,
      "Յ": 411,
      "ա": 412,
      "բ": 413,
      "գ": 414,
      "ե": 415,
      "է": 416,
      "ը": 417,
      "թ": 418,
      "ի": 419,
      "հ": 420,
      "ղ": 421,
      "մ": 422,
      "յ": 423,
      "ն": 424,
      "ո": 425,
      "պ": 426,
      "ս": 427,
      "տ": 428,
      "ր": 429,
      "ց": 430,
      "ւ": 431,
      "֑": 432,
      "֓": 433,
      "֔": 434,
      "֖": 435,
      "֙": 436,
      "֣": 437,
      "֤": 438,
      "֥": 439,
      "ְ": 440,
      "ֱ": 441,
      "ֲ": 442,
      "ִ": 443,
      "ֵ": 444,
      "ֶ": 445,
      "ַ": 446,
      "ָ": 447,
      "ֹ": 448,
      "ֻ": 449,
      "ּ": 450,
      "ֽ": 451,
      "־": 452,
      "׀": 453,
      "ׁ": 454,
      "ׂ": 455,
      "׃": 456,
      "א": 457,
      "ב": 458,
      "ג": 459,
      "ד": 460,
      "ה": 461,
      "ו": 462,
      "ז": 463,
      "ח": 464,
      "ט": 465,
      "י": 466,
      "ך": 467,
      "כ": 468,
      "ל": 469,
      "ם": 470,
      "מ": 471,
      "ן": 472,
      "נ": 473,
      "ס": 474,
      "ע": 475,
      "ף": 476,
      "פ": 477,
      "ץ": 478,
      "צ": 479,
      "ק": 480,
      "ר": 481,
      "ש": 482,
      "ת": 483,
      "װ": 484,
      "ײ": 485,
      "׳": 486,
      "״": 487,
      "؀": 488,
      "،": 489,
      "ؙ": 490,
      "؛": 491,
      "؜": 492,
      "؟": 493,
      "ء": 494,
      "آ": 495,
      "أ": 496,
      "ؤ": 497,
      "إ": 498,
      "ئ": 499,
      "ا": 500,
      "ب": 501,
      "ة": 502,
      "ت": 503,
      "ث": 504,
      "ج": 505,
      "ح": 506,
      "خ": 507,
      "د": 508,
      "ذ": 509,
      "ر": 510,
      "ز": 511,
      "س": 512,
      "ش": 513,
      "ص": 514,
      "ض": 515,
      "ط": 516,
      "ظ": 517,
      "ع": 518,
      "غ": 519,
      "ـ": 520,
      "ف": 521,
      "ق": 522,
      "ك": 523,
      "ل": 524,
      "م": 525,
      "ن": 526,
      "ه": 527,
      "و": 528,
      "ى": 529,
      "ي": 530,
      "ً": 531,
      "ٌ": 532,
      "ٍ": 533,
      "َ": 534,
      "ُ": 535,
      "ِ": 536,
      "ّ": 537,
      "ْ": 538,
      "ٓ": 539,
      "ٔ": 540,
      "ٕ": 541,
      "ٖ": 542,
      "ٗ": 543,
      "ٙ": 544,
      "ٞ": 545,
      "٠": 546,
      "١": 547,
      "٢": 548,
      "٣": 549,
      "٤": 550,
      "٥": 551,
      "٦": 552,
      "٧": 553,
      "٨": 554,
      "٩": 555,
      "٪": 556,
      "٫": 557,
      "٬": 558,
      "٭": 559,
      "ٰ": 560,
      "ٱ": 561,
      "ٳ": 562,
      "ٸ": 563,
      "ٹ": 564,
      "ٻ": 565,
      "پ": 566,
      "ٿ": 567,
      "ڀ": 568,
      "چ": 569,
      "ڈ": 570,
      "ڐ": 571,
      "ژ": 572,
      "ڠ": 573,
      "ڤ": 574,
      "ڨ": 575,
      "ک": 576,
      "ڪ": 577,
      "ڭ": 578,
      "گ": 579,
      "ں": 580,
      "ھ": 581,
      "ہ": 582,
      "ۃ": 583,
      "ۆ": 584,
      "ی": 585,
      "ێ": 586,
      "ۏ": 587,
      "ے": 588,
      "۔": 589,
      "ە": 590,
      "ۖ": 591,
      "ۗ": 592,
      "ۙ": 593,
      "ۚ": 594,
      "۞": 595,
      "ۡ": 596,
      "ۤ": 597,
      "ۥ": 598,
      "ۦ": 599,
      "ۨ": 600,
      "ۭ": 601,
      "۰": 602,
      "۱": 603,
      "۲": 604,
      "۳": 605,
      "۵": 606,
      "۷": 607,
      "۸": 608,
      "۹": 609,
      "ܐ": 610,
      "ܒ": 611,
      "ܓ": 612,
      "ܕ": 613,
      "ܗ": 614,
      "ܘ": 615,
      "ܙ": 616,
      "ܚ": 617,
      "ܛ": 618,
      "ܝ": 619,
      "ܟ": 620,
      "ܠ": 621,
      "ܡ": 622,
      "ܢ": 623,
      "ܣ": 624,
      "ܥ": 625,
      "ܦ": 626,
      "ܨ": 627,
      "ܩ": 628,
      "ܪ": 629,
      "ܫ": 630,
      "ܬ": 631,
      "ݠ": 632,
      "ݪ": 633,
      "ݫ": 634,
      "ݭ": 635,
      "च": 636,
      "ज": 637,
      "त": 638,
      "र": 639,
      "ा": 640,
      "ी": 641,
      "ू": 642,
      "আ": 643,
      "জ": 644,
      "ত": 645,
      "দ": 646,
      "ব": 647,
      "ম": 648,
      "য": 649,
      "ল": 650,
      "স": 651,
      "়": 652,
      "া": 653,
      "ী": 654,
      "ু": 655,
      "ৈ": 656,
      "ა": 657,
      "ბ": 658,
      "ე": 659,
      "ვ": 660,
      "ზ": 661,
      "ი": 662,
      "კ": 663,
      "ლ": 664,
      "მ": 665,
      "ნ": 666,
      "ო": 667,
      "რ": 668,
      "ს": 669,
      "ტ": 670,
      "შ": 671,
      "ძ": 672,
      "ჯ": 673,
      "ሄ": 674,
      "መ": 675,
      "ሚ": 676,
      "ም": 677,
      "ሠ": 678,
      "ሥ": 679,
      "ር": 680,
      "ስ": 681,
      "ቆ": 682,
      "በ": 683,
      "ት": 684,
      "ነ": 685,
      "ኑ": 686,
      "ን": 687,
      "ኖ": 688,
      "አ": 689,
      "ኢ": 690,
      "ዘ": 691,
      "የ": 692,
      "ያ": 693,
      "ዮ": 694,
      "ድ": 695,
      "ገ": 696,
      "ጉ": 697,
      "ጋ": 698,
      "ጠ": 699,
      "ጣ": 700,
      "ጵ": 701,
      "ᒾ": 702,
      "ᵐ": 703,
      "ḇ": 704,
      "Ḉ": 705,
      "ḉ": 706,
      "Ḍ": 707,
      "ḍ": 708,
      "Ḏ": 709,
      "ḏ": 710,
      "ḕ": 711,
      "ḗ": 712,
      "Ḥ": 713,
      "ḥ": 714,
      "Ḫ": 715,
      "ḫ": 716,
      "ḳ": 717,
      "ḵ": 718,
      "Ḿ": 719,
      "ṇ": 720,
      "ṛ": 721,
      "Ṣ": 722,
      "ṣ": 723,
      "Ṭ": 724,
      "ṭ": 725,
      "ṯ": 726,
      "Ẓ": 727,
      "ẓ": 728,
      "ẖ": 729,
      "ỉ": 730,
      "ố": 731,
      "ữ": 732,
      "ἀ": 733,
      "ἄ": 734,
      "ἅ": 735,
      "ἆ": 736,
      "Ἀ": 737,
      "Ἁ": 738,
      "Ἄ": 739,
      "ἐ": 740,
      "ἒ": 741,
      "ἔ": 742,
      "Ἑ": 743,
      "Ἔ": 744,
      "Ἕ": 745,
      "ἡ": 746,
      "ἦ": 747,
      "Ἡ": 748,
      "Ἥ": 749,
      "ἰ": 750,
      "ἱ": 751,
      "ἴ": 752,
      "Ἰ": 753,
      "Ἱ": 754,
      "Ἴ": 755,
      "Ἵ": 756,
      "ὀ": 757,
      "ὁ": 758,
      "ὂ": 759,
      "Ὀ": 760,
      "Ὁ": 761,
      "ὐ": 762,
      "ὑ": 763,
      "ὔ": 764,
      "ὦ": 765,
      "Ὠ": 766,
      "ὰ": 767,
      "ὴ": 768,
      "ὶ": 769,
      "ὸ": 770,
      "ὺ": 771,
      "ᾰ": 772,
      "ᾶ": 773,
      "ῆ": 774,
      "ῖ": 775,
      "ῦ": 776,
      "Ῥ": 777,
      "ῳ": 778,
      "ῶ": 779,
      " ": 780,
      " ": 781,
      " ": 782,
      "‌": 783,
      "‍": 784,
      "‐": 785,
      "‑": 786,
      "‒": 787,
      "–": 788,
      "—": 789,
      "―": 790,
      "‘": 791,
      "’": 792,
      "‛": 793,
      "“": 794,
      "”": 795,
      "„": 796,
      "†": 797,
      "•": 798,
      "…": 799,
      " ": 800,
      "‰": 801,
      "′": 802,
      "″": 803,
      "‹": 804,
      "›": 805,
      "⁄": 806,
      "⁚": 807,
      "⁣": 808,
      "⁨": 809,
      "⁩": 810,
      "⁪": 811,
      "⁬": 812,
      "ⁿ": 813,
      "₪": 814,
      "€": 815,
      "№": 816,
      "™": 817,
      "⅛": 818,
      "←": 819,
      "→": 820,
      "⇒": 821,
      "∆": 822,
      "−": 823,
      "∞": 824,
      "≈": 825,
      "≙": 826,
      "≠": 827,
      "≤": 828,
      "─": 829,
      "│": 830,
      "└": 831,
      "├": 832,
      "▁": 833,
      "■": 834,
      "▪": 835,
      "○": 836,
      "◌": 837,
      "●": 838,
      "◾": 839,
      "☆": 840,
      "☙": 841,
      "☥": 842,
      "☧": 843,
      "♀": 844,
      "♕": 845,
      "♛": 846,
      "♠": 847,
      "✯": 848,
      "⟨": 849,
      "⟩": 850,
      "⠀": 851,
      "Ɱ": 852,
      "Ⲁ": 853,
      "ⲁ": 854,
      "Ⲃ": 855,
      "ⲃ": 856,
      "ⲅ": 857,
      "Ⲇ": 858,
      "ⲇ": 859,
      "Ⲉ": 860,
      "ⲉ": 861,
      "ⲋ": 862,
      "Ⲏ": 863,
      "ⲏ": 864,
      "ⲑ": 865,
      "ⲓ": 866,
      "ⲕ": 867,
      "ⲗ": 868,
      "Ⲙ": 869,
      "ⲙ": 870,
      "Ⲛ": 871,
      "ⲛ": 872,
      "ⲝ": 873,
      "ⲟ": 874,
      "Ⲡ": 875,
      "ⲡ": 876,
      "Ⲣ": 877,
      "ⲣ": 878,
      "Ⲥ": 879,
      "ⲥ": 880,
      "ⲧ": 881,
      "ⲩ": 882,
      "Ⲫ": 883,
      "ⲫ": 884,
      "ⲭ": 885,
      "ⲱ": 886,
      "ⴰ": 887,
      "ⴱ": 888,
      "ⴳ": 889,
      "ⴵ": 890,
      "ⴷ": 891,
      "ⴻ": 892,
      "ⴽ": 893,
      "ⵃ": 894,
      "ⵅ": 895,
      "ⵉ": 896,
      "ⵍ": 897,
      "ⵎ": 898,
      "ⵏ": 899,
      "ⵓ": 900,
      "ⵔ": 901,
      "ⵙ": 902,
      "ⵡ": 903,
      "ⵢ": 904,
      "ⵣ": 905,
      "ⵯ": 906,
      "《": 907,
      "》": 908,
      "お": 909,
      "け": 910,
      "に": 911,
      "ば": 912,
      "び": 913,
      "ぶ": 914,
      "べ": 915,
      "ぼ": 916,
      "る": 917,
      "イ": 918,
      "エ": 919,
      "カ": 920,
      "ジ": 921,
      "ス": 922,
      "ダ": 923,
      "ト": 924,
      "バ": 925,
      "ビ": 926,
      "ブ": 927,
      "プ": 928,
      "ベ": 929,
      "ボ": 930,
      "ロ": 931,
      "ン": 932,
      "・": 933,
      "ㄅ": 934,
      "ㄆ": 935,
      "ㄇ": 936,
      "ㄈ": 937,
      "ㄉ": 938,
      "ㄊ": 939,
      "ㄋ": 940,
      "ㄌ": 941,
      "ㄍ": 942,
      "ㄎ": 943,
      "ㄏ": 944,
      "ㄐ": 945,
      "ㄑ": 946,
      "ㄒ": 947,
      "ㄓ": 948,
      "ㄔ": 949,
      "ㄕ": 950,
      "ㄖ": 951,
      "ㄗ": 952,
      "ㄘ": 953,
      "ㄙ": 954,
      "ㄚ": 955,
      "ㄛ": 956,
      "ㄜ": 957,
      "ㄝ": 958,
      "ㄞ": 959,
      "ㄟ": 960,
      "ㄠ": 961,
      "ㄡ": 962,
      "ㄢ": 963,
      "ㄣ": 964,
      "ㄤ": 965,
      "ㄥ": 966,
      "ㄦ": 967,
      "ㄧ": 968,
      "ㄨ": 969,
      "ㄩ": 970,
      "ㄱ": 971,
      "ㄲ": 972,
      "ㄴ": 973,
      "ㄷ": 974,
      "ㄸ": 975,
      "ㄹ": 976,
      "ㅁ": 977,
      "ㅂ": 978,
      "ㅃ": 979,
      "ㅅ": 980,
      "ㅆ": 981,
      "ㅇ": 982,
      "ㅈ": 983,
      "ㅉ": 984,
      "ㅊ": 985,
      "ㅋ": 986,
      "ㅌ": 987,
      "ㅍ": 988,
      "ㅎ": 989,
      "ㅏ": 990,
      "ㅐ": 991,
      "ㅑ": 992,
      "ㅒ": 993,
      "ㅓ": 994,
      "ㅔ": 995,
      "ㅕ": 996,
      "ㅖ": 997,
      "ㅗ": 998,
      "ㅘ": 999,
      "ㅙ": 1000,
      "ㅚ": 1001,
      "ㅛ": 1002,
      "ㅜ": 1003,
      "ㅝ": 1004,
      "ㅞ": 1005,
      "ㅟ": 1006,
      "ㅠ": 1007,
      "ㅡ": 1008,
      "ㅢ": 1009,
      "ㅣ": 1010,
      "一": 1011,
      "中": 1012,
      "主": 1013,
      "之": 1014,
      "于": 1015,
      "交": 1016,
      "人": 1017,
      "仰": 1018,
      "份": 1019,
      "使": 1020,
      "信": 1021,
      "元": 1022,
      "公": 1023,
      "前": 1024,
      "南": 1025,
      "咄": 1026,
      "営": 1027,
      "四": 1028,
      "国": 1029,
      "國": 1030,
      "在": 1031,
      "壁": 1032,
      "处": 1033,
      "外": 1034,
      "大": 1035,
      "太": 1036,
      "学": 1037,
      "実": 1038,
      "將": 1039,
      "導": 1040,
      "小": 1041,
      "属": 1042,
      "屬": 1043,
      "左": 1044,
      "市": 1045,
      "干": 1046,
      "弘": 1047,
      "怛": 1048,
      "悒": 1049,
      "愛": 1050,
      "战": 1051,
      "技": 1052,
      "护": 1053,
      "指": 1054,
      "教": 1055,
      "文": 1056,
      "斯": 1057,
      "方": 1058,
      "施": 1059,
      "日": 1060,
      "昆": 1061,
      "是": 1062,
      "曷": 1063,
      "曽": 1064,
      "木": 1065,
      "本": 1066,
      "林": 1067,
      "校": 1068,
      "根": 1069,
      "汗": 1070,
      "河": 1071,
      "活": 1072,
      "浜": 1073,
      "滋": 1074,
      "爱": 1075,
      "片": 1076,
      "略": 1077,
      "的": 1078,
      "県": 1079,
      "眞": 1080,
      "碎": 1081,
      "祖": 1082,
      "禄": 1083,
      "科": 1084,
      "立": 1085,
      "章": 1086,
      "第": 1087,
      "経": 1088,
      "經": 1089,
      "罗": 1090,
      "羽": 1091,
      "育": 1092,
      "胡": 1093,
      "術": 1094,
      "西": 1095,
      "記": 1096,
      "設": 1097,
      "護": 1098,
      "賀": 1099,
      "路": 1100,
      "践": 1101,
      "軍": 1102,
      "达": 1103,
      "達": 1104,
      "郎": 1105,
      "部": 1106,
      "金": 1107,
      "録": 1108,
      "長": 1109,
      "順": 1110,
      "Ꜣ": 1111,
      "ꜣ": 1112,
      "Ꜥ": 1113,
      "ꜥ": 1114,
      "건": 1115,
      "산": 1116,
      "수": 1117,
      "이": 1118,
      "주": 1119,
      "판": 1120,
      "희": 1121,
      "﴾": 1122,
      "﴿": 1123,
      "️": 1124,
      "１": 1125,
      "２": 1126,
      "３": 1127,
      "𐎠": 1128,
      "𐎡": 1129,
      "𐎦": 1130,
      "𐎧": 1131,
      "𐎫": 1132,
      "𐎲": 1133,
      "𐎼": 1134,
      "𐏁": 1135,
      "𐏂": 1136,
      "𐡀": 1137,
      "𐡃": 1138,
      "𐡍": 1139,
      "𐤀": 1140,
      "𐤁": 1141,
      "𐤂": 1142,
      "𐤃": 1143,
      "𐤅": 1144,
      "𐤆": 1145,
      "𐤇": 1146,
      "𐤈": 1147,
      "𐤉": 1148,
      "𐤊": 1149,
      "𐤋": 1150,
      "𐤌": 1151,
      "𐤍": 1152,
      "𐤎": 1153,
      "𐤏": 1154,
      "𐤐": 1155,
      "𐤑": 1156,
      "𐤒": 1157,
      "𐤓": 1158,
      "𐤔": 1159,
      "𐤕": 1160,
      "𐦠": 1161,
      "𐦡": 1162,
      "𐦢": 1163,
      "𐦣": 1164,
      "𐦤": 1165,
      "𐦥": 1166,
      "𐦦": 1167,
      "𐦧": 1168,
      "𐦨": 1169,
      "𐦩": 1170,
      "𐦪": 1171,
      "𐦫": 1172,
      "𐦬": 1173,
      "𐦮": 1174,
      "𐦰": 1175,
      "𐦱": 1176,
      "𐦵": 1177,
      "𐩠": 1178,
      "𐩡": 1179,
      "𐩢": 1180,
      "𐩣": 1181,
      "𐩤": 1182,
      "𐩥": 1183,
      "𐩦": 1184,
      "𐩧": 1185,
      "𐩨": 1186,
      "𐩩": 1187,
      "𐩪": 1188,
      "𐩫": 1189,
      "𐩬": 1190,
      "𐩭": 1191,
      "𐩮": 1192,
      "𐩯": 1193,
      "𐩰": 1194,
      "𐩱": 1195,
      "𐩲": 1196,
      "𐩳": 1197,
      "𐩴": 1198,
      "𐩵": 1199,
      "𐩶": 1200,
      "𐩸": 1201,
      "𐩹": 1202,
      "𐩺": 1203,
      "𐩻": 1204,
      "𐩼": 1205,
      "𒀀": 1206,
      "𒀭": 1207,
      "𒀯": 1208,
      "𒀸": 1209,
      "𒁀": 1210,
      "𒁹": 1211,
      "𒁺": 1212,
      "𒂍": 1213,
      "𒃻": 1214,
      "𒄑": 1215,
      "𒄒": 1216,
      "𒄞": 1217,
      "𒄠": 1218,
      "𒄷": 1219,
      "𒄿": 1220,
      "𒅀": 1221,
      "𒅆": 1222,
      "𒅎": 1223,
      "𒅗": 1224,
      "𒆳": 1225,
      "𒆷": 1226,
      "𒇉": 1227,
      "𒇽": 1228,
      "𒈗": 1229,
      "𒈠": 1230,
      "𒈨": 1231,
      "𒈾": 1232,
      "𒉌": 1233,
      "𒉽": 1234,
      "𒊒": 1235,
      "𒊓": 1236,
      "𒊩": 1237,
      "𒊭": 1238,
      "𒋗": 1239,
      "𒋡": 1240,
      "𒋢": 1241,
      "𒋩": 1242,
      "𒋫": 1243,
      "𒋾": 1244,
      "𒌅": 1245,
      "𒌉": 1246,
      "𒌋": 1247,
      "𒌍": 1248,
      "𒌑": 1249,
      "𒌝": 1250,
      "𒌦": 1251,
      "𒌷": 1252,
      "𒍑": 1253,
      "𒐊": 1254,
      "𓀐": 1255,
      "𓀔": 1256,
      "𓂋": 1257,
      "𓂝": 1258,
      "𓄂": 1259,
      "𓄈": 1260,
      "𓄿": 1261,
      "𓅓": 1262,
      "𓅡": 1263,
      "𓆎": 1264,
      "𓆤": 1265,
      "𓆭": 1266,
      "𓇋": 1267,
      "𓇔": 1268,
      "𓇛": 1269,
      "𓇜": 1270,
      "𓇹": 1271,
      "𓇼": 1272,
      "𓇽": 1273,
      "𓈇": 1274,
      "𓈈": 1275,
      "𓈉": 1276,
      "𓈖": 1277,
      "𓊖": 1278,
      "𓋑": 1279,
      "𓋧": 1280,
      "𓋨": 1281,
      "𓋹": 1282,
      "𓌳": 1283,
      "𓍿": 1284,
      "𓎛": 1285,
      "𓎡": 1286,
      "𓏏": 1287,
      "𓏛": 1288,
      "𓏠": 1289,
      "𓏥": 1290,
      "𓏭": 1291,
      "𓏶": 1292,
      "𓏺": 1293,
      "𝔓": 1294,
      "👌": 1295,
      "📣": 1296,
      "📺": 1297,
      "📻": 1298,
      "🔻": 1299,
      "ال": 1300,
      "▁ال": 1301,
      "▁م": 1302,
      "▁و": 1303,
      "▁ب": 1304,
      "▁ف": 1305,
      "▁ع": 1306,
      "▁أ": 1307,
      "ية": 1308,
      "ان": 1309,
      "▁الم": 1310,
      "▁في": 1311,
      "▁ل": 1312,
      "ين": 1313,
      "ات": 1314,
      "▁من": 1315,
      "▁ت": 1316,
      "ام": 1317,
      "ار": 1318,
      "لى": 1319,
      "▁إ": 1320,
      "ها": 1321,
      "\n-": 1322,
      "▁ي": 1323,
      "▁ك": 1324,
      "ري": 1325,
      "▁ح": 1326,
      "را": 1327,
      "▁الأ": 1328,
      "لي": 1329,
      "▁وال": 1330,
      "ير": 1331,
      "▁ق": 1332,
      "▁س": 1333,
      "▁الع": 1334,
      "اب": 1335,
      "اد": 1336,
      "ول": 1337,
      "ون": 1338,
      "اس": 1339,
      "▁الت": 1340,
      "ما": 1341,
      "ور": 1342,
      "▁ن": 1343,
      "▁ه": 1344,
      "▁1": 1345,
      ".\n": 1346,
      "▁على": 1347,
      "دي": 1348,
      "▁ج": 1349,
      "▁الق": 1350,
      "لا": 1351,
      "وا": 1352,
      "▁(": 1353,
      "▁الس": 1354,
      "▁أن": 1355,
      "▁لل": 1356,
      "▁ش": 1357,
      "صر": 1358,
      "▁الح": 1359,
      "رب": 1360,
      "يل": 1361,
      "لك": 1362,
      "▁إلى": 1363,
      "▁ر": 1364,
      "نا": 1365,
      "▁د": 1366,
      "هم": 1367,
      "رة": 1368,
      "##": 1369,
      "عد": 1370,
      "حم": 1371,
      "وم": 1372,
      "▁بن": 1373,
      "▁الإ": 1374,
      "▁الب": 1375,
      "▁الج": 1376,
      "▁بال": 1377,
      "▁خ": 1378,
      "عة": 1379,
      "▁الف": 1380,
      "يد": 1381,
      "▁الش": 1382,
      "▁2": 1383,
      "▁الد": 1384,
      "ائ": 1385,
      "▁مع": 1386,
      "في": 1387,
      "ًا": 1388,
      "لم": 1389,
      "▁19": 1390,
      "يا": 1391,
      "ود": 1392,
      "▁الن": 1393,
      "▁عن": 1394,
      "وس": 1395,
      "بد": 1396,
      "قد": 1397,
      "اء": 1398,
      "▁ص": 1399,
      "است": 1400,
      "يس": 1401,
      "رك": 1402,
      "بي": 1403,
      "يم": 1404,
      "اف": 1405,
      "بر": 1406,
      "▁كان": 1407,
      "▁عام": 1408,
      ".\n##": 1409,
      "ست": 1410,
      "حمد": 1411,
      "حد": 1412,
      "سل": 1413,
      "ته": 1414,
      "▁20": 1415,
      "من": 1416,
      "▁الك": 1417,
      "ة،": 1418,
      "مل": 1419,
      "▁وت": 1420,
      "▁الر": 1421,
      "▁ط": 1422,
      "▁وأ": 1423,
      ".\n-": 1424,
      "اه": 1425,
      "اع": 1426,
      "مر": 1427,
      "▁الخ": 1428,
      "كان": 1429,
      "وق": 1430,
      "وي": 1431,
      "اح": 1432,
      "▁«": 1433,
      "نة": 1434,
      "مة": 1435,
      "له": 1436,
      "▁الذ": 1437,
      "وج": 1438,
      "قة": 1439,
      "▁ث": 1440,
      "شر": 1441,
      "اني": 1442,
      "▁الص": 1443,
      "▁ذ": 1444,
      "مال": 1445,
      "وب": 1446,
      "▁الث": 1447,
      "كن": 1448,
      "▁عبد": 1449,
      "▁التي": 1450,
      "ية،": 1451,
      "▁غ": 1452,
      "در": 1453,
      "خر": 1454,
      "▁مصر": 1455,
      "▁هذ": 1456,
      "بل": 1457,
      "مع": 1458,
      "كت": 1459,
      "قي": 1460,
      "اج": 1461,
      "▁ز": 1462,
      "لة": 1463,
      "▁علي": 1464,
      "▁-": 1465,
      "بة": 1466,
      "▁وي": 1467,
      "▁لم": 1468,
      "اً": 1469,
      "كر": 1470,
      "دة": 1471,
      "هر": 1472,
      "تي": 1473,
      "وف": 1474,
      "▁وه": 1475,
      "▁بعد": 1476,
      "▁أو": 1477,
      "اري": 1478,
      "ني": 1479,
      "لف": 1480,
      "مي": 1481,
      "ارة": 1482,
      "▁الط": 1483,
      "سي": 1484,
      "قت": 1485,
      "▁محمد": 1486,
      "جل": 1487,
      "▁ما": 1488,
      "صري": 1489,
      "زي": 1490,
      "▁بين": 1491,
      "▁الذي": 1492,
      "هد": 1493,
      "▁أب": 1494,
      "▁وم": 1495,
      "عل": 1496,
      "لال": 1497,
      "صل": 1498,
      "تم": 1499,
      "ند": 1500,
      "▁ا": 1501,
      "رف": 1502,
      "▁حي": 1503,
      "حت": 1504,
      "رض": 1505,
      "▁الو": 1506,
      "يرة": 1507,
      "َّ": 1508,
      "دين": 1509,
      "▁تم": 1510,
      "سب": 1511,
      "\n##": 1512,
      "▁است": 1513,
      "وع": 1514,
      "▁العرب": 1515,
      "سم": 1516,
      "▁ان": 1517,
      "▁وب": 1518,
      "▁المع": 1519,
      "حي": 1520,
      "اط": 1521,
      "▁وع": 1522,
      "▁ض": 1523,
      "▁أي": 1524,
      "كل": 1525,
      "▁المت": 1526,
      "دم": 1527,
      "فر": 1528,
      "▁أم": 1529,
      "وت": 1530,
      "▁المن": 1531,
      "ولة": 1532,
      "▁آ": 1533,
      "▁ذلك": 1534,
      "الم": 1535,
      "\n\n": 1536,
      "سة": 1537,
      "الي": 1538,
      "اص": 1539,
      "ادة": 1540,
      "ابن": 1541,
      "▁بد": 1542,
      "▁مس": 1543,
      "اش": 1544,
      "كم": 1545,
      "لب": 1546,
      "تب": 1547,
      ")\n-": 1548,
      "وات": 1549,
      "رق": 1550,
      "00": 1551,
      "ه،": 1552,
      "ديد": 1553,
      "وان": 1554,
      "▁201": 1555,
      "جم": 1556,
      "▁هو": 1557,
      "رن": 1558,
      "أن": 1559,
      "ئيس": 1560,
      "▁وكان": 1561,
      "انية": 1562,
      "▁مح": 1563,
      "قل": 1564,
      "▁كل": 1565,
      "▁ثم": 1566,
      "خت": 1567,
      "▁بع": 1568,
      "▁الغ": 1569,
      "فة": 1570,
      "▁إن": 1571,
      "راء": 1572,
      "سط": 1573,
      "▁تع": 1574,
      "1.": 1575,
      "▁200": 1576,
      "▁وق": 1577,
      "اسم": 1578,
      "▁مت": 1579,
      "▁هذا": 1580,
      "ريق": 1581,
      "▁الأم": 1582,
      "ركة": 1583,
      "حة": 1584,
      "▁المس": 1585,
      "تى": 1586,
      "▁الله": 1587,
      "يش": 1588,
      "▁والم": 1589,
      "▁هذه": 1590,
      "رية": 1591,
      "رائ": 1592,
      "خل": 1593,
      "ليم": 1594,
      "طة": 1595,
      "اق": 1596,
      "ادي": 1597,
      "▁بم": 1598,
      "▁كانت": 1599,
      "▁حيث": 1600,
      "ناء": 1601,
      "صب": 1602,
      "▁لا": 1603,
      "▁سنة": 1604,
      "فس": 1605,
      "▁هي": 1606,
      "▁وج": 1607,
      "تها": 1608,
      "▁اله": 1609,
      "دينة": 1610,
      "▁ابن": 1611,
      "▁له": 1612,
      "عب": 1613,
      "أس": 1614,
      "تاب": 1615,
      "برا": 1616,
      "ذا": 1617,
      "رج": 1618,
      "▁المصر": 1619,
      "▁المصري": 1620,
      "▁الز": 1621,
      "سلام": 1622,
      "▁حس": 1623,
      "ورة": 1624,
      "ولي": 1625,
      "ثر": 1626,
      "▁أحمد": 1627,
      "ثل": 1628,
      "تح": 1629,
      "▁حتى": 1630,
      "▁يع": 1631,
      "▁أس": 1632,
      "اهرة": 1633,
      "▁قبل": 1634,
      "▁الل": 1635,
      "اريخ": 1636,
      "رد": 1637,
      "▁أبو": 1638,
      "ية.": 1639,
      "19": 1640,
      "▁مص": 1641,
      "▁الملك": 1642,
      "ماع": 1643,
      "▁كما": 1644,
      "▁أع": 1645,
      "▁وقد": 1646,
      "▁*": 1647,
      "وري": 1648,
      "اض": 1649,
      "يات": 1650,
      "كون": 1651,
      "خص": 1652,
      "▁الدين": 1653,
      "يت": 1654,
      "زة": 1655,
      "▁وفي": 1656,
      "إن": 1657,
      "اته": 1658,
      "وك": 1659,
      "قب": 1660,
      "▁العام": 1661,
      "▁الآ": 1662,
      "▁وف": 1663,
      "▁بل": 1664,
      "▁تح": 1665,
      "▁الي": 1666,
      "وية": 1667,
      "ين،": 1668,
      "▁سي": 1669,
      "▁المصرية": 1670,
      "لام": 1671,
      "▁وهو": 1672,
      "▁مر": 1673,
      "قال": 1674,
      "ذلك": 1675,
      "▁خلال": 1676,
      "▁وح": 1677,
      "▁يت": 1678,
      "كي": 1679,
      "عم": 1680,
      "شار": 1681,
      "▁قد": 1682,
      "▁ين": 1683,
      "▁3": 1684,
      "از": 1685,
      "لق": 1686,
      "▁والت": 1687,
      "قر": 1688,
      "▁الإس": 1689,
      "هاد": 1690,
      "▁\"": 1691,
      "▁ومن": 1692,
      "ركز": 1693,
      "▁للم": 1694,
      "دد": 1695,
      "يب": 1696,
      "▁الأس": 1697,
      "وض": 1698,
      "▁مج": 1699,
      "▁إس": 1700,
      "▁لت": 1701,
      "وة": 1702,
      "امعة": 1703,
      "اة": 1704,
      "يو": 1705,
      "▁الإسلام": 1706,
      "ها،": 1707,
      ")،": 1708,
      "▁ول": 1709,
      "لاح": 1710,
      "▁المح": 1711,
      "▁أنه": 1712,
      "نية": 1713,
      "▁وس": 1714,
      "▁مد": 1715,
      "وى": 1716,
      "ولى": 1717,
      "افة": 1718,
      "وز": 1719,
      "▁عند": 1720,
      "▁تق": 1721,
      "▁أحد": 1722,
      "رح": 1723,
      "▁،": 1724,
      "ثة": 1725,
      "وفي": 1726,
      "وح": 1727,
      "▁الأول": 1728,
      "وال": 1729,
      "فت": 1730,
      "يع": 1731,
      "▁ون": 1732,
      "الة": 1733,
      "▁القاهرة": 1734,
      "▁بت": 1735,
      "▁أك": 1736,
      "يخ": 1737,
      "بع": 1738,
      "جلس": 1739,
      "مس": 1740,
      "صة": 1741,
      "عي": 1742,
      "ثم": 1743,
      "▁199": 1744,
      "▁بعض": 1745,
      "وار": 1746,
      "راج": 1747,
      "ورية": 1748,
      "صف": 1749,
      "خرى": 1750,
      "اعد": 1751,
      "▁البح": 1752,
      "بير": 1753,
      "▁وإ": 1754,
      "▁بط": 1755,
      "بار": 1756,
      "افظ": 1757,
      "▁به": 1758,
      "▁فت": 1759,
      "ادر": 1760,
      "طف": 1761,
      "مه": 1762,
      "عت": 1763,
      "ارس": 1764,
      "وط": 1765,
      "▁عمر": 1766,
      "حدة": 1767,
      "▁العربية": 1768,
      "رى": 1769,
      "▁وز": 1770,
      "▁أيض": 1771,
      "جد": 1772,
      "قط": 1773,
      "▁ولك": 1774,
      "ماء": 1775,
      "▁غير": 1776,
      "نت": 1777,
      "▁وا": 1778,
      "..": 1779,
      "نس": 1780,
      "▁أف": 1781,
      "ئة": 1782,
      "▁رئيس": 1783,
      "ي،": 1784,
      "▁أول": 1785,
      "شهاد": 1786,
      "▁كتاب": 1787,
      "يف": 1788,
      "▁ولكن": 1789,
      "▁بح": 1790,
      "▁18": 1791,
      "▁بش": 1792,
      "▁والأ": 1793,
      "▁مؤ": 1794,
      "▁–": 1795,
      "▁عم": 1796,
      "▁سب": 1797,
      "▁(ال": 1798,
      "▁يق": 1799,
      "احت": 1800,
      "رس": 1801,
      "▁إلي": 1802,
      "▁لأ": 1803,
      "▁198": 1804,
      "\n1.": 1805,
      "▁الثاني": 1806,
      "▁مست": 1807,
      "وعة": 1808,
      "لط": 1809,
      "▁لي": 1810,
      "يلة": 1811,
      "رت": 1812,
      "▁الض": 1813,
      "▁دي": 1814,
      "▁العمل": 1815,
      "انت": 1816,
      "رع": 1817,
      "▁المج": 1818,
      "اث": 1819,
      "▁وك": 1820,
      "اعت": 1821,
      "▁197": 1822,
      "ابة": 1823,
      "▁المؤ": 1824,
      "هب": 1825,
      "امل": 1826,
      "▁عليه": 1827,
      "هل": 1828,
      "▁سن": 1829,
      "20": 1830,
      "طقة": 1831,
      "▁السي": 1832,
      "يلم": 1833,
      "▁تن": 1834,
      "▁أبي": 1835,
      "اية": 1836,
      "▁المست": 1837,
      "رم": 1838,
      "▁عدد": 1839,
      "غير": 1840,
      "كوم": 1841,
      "▁4": 1842,
      "▁مثل": 1843,
      "▁والد": 1844,
      "قا": 1845,
      "▁بها": 1846,
      "رات": 1847,
      "استشهاد": 1848,
      "انون": 1849,
      "▁مصري": 1850,
      "▁وهي": 1851,
      "▁أخ": 1852,
      "عيد": 1853,
      "▁عمل": 1854,
      "ثير": 1855,
      "ارات": 1856,
      "▁المد": 1857,
      "ديم": 1858,
      "هيم": 1859,
      "▁بي": 1860,
      "جه": 1861,
      "الب": 1862,
      "يني": 1863,
      "▁(م": 1864,
      "اك": 1865,
      "حمود": 1866,
      "▁دور": 1867,
      "▁5": 1868,
      "كري": 1869,
      "▁تت": 1870,
      "▁الاست": 1871,
      "ظم": 1872,
      "ائل": 1873,
      "▁عشر": 1874,
      "اسي": 1875,
      "▁بأ": 1876,
      "▁نفس": 1877,
      "▁ولا": 1878,
      "▁196": 1879,
      "فع": 1880,
      "▁فيها": 1881,
      "راق": 1882,
      "▁يم": 1883,
      "ميع": 1884,
      "▁6": 1885,
      "▁العالم": 1886,
      "▁أد": 1887,
      "وه": 1888,
      "▁حم": 1889,
      "▁بأن": 1890,
      "▁هـ": 1891,
      "سلسل": 1892,
      "لت": 1893,
      "غة": 1894,
      "▁إلا": 1895,
      "▁مش": 1896,
      "▁«ال": 1897,
      "»،": 1898,
      "يق": 1899,
      "الية": 1900,
      "▁يوم": 1901,
      "خط": 1902,
      "\nت": 1903,
      "فق": 1904,
      "▁مدينة": 1905,
      "▁والع": 1906,
      "رائيل": 1907,
      "قدم": 1908,
      "كندر": 1909,
      "جة": 1910,
      "▁195": 1911,
      "حو": 1912,
      "▁انت": 1913,
      "قيق": 1914,
      "ليل": 1915,
      "صول": 1916,
      "سن": 1917,
      "▁تحت": 1918,
      "▁الا": 1919,
      "جر": 1920,
      "ريب": 1921,
      ".\n1.": 1922,
      "▁عب": 1923,
      "ظر": 1924,
      "▁الدولة": 1925,
      "ان،": 1926,
      "براهيم": 1927,
      "يز": 1928,
      "راب": 1929,
      "▁مق": 1930,
      "اجت": 1931,
      "▁الفت": 1932,
      "ظهر": 1933,
      "▁لكن": 1934,
      "به": 1935,
      "خرج": 1936,
      "ربية": 1937,
      "وسف": 1938,
      "▁قام": 1939,
      "لسط": 1940,
      "▁قال": 1941,
      "ناك": 1942,
      "▁يد": 1943,
      "يدة": 1944,
      "▁ود": 1945,
      "كة": 1946,
      "شف": 1947,
      "▁تأ": 1948,
      "▁يُ": 1949,
      "▁الثال": 1950,
      "جن": 1951,
      "طر": 1952,
      "▁قر": 1953,
      "▁النا": 1954,
      "ا،": 1955,
      "راد": 1956,
      "فن": 1957,
      "▁أخرى": 1958,
      "▁منها": 1959,
      "▁الفيلم": 1960,
      "لاق": 1961,
      "صو": 1962,
      "▁حسن": 1963,
      "وائ": 1964,
      "صور": 1965,
      "▁أغ": 1966,
      "▁فيلم": 1967,
      "▁مم": 1968,
      "▁التع": 1969,
      "▁تاريخ": 1970,
      "▁الأولى": 1971,
      "▁القرن": 1972,
      "▁تش": 1973,
      "ضم": 1974,
      "▁محمود": 1975,
      "▁بر": 1976,
      "زل": 1977,
      "▁الإم": 1978,
      "ريف": 1979,
      "▁الشيخ": 1980,
      "الح": 1981,
      "نى": 1982,
      "افظة": 1983,
      "▁ات": 1984,
      "لاء": 1985,
      "▁وش": 1986,
      "أة": 1987,
      "▁الرئيس": 1988,
      "▁جن": 1989,
      "امة": 1990,
      "▁العديد": 1991,
      "راس": 1992,
      "ليف": 1993,
      "▁فيه": 1994,
      "ختلف": 1995,
      "ات،": 1996,
      "▁جامعة": 1997,
      "▁الذين": 1998,
      "وسط": 1999,
      "وقع": 2000,
      "راض": 2001,
      "▁7": 2002,
      "صار": 2003,
      "فض": 2004,
      "جموعة": 2005,
      "▁اسم": 2006,
      "اصة": 2007,
      "▁القر": 2008,
      "▁الأع": 2009,
      "كتو": 2010,
      "ارج": 2011,
      "▁أش": 2012,
      "يه": 2013,
      "طل": 2014,
      "▁إبراهيم": 2015,
      "▁فقد": 2016,
      "راً": 2017,
      "عر": 2018,
      "▁التح": 2019,
      "وش": 2020,
      "▁بالم": 2021,
      "اخل": 2022,
      "▁للت": 2023,
      "هما": 2024,
      "اسية": 2025,
      "امي": 2026,
      "ودة": 2027,
      "▁مما": 2028,
      "تاج": 2029,
      "بية": 2030,
      "▁يوسف": 2031,
      "نان": 2032,
      "▁والتي": 2033,
      "▁إد": 2034,
      "غم": 2035,
      "اجتماع": 2036,
      "صبح": 2037,
      "زيز": 2038,
      "حف": 2039,
      "خد": 2040,
      "سبب": 2041,
      "▁باش": 2042,
      "قم": 2043,
      "▁تج": 2044,
      "▁الجز": 2045,
      "▁المسلم": 2046,
      "▁المم": 2047,
      "ضاء": 2048,
      "▁بالق": 2049,
      "ائد": 2050,
      "▁باسم": 2051,
      "▁زوج": 2052,
      "واق": 2053,
      "▁أكثر": 2054,
      "صد": 2055,
      "▁12": 2056,
      "▁أث": 2057,
      "▁موس": 2058,
      "سكر": 2059,
      "▁وأن": 2060,
      "ريط": 2061,
      "▁مب": 2062,
      ")\n\n": 2063,
      "▁واست": 2064,
      "ذي": 2065,
      "ضع": 2066,
      "▁البل": 2067,
      "▁آخر": 2068,
      "واء": 2069,
      "▁الجن": 2070,
      "▁مجلس": 2071,
      "▁ور": 2072,
      "خراج": 2073,
      "طي": 2074,
      "▁بج": 2075,
      "▁ام": 2076,
      "▁ثلا": 2077,
      "اير": 2078,
      "▁حول": 2079,
      "لكة": 2080,
      "▁المش": 2081,
      "سين": 2082,
      "▁تلك": 2083,
      "بت": 2084,
      "▁عهد": 2085,
      "▁يس": 2086,
      "▁الجيش": 2087,
      "ياة": 2088,
      "ريد": 2089,
      "▁أعمال": 2090,
      "▁فأ": 2091,
      "ديدة": 2092,
      "▁:": 2093,
      "▁حكم": 2094,
      "لاً": 2095,
      "اذ": 2096,
      "قتص": 2097,
      "▁ومع": 2098,
      "مالي": 2099,
      "ماعيل": 2100,
      "▁(1": 2101,
      "خدم": 2102,
      "▁8": 2103,
      "ادية": 2104,
      "\\\\": 2105,
      "▁الدول": 2106,
      "▁الوق": 2107,
      "▁تد": 2108,
      "▁لس": 2109,
      "ظيم": 2110,
      "▁الشرق": 2111,
      "ارت": 2112,
      "▁بالإ": 2113,
      "الد": 2114,
      "اي": 2115,
      "▁باشا": 2116,
      "▁نج": 2117,
      "▁منذ": 2118,
      ".استشهاد": 2119,
      "▁حد": 2120,
      "▁السلط": 2121,
      "فل": 2122,
      "هم،": 2123,
      "راف": 2124,
      "▁خط": 2125,
      "▁جميع": 2126,
      "ديث": 2127,
      "▁بإ": 2128,
      "▁للأ": 2129,
      "ظام": 2130,
      "يلي": 2131,
      "▁الإسكندر": 2132,
      "ذكر": 2133,
      "▁لها": 2134,
      "▁عليها": 2135,
      "نج": 2136,
      "فاع": 2137,
      "▁ضد": 2138,
      "نائ": 2139,
      "لاف": 2140,
      "▁194": 2141,
      "رير": 2142,
      "▁لإ": 2143,
      "ارية": 2144,
      "حل": 2145,
      "▁ويب": 2146,
      "اول": 2147,
      "▁المدينة": 2148,
      "▁9": 2149,
      "انب": 2150,
      "رش": 2151,
      "وني": 2152,
      "كتب": 2153,
      "▁هناك": 2154,
      "ريم": 2155,
      "روف": 2156,
      "▁أح": 2157,
      "ين.": 2158,
      "▁الأد": 2159,
      "ريك": 2160,
      "▁العل": 2161,
      "ابق": 2162,
      "اعة": 2163,
      "▁رب": 2164,
      "▁وخ": 2165,
      "باب": 2166,
      ":\n-": 2167,
      "هـ": 2168,
      "▁الثالث": 2169,
      "▁والإ": 2170,
      "ضافة": 2171,
      "هود": 2172,
      "زب": 2173,
      ".\nو": 2174,
      "طب": 2175,
      "بلغ": 2176,
      "▁عندما": 2177,
      "ينة": 2178,
      "راع": 2179,
      "▁ولم": 2180,
      ").": 2181,
      "▁كبير": 2182,
      "▁أص": 2183,
      "▁بق": 2184,
      "▁رس": 2185,
      "راك": 2186,
      "▁10": 2187,
      "▁العلم": 2188,
      "▁ملك": 2189,
      "▁جز": 2190,
      "درسة": 2191,
      "غل": 2192,
      "ًا،": 2193,
      "يط": 2194,
      "زم": 2195,
      "▁لج": 2196,
      "▁تس": 2197,
      "▁يناير": 2198,
      "▁التاريخ": 2199,
      "أت": 2200,
      "▁الحرب": 2201,
      "طفى": 2202,
      "اهر": 2203,
      "كس": 2204,
      "▁لع": 2205,
      "كومة": 2206,
      "▁مركز": 2207,
      "▁دار": 2208,
      "جب": 2209,
      "▁سليم": 2210,
      "▁ست": 2211,
      "▁11": 2212,
      "جي": 2213,
      "وجد": 2214,
      "خذ": 2215,
      "▁يتم": 2216,
      "▁يح": 2217,
      "▁بشكل": 2218,
      "▁المص": 2219,
      "▁الرا": 2220,
      "▁(19": 2221,
      "▁العب": 2222,
      "عود": 2223,
      "▁وكانت": 2224,
      "تد": 2225,
      "▁بني": 2226,
      "▁لح": 2227,
      "ولا": 2228,
      "200": 2229,
      "▁الكتاب": 2230,
      "امج": 2231,
      "▁202": 2232,
      "▁بدور": 2233,
      "ية\n-": 2234,
      "▁كتب": 2235,
      "▁الصح": 2236,
      "▁القدي": 2237,
      "لس": 2238,
      "حدى": 2239,
      "▁13": 2240,
      "ه.": 2241,
      "▁المتحدة": 2242,
      "▁الأخ": 2243,
      "هي": 2244,
      "ثار": 2245,
      "ادل": 2246,
      "ياً": 2247,
      "وزي": 2248,
      "م،": 2249,
      "جز": 2250,
      "▁ظ": 2251,
      "قام": 2252,
      "تل": 2253,
      "كتوبر": 2254,
      "تر": 2255,
      "ابعة": 2256,
      "اوي": 2257,
      "اسة": 2258,
      "شق": 2259,
      "ياء": 2260,
      "▁وقت": 2261,
      "كرة": 2262,
      "▁العامة": 2263,
      "▁والح": 2264,
      "▁يش": 2265,
      "بط": 2266,
      "▁دم": 2267,
      "زوج": 2268,
      "▁فإن": 2269,
      "يمة": 2270,
      "تمع": 2271,
      "▁الميل": 2272,
      "ابع": 2273,
      "ملة": 2274,
      "▁أنها": 2275,
      "لية": 2276,
      "انة": 2277,
      "وث": 2278,
      "▁رقم": 2279,
      "▁الات": 2280,
      "▁لأن": 2281,
      "ارك": 2282,
      "حاد": 2283,
      "▁الشر": 2284,
      "▁نس": 2285,
      "▁الوط": 2286,
      "▁أكتوبر": 2287,
      "▁وص": 2288,
      "▁فر": 2289,
      "▁الأف": 2290,
      "▁عض": 2291,
      "مهورية": 2292,
      "فا": 2293,
      "▁إسرائيل": 2294,
      "▁يست": 2295,
      "▁سم": 2296,
      "▁منه": 2297,
      "▁الوقت": 2298,
      "▁14": 2299,
      "▁يون": 2300,
      "▁مصادر": 2301,
      "▁مل": 2302,
      "والي": 2303,
      "ضر": 2304,
      "اصر": 2305,
      "▁المه": 2306,
      "▁العربي": 2307,
      "▁بك": 2308,
      "امع": 2309,
      "َّة": 2310,
      "▁نق": 2311,
      "▁قط": 2312,
      "▁طريق": 2313,
      "بح": 2314,
      "▁علم": 2315,
      "بو": 2316,
      "شاء": 2317,
      "الت": 2318,
      "أم": 2319,
      "▁أيضًا": 2320,
      "▁المنا": 2321,
      "».": 2322,
      "▁قي": 2323,
      "▁حسين": 2324,
      "▁15": 2325,
      "▁عل": 2326,
      "▁وط": 2327,
      "▁مصطفى": 2328,
      "▁يكون": 2329,
      "▁التن": 2330,
      "▁إسماعيل": 2331,
      "▁منهم": 2332,
      "▁البحر": 2333,
      "ِّ": 2334,
      "ويل": 2335,
      "▁/": 2336,
      "▁اليوم": 2337,
      "▁المق": 2338,
      "▁اعت": 2339,
      "▁التج": 2340,
      "▁قب": 2341,
      "▁إحدى": 2342,
      "▁شخص": 2343,
      ":\n": 2344,
      "هو": 2345,
      "▁كلية": 2346,
      "▁العثم": 2347,
      "▁حرب": 2348,
      "ائر": 2349,
      "▁والن": 2350,
      "▁الوز": 2351,
      "ينما": 2352,
      "خدام": 2353,
      "اعدة": 2354,
      "▁القوات": 2355,
      "▁كم": 2356,
      "اتها": 2357,
      "▁بسبب": 2358,
      "رياض": 2359,
      "دى": 2360,
      "ابل": 2361,
      "ثال": 2362,
      "▁مُ": 2363,
      "لسطين": 2364,
      "▁احت": 2365,
      "▁أهل": 2366,
      "▁المر": 2367,
      "براط": 2368,
      "▁قص": 2369,
      "▁الروم": 2370,
      "ربع": 2371,
      "▁جد": 2372,
      "حمن": 2373,
      "▁لن": 2374,
      "▁صلاح": 2375,
      "شروع": 2376,
      "▁الأسرة": 2377,
      "ية\n": 2378,
      "انيا": 2379,
      "▁الأك": 2380,
      "طلق": 2381,
      "▁منطقة": 2382,
      "ناة": 2383,
      "▁البر": 2384,
      "▁العم": 2385,
      "نع": 2386,
      "▁إم": 2387,
      "▁حق": 2388,
      "▁قدم": 2389,
      "▁المب": 2390,
      "▁مرة": 2391,
      "▁وبعد": 2392,
      "▁عز": 2393,
      "▁الفترة": 2394,
      "▁الثانية": 2395,
      "تين": 2396,
      "▁الإسلامية": 2397,
      "▁ضمن": 2398,
      "رسل": 2399,
      "ذه": 2400,
      "▁الأز": 2401,
      "▁اب": 2402,
      "▁وذلك": 2403,
      "▁وتم": 2404,
      "▁الخط": 2405,
      "▁رم": 2406,
      "ضا": 2407,
      "سر": 2408,
      "▁يمكن": 2409,
      "▁القانون": 2410,
      "راسة": 2411,
      "اتب": 2412,
      "▁القديمة": 2413,
      "▁أق": 2414,
      "▁قصة": 2415,
      "يين": 2416,
      "حدث": 2417,
      "طار": 2418,
      "▁ألف": 2419,
      "▁الساد": 2420,
      "▁عدة": 2421,
      "ون،": 2422,
      "كتور": 2423,
      "عادة": 2424,
      ".\nفي": 2425,
      "▁مجموعة": 2426,
      "ولد": 2427,
      "ويس": 2428,
      "بدأ": 2429,
      "جال": 2430,
      "▁الاجتماع": 2431,
      "هور": 2432,
      "▁السود": 2433,
      "احة": 2434,
      "▁منت": 2435,
      "داد": 2436,
      "اكم": 2437,
      "▁بالت": 2438,
      "▁إخراج": 2439,
      "نط": 2440,
      "▁المغ": 2441,
      "▁المسي": 2442,
      "▁العزيز": 2443,
      "▁القد": 2444,
      "▁يولي": 2445,
      "▁للع": 2446,
      "وجه": 2447,
      "ــ": 2448,
      "▁للح": 2449,
      "ثيل": 2450,
      "▁الحكم": 2451,
      "▁الرحمن": 2452,
      "▁النيل": 2453,
      "▁يز": 2454,
      "▁ذكر": 2455,
      "خاب": 2456,
      "▁(ف": 2457,
      "▁التق": 2458,
      "▁193": 2459,
      "▁الأن": 2460,
      "ليفة": 2461,
      "حية": 2462,
      "ائزة": 2463,
      "هاب": 2464,
      "ثي": 2465,
      "▁تط": 2466,
      "▁رجل": 2467,
      "▁والذي": 2468,
      "بيرة": 2469,
      "الات": 2470,
      "▁واحد": 2471,
      "هاية": 2472,
      "آن": 2473,
      "▁توفي": 2474,
      "عا": 2475,
      "▁فترة": 2476,
      "اهد": 2477,
      "▁أهم": 2478,
      "▁نحو": 2479,
      "▁نش": 2480,
      "وبة": 2481,
      "كا": 2482,
      "خب": 2483,
      "▁مصر،": 2484,
      "▁الناس": 2485,
      "▁ذلك،": 2486,
      "▁بما": 2487,
      "▁الأمير": 2488,
      "▁سنوات": 2489,
      "▁بطولة": 2490,
      "راسات": 2491,
      "▁إج": 2492,
      "er": 2493,
      "▁إذا": 2494,
      "\n-\n-": 2495,
      "▁خالد": 2496,
      ")\n": 2497,
      "حمل": 2498,
      "▁البريط": 2499,
      "ضة": 2500,
      "▁سعيد": 2501,
      "ربي": 2502,
      "▁الطب": 2503,
      "▁الفرن": 2504,
      "ليات": 2505,
      "جوم": 2506,
      "▁السلطان": 2507,
      "▁الرس": 2508,
      "بيب": 2509,
      "▁جيش": 2510,
      "▁أثناء": 2511,
      "▁2006": 2512,
      "▁لب": 2513,
      "▁صف": 2514,
      "▁دون": 2515,
      "▁التم": 2516,
      "▁الاقتص": 2517,
      "▁المسلمين": 2518,
      "▁الانت": 2519,
      "▁والش": 2520,
      "▁يوليو": 2521,
      "an": 2522,
      "▁والق": 2523,
      "ريس": 2524,
      "لح": 2525,
      "واج": 2526,
      "▁الميلاد": 2527,
      "وبي": 2528,
      "ضل": 2529,
      "فاق": 2530,
      "▁فقط": 2531,
      "واد": 2532,
      "ائية": 2533,
      "▁إنتاج": 2534,
      "عى": 2535,
      "▁مسلسل": 2536,
      "رفة": 2537,
      "▁لسنة": 2538,
      "▁الثق": 2539,
      "ومي": 2540,
      "▁مارس": 2541,
      "▁سل": 2542,
      "▁للإ": 2543,
      "ابر": 2544,
      "▁(أ": 2545,
      "▁بناء": 2546,
      ":19": 2547,
      "▁حين": 2548,
      "▁وغير": 2549,
      "▁أما": 2550,
      "▁17": 2551,
      "سكرية": 2552,
      "شت": 2553,
      "كتاب": 2554,
      "▁ليس": 2555,
      "▁.": 2556,
      "▁زي": 2557,
      "▁القب": 2558,
      "▁تُ": 2559,
      "▁ولي": 2560,
      "رام": 2561,
      "▁لق": 2562,
      "▁الإسكندرية": 2563,
      "▁جمال": 2564,
      "▁داخل": 2565,
      "ها.": 2566,
      "غي": 2567,
      "وقف": 2568,
      "▁السكان": 2569,
      "بات": 2570,
      "رخ": 2571,
      "ائمة": 2572,
      "ته،": 2573,
      "▁العصر": 2574,
      "▁ذات": 2575,
      "▁بلغ": 2576,
      "وذ": 2577,
      "▁المُ": 2578,
      "طق": 2579,
      "▁بو": 2580,
      "ريل": 2581,
      "▁ها": 2582,
      "ظمة": 2583,
      "▁للق": 2584,
      "▁الحج": 2585,
      "ئي": 2586,
      "▁محافظة": 2587,
      "▁إليه": 2588,
      "▁الشعب": 2589,
      "رائيلي": 2590,
      "▁عنه": 2591,
      "الف": 2592,
      "ماعة": 2593,
      "واجه": 2594,
      "▁شي": 2595,
      "▁مختلف": 2596,
      "▁حوالي": 2597,
      "▁دول": 2598,
      "\nأ": 2599,
      "▁والس": 2600,
      "يناء": 2601,
      "ينا": 2602,
      "▁حسب": 2603,
      "201": 2604,
      "▁النس": 2605,
      "▁معركة": 2606,
      "هير": 2607,
      "▁المقد": 2608,
      "شي": 2609,
      "▁السل": 2610,
      "ذهب": 2611,
      "قتل": 2612,
      "▁را": 2613,
      "\nفي": 2614,
      "▁عمرو": 2615,
      "وين": 2616,
      "يج": 2617,
      "ى،": 2618,
      "بعد": 2619,
      "▁بينما": 2620,
      "قه": 2621,
      "▁اللغة": 2622,
      "قبرة": 2623,
      "▁شركة": 2624,
      "▁سليمان": 2625,
      ").\n-": 2626,
      "▁أمام": 2627,
      "▁الان": 2628,
      "▁بيت": 2629,
      "▁الحم": 2630,
      "▁شع": 2631,
      "▁رأس": 2632,
      "ركات": 2633,
      "بال": 2634,
      "شارك": 2635,
      "راضي": 2636,
      "▁وان": 2637,
      "▁فقال": 2638,
      "▁يا": 2639,
      "▁قسم": 2640,
      "ليون": 2641,
      "▁جنوب": 2642,
      "كام": 2643,
      "مية": 2644,
      "▁الإد": 2645,
      "وير": 2646,
      "يسة": 2647,
      "سا": 2648,
      "▁قوات": 2649,
      "▁الحكومة": 2650,
      "شرف": 2651,
      "وظ": 2652,
      "جان": 2653,
      "سلحة": 2654,
      "▁عرض": 2655,
      "▁القديم": 2656,
      "▁للد": 2657,
      "▁فيما": 2658,
      "سس": 2659,
      "حاب": 2660,
      "عداد": 2661,
      "▁الحديث": 2662,
      "اخ": 2663,
      "▁عد": 2664,
      "تمبر": 2665,
      "▁نوف": 2666,
      "يران": 2667,
      "▁إدارة": 2668,
      "▁تر": 2669,
      "▁البلاد": 2670,
      "▁شمال": 2671,
      "▁16": 2672,
      "لمة": 2673,
      "صوير": 2674,
      "▁العد": 2675,
      "مبر": 2676,
      "علام": 2677,
      "▁عضو": 2678,
      "ياه": 2679,
      "▁اخت": 2680,
      "صوص": 2681,
      "▁نادي": 2682,
      "▁تص": 2683,
      "▁مكان": 2684,
      "ومات": 2685,
      "▁وما": 2686,
      ".\nت": 2687,
      "▁دمشق": 2688,
      "▁عش": 2689,
      "▁العراق": 2690,
      "on": 2691,
      "احب": 2692,
      "▁25": 2693,
      "▁الإنج": 2694,
      "براير": 2695,
      "▁أيضا": 2696,
      "▁يونيو": 2697,
      "سكري": 2698,
      "▁الاحت": 2699,
      "سطس": 2700,
      "نين": 2701,
      "واقع": 2702,
      "▁بالإضافة": 2703,
      "تمر": 2704,
      "▁الإسلامي": 2705,
      "سمبر": 2706,
      "▁حياته": 2707,
      "▁الناصر": 2708,
      "ُّ": 2709,
      "▁عصر": 2710,
      "واية": 2711,
      "ليز": 2712,
      "▁سعد": 2713,
      "▁يكن": 2714,
      "ولايات": 2715,
      "▁الأرض": 2716,
      "دت": 2717,
      "▁مال": 2718,
      "▁سبتمبر": 2719,
      "▁النق": 2720,
      "معية": 2721,
      "طفال": 2722,
      "مان": 2723,
      "ستاذ": 2724,
      "ودي": 2725,
      "▁الموا": 2726,
      "▁حصل": 2727,
      "ليا": 2728,
      "▁مه": 2729,
      "▁صب": 2730,
      "طلب": 2731,
      "▁سيد": 2732,
      "حص": 2733,
      "▁أمر": 2734,
      "▁رش": 2735,
      "▁الإنس": 2736,
      "▁مدير": 2737,
      "سية": 2738,
      "▁الآن": 2739,
      "▁منصب": 2740,
      "▁موقع": 2741,
      "▁فبراير": 2742,
      "▁المجتمع": 2743,
      "ولوج": 2744,
      "▁تف": 2745,
      "▁المنطقة": 2746,
      "▁صدر": 2747,
      "▁الأح": 2748,
      "▁الهي": 2749,
      "▁الحياة": 2750,
      "▁عبر": 2751,
      "▁بقي": 2752,
      "▁المركز": 2753,
      "▁يج": 2754,
      "كمة": 2755,
      "وص": 2756,
      "س،": 2757,
      "حداث": 2758,
      "▁الأخرى": 2759,
      "▁للن": 2760,
      "▁المجلس": 2761,
      "ارب": 2762,
      "▁192": 2763,
      "▁نوفمبر": 2764,
      "▁وجود": 2765,
      "▁البط": 2766,
      "ويب": 2767,
      "ثمان": 2768,
      "▁ثلاث": 2769,
      "هدف": 2770,
      "▁وصل": 2771,
      "ربعة": 2772,
      "▁الأش": 2773,
      "واب": 2774,
      "عاد": 2775,
      "كانت": 2776,
      "▁ديسمبر": 2777,
      "ؤاد": 2778,
      "▁القرآن": 2779,
      "▁المل": 2780,
      "▁الخارج": 2781,
      "شرين": 2782,
      "▁مبار": 2783,
      "▁بالأ": 2784,
      "رجة": 2785,
      "تهم": 2786,
      "in": 2787,
      "000": 2788,
      "--": 2789,
      "▁إذ": 2790,
      "▁بلاد": 2791,
      "en": 2792,
      "ماً": 2793,
      "▁البي": 2794,
      "▁مايو": 2795,
      "▁وقال": 2796,
      "▁أغسطس": 2797,
      "▁الخام": 2798,
      "▁الإمبراط": 2799,
      "▁وعلى": 2800,
      "▁أُ": 2801,
      "عات": 2802,
      "همة": 2803,
      "▁بس": 2804,
      "اعر": 2805,
      "با": 2806,
      "▁وزارة": 2807,
      "فيذ": 2808,
      "بق": 2809,
      "▁الشخص": 2810,
      "▁ثلاثة": 2811,
      "▁الدكتور": 2812,
      "▁العثماني": 2813,
      "▁كبيرة": 2814,
      "حلة": 2815,
      "وزيع": 2816,
      "▁يعت": 2817,
      "▁الشام": 2818,
      "▁اليون": 2819,
      "▁تكون": 2820,
      "ريت": 2821,
      "▁بغ": 2822,
      "▁شهر": 2823,
      "▁أصبح": 2824,
      "▁(ع": 2825,
      "▁وزير": 2826,
      "▁بويب": 2827,
      "▁بار": 2828,
      "▁الفن": 2829,
      "▁الرغم": 2830,
      "زو": 2831,
      "ده": 2832,
      "▁كامل": 2833,
      "▁ترك": 2834,
      "▁الشع": 2835,
      "\nال": 2836,
      "-1": 2837,
      "▁البد": 2838,
      "مت": 2839,
      "▁الأمر": 2840,
      "▁الصلي": 2841,
      "ائق": 2842,
      "يمن": 2843,
      "خوان": 2844,
      "حات": 2845,
      "▁التابعة": 2846,
      "اسع": 2847,
      "َل": 2848,
      "▁الحق": 2849,
      "ويت": 2850,
      "▁وإن": 2851,
      "قًا": 2852,
      "▁عين": 2853,
      "ار،": 2854,
      "▁أكبر": 2855,
      "▁أج": 2856,
      "▁الأعمال": 2857,
      "▁لاح": 2858,
      "▁الإسرائيلي": 2859,
      "اشت": 2860,
      "افت": 2861,
      "▁قانون": 2862,
      "▁حل": 2863,
      "ميز": 2864,
      "ِي": 2865,
      "طاع": 2866,
      "ريقيا": 2867,
      "ارع": 2868,
      "رنامج": 2869,
      "▁جم": 2870,
      "▁رع": 2871,
      "▁اليهود": 2872,
      "▁نفسه": 2873,
      "▁نظ": 2874,
      "حب": 2875,
      "▁فل": 2876,
      "ضي": 2877,
      "▁السن": 2878,
      "ومة": 2879,
      "▁صد": 2880,
      "▁أشهر": 2881,
      "▁ويت": 2882,
      "حافظة": 2883,
      "▁بالع": 2884,
      "▁مك": 2885,
      "▁باب": 2886,
      "▁وتع": 2887,
      "هة": 2888,
      "ليد": 2889,
      "▁الدولي": 2890,
      "▁لهم": 2891,
      "قيقة": 2892,
      "▁بدأ": 2893,
      "▁بِ": 2894,
      "عض": 2895,
      "▁بالقاهرة": 2896,
      "▁خلف": 2897,
      "▁نب": 2898,
      "▁التعليم": 2899,
      "لمي": 2900,
      "▁امر": 2901,
      "راه": 2902,
      "▁القي": 2903,
      "▁تك": 2904,
      "ونية": 2905,
      "▁الفر": 2906,
      "▁الظ": 2907,
      "▁قرى": 2908,
      "▁الأرد": 2909,
      "تيجة": 2910,
      "▁(فلم": 2911,
      "▁الجديد": 2912,
      "▁الحد": 2913,
      "▁الكبير": 2914,
      "▁فتح": 2915,
      "▁الموس": 2916,
      "\nو": 2917,
      "▁أبريل": 2918,
      "▁السينما": 2919,
      "ائرة": 2920,
      "▁الأمريك": 2921,
      "▁جائزة": 2922,
      "▁فؤاد": 2923,
      "وبية": 2924,
      "اً،": 2925,
      "▁نشر": 2926,
      "▁كثير": 2927,
      "▁وضع": 2928,
      "▁الأزهر": 2929,
      "▁رأ": 2930,
      "▁تست": 2931,
      "زا": 2932,
      "ائب": 2933,
      "▁السيد": 2934,
      "▁كمال": 2935,
      "اليا": 2936,
      "▁عُ": 2937,
      "▁نهاية": 2938,
      "سان": 2939,
      "▁اكت": 2940,
      "عية": 2941,
      "▁موسى": 2942,
      "▁الخاصة": 2943,
      "es": 2944,
      "▁والج": 2945,
      "▁مي": 2946,
      "▁خاصة": 2947,
      "▁أيام": 2948,
      "▁متر": 2949,
      "▁كانوا": 2950,
      "▁الخليفة": 2951,
      "نف": 2952,
      "لات": 2953,
      "▁الوا": 2954,
      "1،": 2955,
      "▁فع": 2956,
      "دان": 2957,
      "▁العلوم": 2958,
      "▁السلام": 2959,
      "▁الهند": 2960,
      "تج": 2961,
      "▁قرار": 2962,
      "▁المصريين": 2963,
      "▁للش": 2964,
      "كار": 2965,
      "اتي": 2966,
      "▁العق": 2967,
      "...": 2968,
      "▁أور": 2969,
      "▁فريق": 2970,
      "▁السابق": 2971,
      "▁الرابع": 2972,
      "▁لد": 2973,
      "ونة": 2974,
      "ربة": 2975,
      "قبل": 2976,
      "▁الولايات": 2977,
      "▁مصرية": 2978,
      "كلية": 2979,
      "▁وفاته": 2980,
      "2،": 2981,
      "شأ": 2982,
      "▁إنشاء": 2983,
      "جيل": 2984,
      "صلاح": 2985,
      "▁التد": 2986,
      "▁الباب": 2987,
      "▁الأند": 2988,
      "▁قائد": 2989,
      "صبحت": 2990,
      "▁نور": 2991,
      "▁30": 2992,
      "▁العسكرية": 2993,
      "▁بكر": 2994,
      "▁للج": 2995,
      "▁استخدام": 2996,
      "▁المملكة": 2997,
      "▁جمهورية": 2998,
      "تبار": 2999,
      "جرة": 3000,
      "ثق": 3001,
      "وحة": 3002,
      "▁جاء": 3003,
      "▁صاحب": 3004,
      "▁المال": 3005,
      "علن": 3006,
      "فظ": 3007,
      "▁(فلم)\n\n": 3008,
      "سام": 3009,
      "▁عالم": 3010,
      "▁جانب": 3011,
      "ائلة": 3012,
      "غر": 3013,
      "▁وكذلك": 3014,
      "▁أجل": 3015,
      "▁أحداث": 3016,
      "ريبة": 3017,
      "▁الآخر": 3018,
      "▁تأس": 3019,
      "▁شر": 3020,
      "نيسة": 3021,
      "▁عق": 3022,
      "▁الشمال": 3023,
      "وضع": 3024,
      "▁ورد": 3025,
      "ti": 3026,
      "م.": 3027,
      "▁قتل": 3028,
      "ك،": 3029,
      "▁باست": 3030,
      "خصص": 3031,
      ".\nأ": 3032,
      "▁الكثير": 3033,
      "▁الثلا": 3034,
      "ندي": 3035,
      "شفى": 3036,
      "18": 3037,
      "▁عاد": 3038,
      "ُم": 3039,
      "ar": 3040,
      "طلاق": 3041,
      "▁معظم": 3042,
      "▁الغربية": 3043,
      "▁لش": 3044,
      "▁واحدة": 3045,
      "▁الأص": 3046,
      "▁شرق": 3047,
      "▁قض": 3048,
      "▁فهم": 3049,
      "▁لمدة": 3050,
      "وريا": 3051,
      "▁مؤلف": 3052,
      "▁اللا": 3053,
      "شاف": 3054,
      "▁القاهرة،": 3055,
      "▁معه": 3056,
      "▁A": 3057,
      "انات": 3058,
      "▁إي": 3059,
      "▁القرى": 3060,
      "ن،": 3061,
      "▁اللي": 3062,
      "شة": 3063,
      "▁مكت": 3064,
      "ينية": 3065,
      "▁امرأة": 3066,
      "▁فار": 3067,
      "هداف": 3068,
      "▁تل": 3069,
      "▁الجديدة": 3070,
      "ندما": 3071,
      "ي\n-": 3072,
      "▁أمير": 3073,
      "▁الجامعة": 3074,
      "▁مجال": 3075,
      "وجود": 3076,
      "ريدة": 3077,
      "he": 3078,
      "شام": 3079,
      "▁فلسطين": 3080,
      "▁طلب": 3081,
      "ابت": 3082,
      "▁الاتحاد": 3083,
      "4،": 3084,
      "▁بداية": 3085,
      "▁السياسية": 3086,
      "طية": 3087,
      "▁خارج": 3088,
      "▁صالح": 3089,
      "فسير": 3090,
      "▁بص": 3091,
      "▁(ت": 3092,
      "حمر": 3093,
      "▁يؤ": 3094,
      "وء": 3095,
      "باط": 3096,
      "▁«م": 3097,
      "بن": 3098,
      "ّة": 3099,
      "▁أمين": 3100,
      "عرف": 3101,
      "▁وغ": 3102,
      "▁العليا": 3103,
      "▁غزة": 3104,
      "▁قناة": 3105,
      "▁يحي": 3106,
      "▁والص": 3107,
      "▁وظ": 3108,
      "▁فن": 3109,
      "\"،": 3110,
      "لسطيني": 3111,
      "▁وتح": 3112,
      "حتى": 3113,
      "▁الإله": 3114,
      "وله": 3115,
      "or": 3116,
      "▁سلط": 3117,
      "▁«أ": 3118,
      "▁هد": 3119,
      "▁الجمهورية": 3120,
      "داب": 3121,
      "صاب": 3122,
      "خبر": 3123,
      "7،": 3124,
      "ريح": 3125,
      "سمى": 3126,
      "▁نظام": 3127,
      "▁جزء": 3128,
      "▁بنت": 3129,
      "▁الجم": 3130,
      "▁الإسرائيل": 3131,
      "عين": 3132,
      "جموع": 3133,
      "▁مدرسة": 3134,
      "3،": 3135,
      "امر": 3136,
      "▁قل": 3137,
      "▁وفاة": 3138,
      "يون": 3139,
      "راح": 3140,
      "اصمة": 3141,
      "▁الطبي": 3142,
      "▁ني": 3143,
      "▁دولة": 3144,
      "▁كرة": 3145,
      "▁ـ": 3146,
      "▁حب": 3147,
      "ات.": 3148,
      "ضان": 3149,
      "ريقة": 3150,
      "رة،": 3151,
      "▁السودان": 3152,
      "اضي": 3153,
      "▁تأليف": 3154,
      "50": 3155,
      "▁العالمية": 3156,
      "▁السب": 3157,
      "▁كأس": 3158,
      "▁يقول": 3159,
      "▁أل": 3160,
      "▁الإمام": 3161,
      "مون": 3162,
      "وغ": 3163,
      "لاقة": 3164,
      "▁و«": 3165,
      "▁المعروف": 3166,
      "▁بدر": 3167,
      "▁رجال": 3168,
      "▁بـ": 3169,
      "al": 3170,
      "▁يزيد": 3171,
      "▁الإنت": 3172,
      "سلم": 3173,
      "▁عثمان": 3174,
      "8،": 3175,
      "▁أرض": 3176,
      "سسة": 3177,
      "5،": 3178,
      "▁الأق": 3179,
      "▁نف": 3180,
      "▁والده": 3181,
      "▁عادل": 3182,
      "▁القص": 3183,
      "جا": 3184,
      "ُل": 3185,
      "و،": 3186,
      "شاركة": 3187,
      "▁فرن": 3188,
      "▁السويس": 3189,
      "▁لما": 3190,
      "▁اع": 3191,
      "▁ولد": 3192,
      "ورس": 3193,
      "كد": 3194,
      "َر": 3195,
      "▁جديد": 3196,
      "▁الحب": 3197,
      "▁الأمريكية": 3198,
      "▁السف": 3199,
      "▁شارك": 3200,
      "▁معبد": 3201,
      "▁التش": 3202,
      "غيرة": 3203,
      "ه\n": 3204,
      "▁مف": 3205,
      "برز": 3206,
      "َم": 3207,
      "▁بأنه": 3208,
      "▁أيضاً": 3209,
      "زال": 3210,
      "▁وعد": 3211,
      "نب": 3212,
      "ثلة": 3213,
      "افية": 3214,
      "▁عملية": 3215,
      "وما": 3216,
      "طرة": 3217,
      "▁بقيادة": 3218,
      "▁23": 3219,
      "اقم": 3220,
      "صدر": 3221,
      "ادرة": 3222,
      "امية": 3223,
      "ري،": 3224,
      "▁مجلة": 3225,
      "▁قائمة": 3226,
      "▁درجة": 3227,
      "▁عدم": 3228,
      "▁الشريف": 3229,
      "اءات": 3230,
      "▁ثورة": 3231,
      "▁سكان": 3232,
      "وخ": 3233,
      "▁الدي": 3234,
      "▁ويس": 3235,
      "مسة": 3236,
      "▁رؤ": 3237,
      "صرف": 3238,
      "▁مشروع": 3239,
      "وها": 3240,
      "▁بالح": 3241,
      "▁شعب": 3242,
      "\nم": 3243,
      "▁والف": 3244,
      "جاج": 3245,
      "▁الداخل": 3246,
      "لاب": 3247,
      "▁با": 3248,
      "ماية": 3249,
      "رجمة": 3250,
      "▁كفر": 3251,
      "▁المسلسل": 3252,
      "▁والمع": 3253,
      "▁S": 3254,
      "ضمن": 3255,
      "▁2011": 3256,
      "ابقة": 3257,
      "▁وث": 3258,
      "▁وصف": 3259,
      "▁هيئة": 3260,
      "جار": 3261,
      "انية،": 3262,
      "▁وادي": 3263,
      "ًا.": 3264,
      "▁الأمن": 3265,
      "▁ظهر": 3266,
      "▁الحدي": 3267,
      "13": 3268,
      "ريكي": 3269,
      "▁البن": 3270,
      "▁مز": 3271,
      "اديم": 3272,
      "اوية": 3273,
      "▁الشرقية": 3274,
      "روب": 3275,
      "يا،": 3276,
      "هن": 3277,
      "▁2010": 3278,
      "▁أرسل": 3279,
      "▁السعود": 3280,
      "▁بير": 3281,
      "▁النبي": 3282,
      "▁اقت": 3283,
      "ئاسة": 3284,
      "▁جني": 3285,
      "▁الفاط": 3286,
      "احث": 3287,
      "وائل": 3288,
      "▁الوسط": 3289,
      "▁والخ": 3290,
      "▁نص": 3291,
      "▁ق.": 3292,
      "▁وجه": 3293,
      "▁الآثار": 3294,
      "▁سيف": 3295,
      "▁القدس": 3296,
      "هم.": 3297,
      "▁الوطني": 3298,
      "▁شكل": 3299,
      "▁الرياض": 3300,
      "ائم": 3301,
      "▁فريد": 3302,
      "10": 3303,
      "يته": 3304,
      "▁مغ": 3305,
      "زن": 3306,
      "كية": 3307,
      "▁لاع": 3308,
      "▁الحي": 3309,
      "ؤول": 3310,
      "▁نصر": 3311,
      "هرب": 3312,
      "اء،": 3313,
      "▁أمن": 3314,
      "برى": 3315,
      "▁مط": 3316,
      "▁الأحمر": 3317,
      "▁ويب\n##": 3318,
      "▁الإخوان": 3319,
      "9،": 3320,
      "▁العلماء": 3321,
      "▁القدم": 3322,
      "▁الشركة": 3323,
      "كيل": 3324,
      "▁در": 3325,
      "▁برنامج": 3326,
      "ماليك": 3327,
      "▁البريطاني": 3328,
      "▁الدفاع": 3329,
      "▁الثورة": 3330,
      "▁سيناء": 3331,
      "ونس": 3332,
      "▁الغرب": 3333,
      "▁لِ": 3334,
      "َن": 3335,
      "▁طالب": 3336,
      "▁الدولية": 3337,
      "شد": 3338,
      "اهتم": 3339,
      "▁ياس": 3340,
      "▁رفض": 3341,
      "▁2012": 3342,
      "▁الطريق": 3343,
      "▁بدأت": 3344,
      "درس": 3345,
      "تال": 3346,
      "شب": 3347,
      "▁قرية": 3348,
      "ندس": 3349,
      "▁موا": 3350,
      "ور،": 3351,
      "اهم": 3352,
      "▁المز": 3353,
      "يدان": 3354,
      "وقي": 3355,
      "▁حدث": 3356,
      "ارف": 3357,
      "▁الأدب": 3358,
      "▁الأور": 3359,
      "▁الثام": 3360,
      "▁المعركة": 3361,
      "▁عشرة": 3362,
      "ارق": 3363,
      "لاج": 3364,
      "تمد": 3365,
      "▁البيز": 3366,
      "▁الوزراء": 3367,
      "is": 3368,
      "قرية": 3369,
      "▁نقل": 3370,
      "▁لدي": 3371,
      "\nع": 3372,
      "▁غرب": 3373,
      "ائي": 3374,
      "مالك": 3375,
      "لافة": 3376,
      "▁لص": 3377,
      "▁العربية.": 3378,
      "▁الأكبر": 3379,
      "▁كون": 3380,
      "بدو": 3381,
      "▁وقام": 3382,
      "اتل": 3383,
      "▁شعر": 3384,
      "▁الأعلى": 3385,
      "سلة": 3386,
      "▁حالة": 3387,
      "▁21": 3388,
      "▁ويق": 3389,
      "ريقية": 3390,
      "▁الفنان": 3391,
      "▁لجنة": 3392,
      "ّا": 3393,
      "▁الفق": 3394,
      "▁الأحداث": 3395,
      "رائب": 3396,
      "▁البحرية": 3397,
      "▁الإسرائيلية": 3398,
      "▁المط": 3399,
      "▁استمر": 3400,
      "ورد": 3401,
      "ابط": 3402,
      "▁ري": 3403,
      "اقة": 3404,
      "▁يف": 3405,
      "▁حزب": 3406,
      "▁حمدي": 3407,
      "▁(2": 3408,
      "ناعة": 3409,
      "▁لك": 3410,
      "▁السنة": 3411,
      "▁24": 3412,
      "قرر": 3413,
      "فاء": 3414,
      "▁وتق": 3415,
      "▁C": 3416,
      "▁عباس": 3417,
      "وصل": 3418,
      "▁القض": 3419,
      "▁جديدة": 3420,
      "▁زوجة": 3421,
      "خة": 3422,
      "▁فرع": 3423,
      "▁عص": 3424,
      "يقى": 3425,
      "ارض": 3426,
      "قرار": 3427,
      "▁طاقم": 3428,
      "▁الأث": 3429,
      "▁يقوم": 3430,
      "▁ابنه": 3431,
      "▁مسجد": 3432,
      "نق": 3433,
      "تبع": 3434,
      "صم": 3435,
      "كيم": 3436,
      "ان\n-": 3437,
      "يرته": 3438,
      "▁الجامع": 3439,
      "▁أدى": 3440,
      "هرجان": 3441,
      "▁إق": 3442,
      "ورا": 3443,
      "▁الحسن": 3444,
      "▁الخاص": 3445,
      "▁قامت": 3446,
      "لهة": 3447,
      "\nي": 3448,
      "▁مخ": 3449,
      "▁الجزء": 3450,
      "وضوع": 3451,
      "ات\n-": 3452,
      "كو": 3453,
      "▁الحسين": 3454,
      "▁الإنجليز": 3455,
      "▁يحيى": 3456,
      "▁سلام": 3457,
      "▁شريف": 3458,
      "لع": 3459,
      "▁P": 3460,
      "▁فوق": 3461,
      "كما": 3462,
      "▁الجزيرة": 3463,
      "خول": 3464,
      "▁الأغ": 3465,
      "▁حال": 3466,
      "ية.\n##": 3467,
      "▁جمع": 3468,
      "▁مليون": 3469,
      "▁هم": 3470,
      "اولة": 3471,
      "▁مروان": 3472,
      "▁لمركز": 3473,
      "▁وآ": 3474,
      "▁الأر": 3475,
      "ملوك": 3476,
      "▁حياة": 3477,
      "▁الهيئة": 3478,
      "كال": 3479,
      "▁2000": 3480,
      "▁وبين": 3481,
      "▁طب": 3482,
      "▁الإنسان": 3483,
      "▁ارت": 3484,
      "▁مصر.": 3485,
      ")\n##": 3486,
      "▁يعمل": 3487,
      "جع": 3488,
      "قق": 3489,
      "اسب": 3490,
      "▁22": 3491,
      "▁أربعة": 3492,
      "6،": 3493,
      "ية:": 3494,
      "▁هشام": 3495,
      "▁للس": 3496,
      "▁يوجد": 3497,
      "قدير": 3498,
      "▁المؤرخ": 3499,
      "▁عرف": 3500,
      "▁الأه": 3501,
      "▁السياسي": 3502,
      "انا": 3503,
      "▁المسلحة": 3504,
      "راث": 3505,
      "َي": 3506,
      "▁بالل": 3507,
      "▁أفضل": 3508,
      "▁أر": 3509,
      "خابات": 3510,
      "ادات": 3511,
      "▁انتقل": 3512,
      "املة": 3513,
      "▁قال:": 3514,
      "لفزي": 3515,
      "▁مساعد": 3516,
      "▁لتح": 3517,
      "اند": 3518,
      "▁لقب": 3519,
      "▁العسكري": 3520,
      "افر": 3521,
      "▁شب": 3522,
      "▁بمن": 3523,
      "▁والث": 3524,
      "▁2008": 3525,
      "جنة": 3526,
      "فص": 3527,
      "هُ": 3528,
      "رجع": 3529,
      "▁زين": 3530,
      "هرام": 3531,
      "▁2013": 3532,
      "▁إليها": 3533,
      "▁تب": 3534,
      "عة،": 3535,
      "واليد": 3536,
      "▁المحت": 3537,
      "▁بالس": 3538,
      "▁الثالثة": 3539,
      "▁التمثيل": 3540,
      "هار": 3541,
      "وبات": 3542,
      "▁والب": 3543,
      "▁تحقيق": 3544,
      "▁كذلك": 3545,
      "عتبر": 3546,
      "▁M": 3547,
      "▁لمصر": 3548,
      "▁قصر": 3549,
      "▁تقع": 3550,
      "▁دع": 3551,
      "12": 3552,
      "هـ/": 3553,
      "عيم": 3554,
      "▁وتت": 3555,
      "▁الأندلس": 3556,
      "لاقات": 3557,
      "َا": 3558,
      "▁اخ": 3559,
      "ضح": 3560,
      "▁سمير": 3561,
      "ئية": 3562,
      "حر": 3563,
      "جاه": 3564,
      "افع": 3565,
      "شل": 3566,
      "▁إجمالي": 3567,
      ".\nوفي": 3568,
      "▁معروف": 3569,
      "▁t": 3570,
      "▁وأم": 3571,
      "▁وين": 3572,
      "▁لمن": 3573,
      "▁نهر": 3574,
      "▁النظام": 3575,
      "▁الدراسات": 3576,
      "▁كر": 3577,
      " ال": 3578,
      "علق": 3579,
      "اشرة": 3580,
      "▁أفلام": 3581,
      "▁لدى": 3582,
      "ناصر": 3583,
      "▁طول": 3584,
      "اشر": 3585,
      "سمة،": 3586,
      "هرة": 3587,
      "ختار": 3588,
      "َب": 3589,
      "ْن": 3590,
      "ظة": 3591,
      "فضل": 3592,
      "▁المنت": 3593,
      "عمال": 3594,
      "▁إف": 3595,
      "▁الأراضي": 3596,
      "▁دا": 3597,
      "ائف": 3598,
      "▁عليهم": 3599,
      "خطوط": 3600,
      "▁يحت": 3601,
      "▁2014": 3602,
      "▁2005": 3603,
      "▁لكنه": 3604,
      "▁T": 3605,
      "):": 3606,
      "▁وابن": 3607,
      "▁الفي": 3608,
      "وبا": 3609,
      "▁بب": 3610,
      "▁الحكوم": 3611,
      "▁يقع": 3612,
      "ظاهر": 3613,
      "▁فا": 3614,
      "▁(ح": 3615,
      "وس،": 3616,
      "▁الكتب": 3617,
      "علان": 3618,
      "▁نسمة،": 3619,
      "ابد": 3620,
      "مسيس": 3621,
      "دمة": 3622,
      "▁التأ": 3623,
      "▁فاروق": 3624,
      "▁سبيل": 3625,
      "ير،": 3626,
      "▁حمل": 3627,
      "▁جزيرة": 3628,
      "▁عقد": 3629,
      "علوم": 3630,
      "▁دخل": 3631,
      "▁وتن": 3632,
      "▁(الم": 3633,
      "ويلة": 3634,
      "▁قطاع": 3635,
      "▁علماء": 3636,
      "نيا": 3637,
      "▁(س": 3638,
      "تيار": 3639,
      "▁عامر": 3640,
      "▁يأ": 3641,
      "▁كتابه": 3642,
      "▁رمضان": 3643,
      "▁شمس": 3644,
      "▁صدي": 3645,
      "ين\n-": 3646,
      "عمل": 3647,
      "▁تخ": 3648,
      "▁الهر": 3649,
      "▁ير": 3650,
      "▁وهم": 3651,
      "▁حركة": 3652,
      "▁الوطنية": 3653,
      "▁الحملة": 3654,
      "▁أصبحت": 3655,
      "رفض": 3656,
      "واخر": 3657,
      "▁شاه": 3658,
      "▁2009": 3659,
      "▁بالقرب": 3660,
      "يبة": 3661,
      "▁رف": 3662,
      "▁توفيق": 3663,
      "نوان": 3664,
      "▁التاسع": 3665,
      "اني،": 3666,
      "▁الوح": 3667,
      "▁سق": 3668,
      "▁شرف": 3669,
      "ائع": 3670,
      "▁الشباب": 3671,
      "▁قاد": 3672,
      "▁خاص": 3673,
      "▁26": 3674,
      "ياط": 3675,
      "▁العال": 3676,
      "▁الخامس": 3677,
      "▁الرب": 3678,
      "▁الحديثة": 3679,
      "▁تكن": 3680,
      "▁مختلفة": 3681,
      "▁الأطفال": 3682,
      "30": 3683,
      "ِن": 3684,
      "▁نائب": 3685,
      "▁النص": 3686,
      "▁اش": 3687,
      "▁أعضاء": 3688,
      "لقى": 3689,
      "▁يعرف": 3690,
      "▁ولكنه": 3691,
      "زيمة": 3692,
      "▁جلال": 3693,
      "سمية": 3694,
      "ئات": 3695,
      "▁تقدم": 3696,
      "▁اسمه": 3697,
      "▁سف": 3698,
      "واجهة": 3699,
      "▁لاعب": 3700,
      "14": 3701,
      "▁أربع": 3702,
      "▁المنعم": 3703,
      "▁الثقافة": 3704,
      "▁اس": 3705,
      "▁ليلى": 3706,
      "▁القصة": 3707,
      "▁المعبد": 3708,
      "▁بذلك": 3709,
      "▁الأوسط": 3710,
      "▁المختلف": 3711,
      "اتهم": 3712,
      "ولوجيا": 3713,
      "▁دفع": 3714,
      "▁وسط": 3715,
      "لائ": 3716,
      "▁الجد": 3717,
      "▁الاجتماعية": 3718,
      "▁الفريق": 3719,
      "ديل": 3720,
      "▁28": 3721,
      "لاع": 3722,
      "▁الحس": 3723,
      "▁الفرنسي": 3724,
      "وانين": 3725,
      "يام": 3726,
      "▁وحتى": 3727,
      "▁قيادة": 3728,
      "▁الجي": 3729,
      "▁لعام": 3730,
      "▁الأفلام": 3731,
      "صن": 3732,
      "▁فض": 3733,
      "▁صحي": 3734,
      "▁2015": 3735,
      "▁أفريقيا": 3736,
      "▁ابنة": 3737,
      "▁ذو": 3738,
      "▁فكان": 3739,
      "▁وَ": 3740,
      "▁بالج": 3741,
      "▁لذلك": 3742,
      "▁إعادة": 3743,
      "▁الكريم": 3744,
      "هادة": 3745,
      "▁مقبرة": 3746,
      "▁الأصل": 3747,
      "▁المخ": 3748,
      "▁الصليبي": 3749,
      "ضايا": 3750,
      "غيير": 3751,
      "-19": 3752,
      "▁كلي": 3753,
      "▁زكي": 3754,
      "▁نتيجة": 3755,
      "▁حسني": 3756,
      "▁جعل": 3757,
      "وافق": 3758,
      "يمان": 3759,
      "▁ملوك": 3760,
      "▁المرأة": 3761,
      "▁المماليك": 3762,
      "▁27": 3763,
      "▁الترك": 3764,
      "▁الشرطة": 3765,
      "حن": 3766,
      "ذك": 3767,
      "▁عنها": 3768,
      "▁لكرة": 3769,
      "▁فارس": 3770,
      "▁إسلام": 3771,
      "▁والر": 3772,
      "لاط": 3773,
      "ايا": 3774,
      "▁الشعر": 3775,
      "▁وهذا": 3776,
      "وجودة": 3777,
      "▁مالك": 3778,
      "▁الفرع": 3779,
      "▁2007": 3780,
      "▁بجامعة": 3781,
      "▁البريطانية": 3782,
      "ادق": 3783,
      "▁الموقع": 3784,
      "▁البار": 3785,
      "17": 3786,
      "▁الفلسطيني": 3787,
      "▁دراسة": 3788,
      "▁2006،": 3789,
      ").\n##": 3790,
      "عام": 3791,
      "▁والك": 3792,
      "▁المقدس": 3793,
      "▁لط": 3794,
      "قية": 3795,
      "▁الدست": 3796,
      "▁المعت": 3797,
      "▁المدرسة": 3798,
      "▁مبارك": 3799,
      "ليج": 3800,
      "▁وله": 3801,
      "▁نسب": 3802,
      "▁الدع": 3803,
      "رحلة": 3804,
      "▁ ": 3805,
      "ورات": 3806,
      "▁الكويت": 3807,
      "▁الراب": 3808,
      "▁رسالة": 3809,
      "دمات": 3810,
      "▁الأمم": 3811,
      "15": 3812,
      "▁زوجته": 3813,
      "راعة": 3814,
      "▁وعندما": 3815,
      "▁حقوق": 3816,
      "وام": 3817,
      "▁العهد": 3818,
      "▁النها": 3819,
      "▁اللواء": 3820,
      "▁تقريب": 3821,
      "▁الزواج": 3822,
      "صح": 3823,
      "▁نوع": 3824,
      "▁أخذ": 3825,
      "▁القط": 3826,
      "\nكان": 3827,
      "▁جماعة": 3828,
      "▁لاست": 3829,
      "▁جبل": 3830,
      "\".": 3831,
      "انس": 3832,
      "▁جع": 3833,
      "▁الصف": 3834,
      "خي": 3835,
      "▁سالم": 3836,
      "َت": 3837,
      "اسعة": 3838,
      ".\nكان": 3839,
      "اريو": 3840,
      "▁لعب": 3841,
      "▁السلطة": 3842,
      "ريعة": 3843,
      "▁بغداد": 3844,
      "▁إحص": 3845,
      "▁الفلسطين": 3846,
      "▁السادس": 3847,
      "▁190": 3848,
      "▁لكل": 3849,
      "اما": 3850,
      "▁ولاية": 3851,
      "▁تعرض": 3852,
      "▁لر": 3853,
      "▁رج": 3854,
      "ائه": 3855,
      "تع": 3856,
      "▁أواخر": 3857,
      "▁قوة": 3858,
      "ابه": 3859,
      "▁الحل": 3860,
      "واع": 3861,
      "▁كث": 3862,
      "\nف": 3863,
      "▁المسيحي": 3864,
      "▁بالف": 3865,
      "▁وعبد": 3866,
      "▁دين": 3867,
      "▁بالك": 3868,
      "بك": 3869,
      "▁سابق": 3870,
      "▁2018": 3871,
      "▁وض": 3872,
      "▁وحد": 3873,
      "▁خليل": 3874,
      "▁شيخ": 3875,
      "▁رياض": 3876,
      "▁بف": 3877,
      "▁الكلية": 3878,
      "▁قدر": 3879,
      "قرا": 3880,
      "▁أستاذ": 3881,
      "▁\"ال": 3882,
      "▁وير": 3883,
      "▁تنظيم": 3884,
      "▁الأب": 3885,
      "دور": 3886,
      "▁المعل": 3887,
      "▁أنش": 3888,
      "▁الجنوب": 3889,
      "▁تأسيس": 3890,
      "▁E": 3891,
      "▁الاسم": 3892,
      "زمة": 3893,
      "▁الاعت": 3894,
      "▁آل": 3895,
      "تلك": 3896,
      "د،": 3897,
      "ر،": 3898,
      "تان": 3899,
      "▁ميل": 3900,
      "▁لف": 3901,
      "ابي": 3902,
      "وسي": 3903,
      "يمي": 3904,
      "داء": 3905,
      "هام": 3906,
      "▁أبرز": 3907,
      "▁تولى": 3908,
      "عار": 3909,
      "▁صور": 3910,
      "اعات": 3911,
      "بلوم": 3912,
      "ؤون": 3913,
      "ؤلاء": 3914,
      "بيض": 3915,
      "▁2020": 3916,
      "▁تعليم": 3917,
      "حق": 3918,
      "راز": 3919,
      "رافي": 3920,
      "زام": 3921,
      "▁الوف": 3922,
      "▁مقد": 3923,
      "▁روا": 3924,
      "هاء": 3925,
      "لمان": 3926,
      "خاص": 3927,
      "▁بمصر": 3928,
      "راجع": 3929,
      ".\nوقد": 3930,
      "▁الخر": 3931,
      "▁المسجد": 3932,
      "▁نز": 3933,
      "لين": 3934,
      "▁المجموعة": 3935,
      "▁مون": 3936,
      "▁العلمية": 3937,
      "طاق": 3938,
      "▁إله": 3939,
      "لمات": 3940,
      "▁منصور": 3941,
      "▁خي": 3942,
      "ثور": 3943,
      "▁الهجوم": 3944,
      "▁مملكة": 3945,
      "▁د.": 3946,
      "لاك": 3947,
      "▁بول": 3948,
      "▁وانت": 3949,
      "اون": 3950,
      "دير": 3951,
      "▁القصر": 3952,
      "▁ظل": 3953,
      "▁السيا": 3954,
      "▁الدوري": 3955,
      "رار": 3956,
      "▁الحض": 3957,
      "▁الكبرى": 3958,
      "نات": 3959,
      "▁تقديم": 3960,
      ":199": 3961,
      "▁خمس": 3962,
      "تبة": 3963,
      "جاز": 3964,
      "عليم": 3965,
      "▁واض": 3966,
      "▁التط": 3967,
      "▁المسرح": 3968,
      "▁يجب": 3969,
      "▁شارع": 3970,
      "▁الخارجية": 3971,
      "▁I": 3972,
      "▁أبناء": 3973,
      "▁اللب": 3974,
      "▁الحزب": 3975,
      "▁الإنتاج": 3976,
      ":200": 3977,
      "▁قُ": 3978,
      "▁المياه": 3979,
      "برت": 3980,
      "كثر": 3981,
      "▁الزي": 3982,
      "▁مقال": 3983,
      "▁إش": 3984,
      "زين": 3985,
      "اعي": 3986,
      "▁بنو": 3987,
      "شير": 3988,
      "▁البحث": 3989,
      "16": 3990,
      "▁حملة": 3991,
      "▁ربما": 3992,
      "▁(ب": 3993,
      "▁المغرب": 3994,
      "▁رمسيس": 3995,
      "▁الكنيسة": 3996,
      "زق": 3997,
      "▁معد": 3998,
      "▁الأخير": 3999,
      "▁العمر": 4000,
      "▁المناطق": 4001,
      "اهتمام": 4002,
      "▁.\n-": 4003,
      "▁الإن": 4004,
      "دب": 4005,
      "▁الأسب": 4006,
      "▁المتوسط": 4007,
      "▁2019": 4008,
      "▁2004": 4009,
      "▁2017": 4010,
      "لغ": 4011,
      "راءات": 4012,
      "اها": 4013,
      "▁لو": 4014,
      "▁الفنية": 4015,
      "▁النب": 4016,
      "▁الذهب": 4017,
      "▁2016": 4018,
      "▁الاقتصاد": 4019,
      "▁الفاطمي": 4020,
      "حاء": 4021,
      "▁189": 4022,
      "▁بريط": 4023,
      "▁دعم": 4024,
      "دية": 4025,
      "▁الثان": 4026,
      "خم": 4027,
      "▁افت": 4028,
      "▁تصوير": 4029,
      "أي": 4030,
      "▁اث": 4031,
      "ورج": 4032,
      "ريش": 4033,
      "▁مسلم": 4034,
      "فيد": 4035,
      "▁عاش": 4036,
      "واصل": 4037,
      "▁الرئيسي": 4038,
      "▁بمع": 4039,
      "▁قبر": 4040,
      "▁مرسي": 4041,
      "▁تغ": 4042,
      "ري\n-": 4043,
      "▁العالي": 4044,
      "▁أنور": 4045,
      "▁شيء": 4046,
      "سكندر": 4047,
      "▁غالب": 4048,
      ".\n###": 4049,
      "\n\nال": 4050,
      "راءة": 4051,
      "▁الملكية": 4052,
      "فين": 4053,
      "▁سر": 4054,
      "ا.": 4055,
      "▁التالي": 4056,
      "▁التصوير": 4057,
      "▁المصرية،": 4058,
      "▁تنفيذ": 4059,
      "80": 4060,
      "▁الشرقي": 4061,
      "▁خمسة": 4062,
      "».\n": 4063,
      "م)": 4064,
      "▁لغ": 4065,
      "▁أنط": 4066,
      "احل": 4067,
      "▁السادات": 4068,
      "ناول": 4069,
      "▁مسرح": 4070,
      "▁الأمريكي": 4071,
      "▁عيد": 4072,
      "جمات": 4073,
      "وي،": 4074,
      "▁نجيب": 4075,
      "▁يل": 4076,
      "▁الحدود": 4077,
      "بعض": 4078,
      "▁o": 4079,
      "▁المالية": 4080,
      "▁طل": 4081,
      "ريات": 4082,
      "نسبة": 4083,
      "ة.": 4084,
      "هج": 4085,
      "▁مو": 4086,
      "▁الملوك": 4087,
      "َد": 4088,
      "▁القوم": 4089,
      "▁قاعدة": 4090,
      "▁بمحافظة": 4091,
      "▁أسب": 4092,
      "▁جنيه": 4093,
      "▁رواية": 4094,
      "▁مقر": 4095,
      "وائز": 4096,
      "قص": 4097,
      "▁B": 4098,
      "اعتبار": 4099,
      "سطول": 4100,
      "▁أوائل": 4101,
      "ان.": 4102,
      "▁مقابل": 4103,
      "▁الحميد": 4104,
      "غب": 4105,
      "▁العظيم": 4106,
      "ومن": 4107,
      "▁النف": 4108,
      "يوخ": 4109,
      "▁الإمبراطورية": 4110,
      "تون": 4111,
      "▁وبد": 4112,
      "▁النساء": 4113,
      "▁ماج": 4114,
      "ركان": 4115,
      "شرق": 4116,
      "▁سوريا": 4117,
      "وارد": 4118,
      "▁فلم": 4119,
      "▁للغ": 4120,
      "▁مكتبة": 4121,
      "▁إح": 4122,
      "▁(من": 4123,
      "صال": 4124,
      "دي،": 4125,
      "▁الشمس": 4126,
      "واف": 4127,
      "بي،": 4128,
      "▁بنفس": 4129,
      "\n\nم": 4130,
      "ه\n-": 4131,
      "َة": 4132,
      "جزاء": 4133,
      "▁سفر": 4134,
      "▁شهد": 4135,
      "▁نسبة": 4136,
      "▁المف": 4137,
      "▁أنهم": 4138,
      "عرض": 4139,
      "\nولد": 4140,
      "▁يعود": 4141,
      "ذر": 4142,
      "كتشف": 4143,
      "بحث": 4144,
      "▁فس": 4145,
      "▁ناصر": 4146,
      "▁سمي": 4147,
      "قلال": 4148,
      "▁اجتماع": 4149,
      "▁صح": 4150,
      "▁والي": 4151,
      "▁الأهلي": 4152,
      "▁التابع": 4153,
      "▁اللجنة": 4154,
      "▁أصل": 4155,
      "▁الإعلام": 4156,
      "▁أفراد": 4157,
      "▁والغ": 4158,
      "▁29": 4159,
      "▁انته": 4160,
      "تاح": 4161,
      "▁سلسلة": 4162,
      "ذب": 4163,
      "▁المشروع": 4164,
      "▁بعدها": 4165,
      "افي": 4166,
      "هاز": 4167,
      "اديمية": 4168,
      "▁2003": 4169,
      "▁مات": 4170,
      "▁العربية،": 4171,
      "▁ومحمد": 4172,
      "▁أصدر": 4173,
      "جلة": 4174,
      "قاء": 4175,
      "▁اليم": 4176,
      "▁عيس": 4177,
      "▁المدن": 4178,
      "25": 4179,
      "▁2002": 4180,
      "▁الأردن": 4181,
      "▁موسم": 4182,
      "▁والاست": 4183,
      "▁قبيلة": 4184,
      "▁البعض": 4185,
      "ادى": 4186,
      "▁أبا": 4187,
      "it": 4188,
      "ريا": 4189,
      "ندوق": 4190,
      "▁مستوى": 4191,
      "▁شخصية": 4192,
      "▁هـ،": 4193,
      "كين": 4194,
      "ارث": 4195,
      "▁حلمي": 4196,
      "▁*ال": 4197,
      "28": 4198,
      "▁الصنا": 4199,
      "ينيات": 4200,
      "ريع": 4201,
      "▁الفني": 4202,
      "▁بمدينة": 4203,
      "».\n##": 4204,
      "▁القضاء": 4205,
      "▁آمون": 4206,
      "▁الضرائب": 4207,
      "▁إحصاءات": 4208,
      "▁النش": 4209,
      "غال": 4210,
      "▁نم": 4211,
      "فية": 4212,
      "▁مجموع": 4213,
      "انم": 4214,
      "▁يعد": 4215,
      "▁الحركة": 4216,
      "▁الإدارة": 4217,
      "▁المرحلة": 4218,
      "▁المعلومات": 4219,
      "▁.\n##": 4220,
      "▁يك": 4221,
      "▁الزوج": 4222,
      "▁(200": 4223,
      "60": 4224,
      "▁جامع": 4225,
      "▁الحاكم": 4226,
      "\n-\n-\n-\n-": 4227,
      "دارة": 4228,
      "▁شقيق": 4229,
      "▁بالد": 4230,
      "▁بالله": 4231,
      "▁الفرنسية": 4232,
      "ادم": 4233,
      "▁ار": 4234,
      "▁واج": 4235,
      "---": 4236,
      "▁وفر": 4237,
      "▁والمن": 4238,
      "▁أساس": 4239,
      "▁نظر": 4240,
      "▁كبار": 4241,
      "▁للف": 4242,
      "▁زمن": 4243,
      "▁الرئيسية": 4244,
      "▁منظمة": 4245,
      "▁الأبيض": 4246,
      "▁التص": 4247,
      "▁لأنه": 4248,
      "قوب": 4249,
      "▁فهو": 4250,
      "▁d": 4251,
      "▁الوليد": 4252,
      "ضى": 4253,
      "▁مرا": 4254,
      "▁لأول": 4255,
      "*،": 4256,
      "▁عبيد": 4257,
      "ic": 4258,
      "اطق": 4259,
      "تبر": 4260,
      "▁of": 4261,
      "at": 4262,
      "▁حض": 4263,
      "\n\nأ": 4264,
      "صي": 4265,
      "▁اشت": 4266,
      "▁وجد": 4267,
      "▁فتحي": 4268,
      "▁أصحاب": 4269,
      "طاء": 4270,
      "▁أنَّ": 4271,
      "▁آثار": 4272,
      "▁بخ": 4273,
      "▁الها": 4274,
      "▁بالن": 4275,
      "انه": 4276,
      "▁رد": 4277,
      "▁العمل\n-": 4278,
      "مار": 4279,
      "▁درا": 4280,
      "▁الفرس": 4281,
      "▁الجانب": 4282,
      "▁هؤلاء": 4283,
      "▁البشر": 4284,
      "ورت": 4285,
      "▁تحديد": 4286,
      "▁يعتبر": 4287,
      "ستير": 4288,
      "▁ألم": 4289,
      "ية.\n": 4290,
      "▁حاكم": 4291,
      "▁قلب": 4292,
      "▁أنحاء": 4293,
      "▁العثمانية": 4294,
      "تبط": 4295,
      "40": 4296,
      "▁كريم": 4297,
      "واعد": 4298,
      "▁الأخيرة": 4299,
      "▁الاقتصادية": 4300,
      "▁L": 4301,
      "سلط": 4302,
      "▁الغربي": 4303,
      "وية،": 4304,
      "▁كال": 4305,
      "▁توف": 4306,
      "▁(إ": 4307,
      "▁النادي": 4308,
      "▁عبد ال": 4309,
      "ا\n-": 4310,
      "جمع": 4311,
      "▁رغم": 4312,
      "▁صار": 4313,
      "▁مجمع": 4314,
      "ُر": 4315,
      "▁بعنوان": 4316,
      "دخل": 4317,
      "ليموس": 4318,
      "▁بكلية": 4319,
      "▁حافظ": 4320,
      "▁معل": 4321,
      "▁وات": 4322,
      "▁التجارة": 4323,
      "▁القل": 4324,
      "َع": 4325,
      "▁وسي": 4326,
      "▁ويم": 4327,
      "▁الخدي": 4328,
      "▁الثلاث": 4329,
      "1-": 4330,
      "▁مناطق": 4331,
      "▁أطلق": 4332,
      "ية.\n-": 4333,
      "▁حديث": 4334,
      "▁فلما": 4335,
      "▁المؤتمر": 4336,
      "▁فال": 4337,
      "ريمة": 4338,
      "صى": 4339,
      "▁القومي": 4340,
      "بيق": 4341,
      "▁المعاصر": 4342,
      "▁توجد": 4343,
      "▁دير": 4344,
      "▁أقل": 4345,
      ").\n": 4346,
      "زية": 4347,
      "▁هدف": 4348,
      "\nمن": 4349,
      "▁الجمعية": 4350,
      "▁رسول": 4351,
      "▁تزوج": 4352,
      "▁كت": 4353,
      "▁أعلن": 4354,
      "▁منش": 4355,
      "▁لمع": 4356,
      "▁لاحق": 4357,
      "ساء": 4358,
      "راكز": 4359,
      "▁أثر": 4360,
      "وت،": 4361,
      "▁الإج": 4362,
      "▁معرض": 4363,
      "▁تحرير": 4364,
      "▁188": 4365,
      "وحد": 4366,
      "▁توزيع": 4367,
      "▁وتش": 4368,
      "دمير": 4369,
      "اشتراك": 4370,
      "▁الوسطى": 4371,
      "يد،": 4372,
      "▁القديمة،": 4373,
      "▁ذهب": 4374,
      "التالي": 4375,
      "سسات": 4376,
      "تيبة": 4377,
      "كتوراه": 4378,
      "▁السابع": 4379,
      "ادت": 4380,
      "▁مساحة": 4381,
      "▁الآداب": 4382,
      "▁مث": 4383,
      "▁حاول": 4384,
      "ضب": 4385,
      "▁منح": 4386,
      "▁آن": 4387,
      "ريج": 4388,
      "ائرات": 4389,
      "▁غز": 4390,
      "70": 4391,
      "▁خرج": 4392,
      "▁متحف": 4393,
      "إنتاج": 4394,
      "لي،": 4395,
      "اده": 4396,
      "▁المعهد": 4397,
      "ذة": 4398,
      "خطيط": 4399,
      "ظروف": 4400,
      "ّن": 4401,
      "▁المقبرة": 4402,
      "▁زم": 4403,
      "▁العصور": 4404,
      "▁قت": 4405,
      "بيع": 4406,
      "▁وردت": 4407,
      "▁أت": 4408,
      "▁والط": 4409,
      "▁هن": 4410,
      "▁عبارة": 4411,
      "▁واستمر": 4412,
      "▁الرجل": 4413,
      "▁بحي": 4414,
      "▁شبه": 4415,
      "▁تؤ": 4416,
      "▁التس": 4417,
      "ستان": 4418,
      "▁فهمي": 4419,
      "re": 4420,
      "تيب": 4421,
      "فاف": 4422,
      "▁عامي": 4423,
      "اجة": 4424,
      "قاومة": 4425,
      "تاز": 4426,
      "▁زوجها": 4427,
      "▁التحرير": 4428,
      "▁كيف": 4429,
      "سلوب": 4430,
      "مرد": 4431,
      "اسطة": 4432,
      "ون\n-": 4433,
      "▁الإق": 4434,
      "▁وتأ": 4435,
      "▁المختلفة": 4436,
      "ْر": 4437,
      "▁فق": 4438,
      "▁بلا": 4439,
      "الى": 4440,
      "يناريو": 4441,
      "▁سوى": 4442,
      "▁القبط": 4443,
      "▁فرنسا": 4444,
      "▁وصول": 4445,
      "▁H": 4446,
      "عدد": 4447,
      "▁حر": 4448,
      "▁للط": 4449,
      "اهدة": 4450,
      "▁الملكة": 4451,
      "▁مار": 4452,
      "يل،": 4453,
      "▁معهد": 4454,
      "▁المتحف": 4455,
      "يوش": 4456,
      "▁اتحاد": 4457,
      "يلاء": 4458,
      "▁صباح": 4459,
      "روس": 4460,
      "شم": 4461,
      "قيب": 4462,
      "عبد": 4463,
      "ضاف": 4464,
      "▁لواء": 4465,
      "▁آلاف": 4466,
      "ol": 4467,
      "لاة": 4468,
      "▁الداخلية": 4469,
      "يسي": 4470,
      "حيان": 4471,
      "▁الام": 4472,
      "فترة": 4473,
      "طيع": 4474,
      "يار": 4475,
      "▁حام": 4476,
      "▁الكل": 4477,
      "▁بسي": 4478,
      "▁الإمبراطور": 4479,
      "▁العلمي": 4480,
      "تهر": 4481,
      "قطع": 4482,
      ",000": 4483,
      "صابة": 4484,
      "▁تحمل": 4485,
      "رحي": 4486,
      "ادث": 4487,
      "▁100": 4488,
      "▁الموافق": 4489,
      "▁المحكمة": 4490,
      "ترك": 4491,
      "ّر": 4492,
      "▁طارق": 4493,
      "نطي": 4494,
      "▁الألم": 4495,
      "24": 4496,
      "▁مؤسسة": 4497,
      "▁أعماله": 4498,
      "▁العالمي": 4499,
      "▁الديم": 4500,
      "▁الجنائ": 4501,
      "▁عمليات": 4502,
      "▁الدينية": 4503,
      "▁أهداف": 4504,
      "▁استشهاد": 4505,
      "▁ويُ": 4506,
      "▁)": 4507,
      "قوق": 4508,
      "ناق": 4509,
      "اطمة": 4510,
      "▁الرابعة": 4511,
      "▁بأس": 4512,
      "▁إنه": 4513,
      "يفة": 4514,
      "▁مقتل": 4515,
      "▁اكتشاف": 4516,
      "▁أوروبا": 4517,
      "تها،": 4518,
      "▁اليمن": 4519,
      "▁أصول": 4520,
      "▁2001": 4521,
      "وزارة": 4522,
      "▁1990": 4523,
      "▁(ج": 4524,
      "\n###": 4525,
      "▁لند": 4526,
      "▁النج": 4527,
      "▁الاجتماعي": 4528,
      "▁منتخب": 4529,
      "▁محد": 4530,
      "▁الأهرام": 4531,
      "وته": 4532,
      "▁المكت": 4533,
      "▁حبيب": 4534,
      "اكل": 4535,
      "وفية": 4536,
      "ندق": 4537,
      "▁الصحراء": 4538,
      "ترا": 4539,
      "م.\n-": 4540,
      "اسات": 4541,
      "▁صغيرة": 4542,
      "▁وحصل": 4543,
      "▁المك": 4544,
      "جمه": 4545,
      "صدار": 4546,
      "ثناء": 4547,
      "حيط": 4548,
      "▁باللغة": 4549,
      "▁شك": 4550,
      "افعي": 4551,
      "▁للا": 4552,
      "▁«الم": 4553,
      "▁أسماء": 4554,
      "▁شوقي": 4555,
      "ستر": 4556,
      "▁الجوية": 4557,
      "▁اللغ": 4558,
      "أمين": 4559,
      "▁المصادر": 4560,
      "▁يبلغ": 4561,
      "▁بواسطة": 4562,
      "قى": 4563,
      "▁بات": 4564,
      "▁المحلية": 4565,
      "▁لهذا": 4566,
      "▁كي": 4567,
      "▁=": 4568,
      "ون.": 4569,
      "▁الحقوق": 4570,
      "▁البيزنطي": 4571,
      "انيين": 4572,
      "▁يخ": 4573,
      ".\nال": 4574,
      "▁اغ": 4575,
      "▁تطوير": 4576,
      "▁أط": 4577,
      "واز": 4578,
      "▁إب": 4579,
      "▁عيسى": 4580,
      "راتيج": 4581,
      "فار": 4582,
      "▁أنا": 4583,
      "▁استخدم": 4584,
      "لالة": 4585,
      "خرة": 4586,
      "سيم": 4587,
      "▁عسكري": 4588,
      "رسال": 4589,
      "▁هير": 4590,
      "22": 4591,
      "▁المرا": 4592,
      "▁السعودية": 4593,
      "▁سبب": 4594,
      "11": 4595,
      "دا": 4596,
      "ان:": 4597,
      "سيوط": 4598,
      "تا": 4599,
      "ًّا": 4600,
      "▁كار": 4601,
      "ين:": 4602,
      "▁إخ": 4603,
      "▁قدي": 4604,
      "▁للمع": 4605,
      "▁مكتب": 4606,
      "▁يحمل": 4607,
      "▁المؤلف": 4608,
      "▁دولار": 4609,
      "▁مؤلفاته": 4610,
      "▁يظهر": 4611,
      "▁الوهاب": 4612,
      "▁تعمل": 4613,
      "▁هند": 4614,
      "▁جمعية": 4615,
      "▁الشي": 4616,
      "▁أسس": 4617,
      "▁وعمل": 4618,
      "خلص": 4619,
      "▁ورئيس": 4620,
      "▁نشاط": 4621,
      "ّل": 4622,
      "▁طويلة": 4623,
      "▁المنصور": 4624,
      "قف": 4625,
      "▁للاست": 4626,
      "ائج": 4627,
      "▁والآ": 4628,
      "▁العثور": 4629,
      "▁الفتاح": 4630,
      "▁ته": 4631,
      "▁ملي": 4632,
      "▁الزمن": 4633,
      "▁ينت": 4634,
      "▁مؤتمر": 4635,
      "▁مستشفى": 4636,
      "\nح": 4637,
      "86": 4638,
      "▁يصل": 4639,
      "▁التف": 4640,
      "▁الفكر": 4641,
      "▁ومنها": 4642,
      "▁الاحتلال": 4643,
      "لاحظ": 4644,
      "▁جعفر": 4645,
      "▁المسيح": 4646,
      "ام،": 4647,
      "▁هرم": 4648,
      "بيت": 4649,
      "▁ليلة": 4650,
      "▁تمكن": 4651,
      "▁محت": 4652,
      "▁زيد": 4653,
      "▁1967": 4654,
      "▁المسيحية": 4655,
      "▁أعلى": 4656,
      "▁عماد": 4657,
      "وحيد": 4658,
      "ويات": 4659,
      "▁حكومة": 4660,
      "▁النصر": 4661,
      "▁تفسير": 4662,
      "▁المنش": 4663,
      "▁1998": 4664,
      "خدمة": 4665,
      "▁العدد": 4666,
      "تهاء": 4667,
      "▁المدني": 4668,
      "باء": 4669,
      "▁التربية": 4670,
      ".\nي": 4671,
      "نسية": 4672,
      "▁الهرم": 4673,
      "حاق": 4674,
      "ارد": 4675,
      "▁النار": 4676,
      "▁بأنها": 4677,
      "▁الممثل": 4678,
      "▁مهرجان": 4679,
      "ريقي": 4680,
      "▁هجوم": 4681,
      "صاص": 4682,
      "هات": 4683,
      "▁شهادة": 4684,
      "▁الهندسة": 4685,
      "▁الليل": 4686,
      "▁الجمه": 4687,
      "▁1996": 4688,
      "▁ديوان": 4689,
      "▁الواقع": 4690,
      "ول،": 4691,
      "▁أشرف": 4692,
      "ابس": 4693,
      "▁المدارس": 4694,
      "▁نجاح": 4695,
      "ولت": 4696,
      "▁حدود": 4697,
      "▁الثامن": 4698,
      "كاة": 4699,
      "and": 4700,
      "جات": 4701,
      "▁الموت": 4702,
      "▁**": 4703,
      "▁50": 4704,
      "▁وو": 4705,
      "ديو": 4706,
      "وريوس": 4707,
      "▁مباشرة": 4708,
      "ريض": 4709,
      "▁للعمل": 4710,
      "▁1973": 4711,
      "▁الله،": 4712,
      "▁الصحي": 4713,
      "▁تقوم": 4714,
      "اور": 4715,
      "شهد": 4716,
      "راوي": 4717,
      "▁شرح": 4718,
      "▁يعقوب": 4719,
      "▁القناة": 4720,
      "وحات": 4721,
      "▁بطليموس": 4722,
      "▁الوصول": 4723,
      "▁وبال": 4724,
      "غط": 4725,
      "▁أسر": 4726,
      "78": 4727,
      "واني": 4728,
      "▁صوت": 4729,
      "عاون": 4730,
      "▁العمال": 4731,
      "▁صغير": 4732,
      "▁الخلافة": 4733,
      "كور": 4734,
      "▁كن": 4735,
      "قدر": 4736,
      "▁سياسي": 4737,
      "▁علاقة": 4738,
      "9.": 4739,
      "▁وبعض": 4740,
      "خطوطات": 4741,
      "el": 4742,
      "صورة": 4743,
      "ناع": 4744,
      "▁السجن": 4745,
      "▁ومس": 4746,
      "▁وليس": 4747,
      "▁نصف": 4748,
      "▁وحدة": 4749,
      "▁شار": 4750,
      "▁مجدي": 4751,
      "ra": 4752,
      "▁إطلاق": 4753,
      "▁نُ": 4754,
      "لاث": 4755,
      "▁الرجال": 4756,
      "▁الوزير": 4757,
      "▁إضافة": 4758,
      "▁نفر": 4759,
      "▁القوة": 4760,
      "▁المرك": 4761,
      "▁(مسلسل": 4762,
      "مين": 4763,
      "▁خير": 4764,
      "أل": 4765,
      "*\n-": 4766,
      "▁وأس": 4767,
      "هري": 4768,
      "▁فعل": 4769,
      "▁لـ": 4770,
      "▁بمس": 4771,
      "▁أوس": 4772,
      "▁بريطانيا": 4773,
      "▁فرض": 4774,
      "قاد": 4775,
      "▁انه": 4776,
      "▁الأموي": 4777,
      "ed": 4778,
      "▁بشأن": 4779,
      "كب": 4780,
      "▁R": 4781,
      "▁المدر": 4782,
      "ديب": 4783,
      "ْم": 4784,
      "▁كيل": 4785,
      "▁يعتقد": 4786,
      "ِل": 4787,
      "جلات": 4788,
      "▁اض": 4789,
      "us": 4790,
      "▁بينهم": 4791,
      "ذاك": 4792,
      "▁أخرى،": 4793,
      "▁رسم": 4794,
      "▁محاولة": 4795,
      "▁the": 4796,
      "▁تضم": 4797,
      "▁التر": 4798,
      "▁بالنسبة": 4799,
      "فيق": 4800,
      "▁تابعة": 4801,
      "ئون": 4802,
      "يوبي": 4803,
      "▁منتصف": 4804,
      "قاب": 4805,
      "▁أقدم": 4806,
      "▁التك": 4807,
      "▁هنا": 4808,
      "تهي": 4809,
      "ch": 4810,
      "▁فوزي": 4811,
      "▁العرض": 4812,
      "▁زيادة": 4813,
      "▁الميلادي": 4814,
      "▁وراء": 4815,
      "▁ملا": 4816,
      "يح": 4817,
      "وباترا": 4818,
      "طال": 4819,
      "▁حلب": 4820,
      "▁القرية": 4821,
      "▁(ن": 4822,
      "ليلة": 4823,
      "▁الزمالك": 4824,
      "▁مض": 4825,
      "إنشاء": 4826,
      "ت،": 4827,
      "84": 4828,
      "قول": 4829,
      "ارنة": 4830,
      "▁تي": 4831,
      "▁العرش": 4832,
      "ذاعة": 4833,
      "▁الفقه": 4834,
      "▁الخز": 4835,
      "▁ومح": 4836,
      "▁محسن": 4837,
      "جاب": 4838,
      "هِ": 4839,
      "▁D": 4840,
      "▁فح": 4841,
      "▁سواء": 4842,
      "▁(ش": 4843,
      "▁الشاعر": 4844,
      "▁أخيه": 4845,
      "يطاليا": 4846,
      "ثقافة": 4847,
      "▁اللبن": 4848,
      "3-": 4849,
      "ميم": 4850,
      "▁بشر": 4851,
      "▁ليب": 4852,
      "دينة،": 4853,
      "▁تعيين": 4854,
      "جح": 4855,
      "سته": 4856,
      "▁الكاتب": 4857,
      "▁وبالتالي": 4858,
      "\nبعد": 4859,
      "\n----": 4860,
      "▁الحجر": 4861,
      "علم": 4862,
      "▁ستة": 4863,
      "رر": 4864,
      "▁يعيش": 4865,
      "شيد": 4866,
      "▁النقد": 4867,
      "▁النفس": 4868,
      "فرد": 4869,
      "▁الفنون": 4870,
      "▁قرط": 4871,
      "om": 4872,
      "▁صورة": 4873,
      "ليفزي": 4874,
      "▁وأصبح": 4875,
      "▁اختيار": 4876,
      "هودي": 4877,
      "▁معاوية": 4878,
      "ته.": 4879,
      "▁للر": 4880,
      "▁ومؤ": 4881,
      "85": 4882,
      "▁القتال": 4883,
      "▁الإنجليزية": 4884,
      "▁وقتل": 4885,
      "▁الإر": 4886,
      "▁الكر": 4887,
      "▁.\n": 4888,
      "▁شديد": 4889,
      "▁العشر": 4890,
      "على": 4891,
      "▁1999": 4892,
      "فاظ": 4893,
      "▁السبع": 4894,
      "وفة": 4895,
      "▁تمام": 4896,
      "▁ربيع": 4897,
      "▁وغيرها": 4898,
      "و\n-": 4899,
      "▁والز": 4900,
      "▁سام": 4901,
      "▁الدراسة": 4902,
      "▁عبدال": 4903,
      "▁الاس": 4904,
      "▁ميدان": 4905,
      "▁نت": 4906,
      "▁ثق": 4907,
      "▁وأنه": 4908,
      "▁يشير": 4909,
      "▁مباراة": 4910,
      "صيب": 4911,
      "▁سير": 4912,
      "▁إمام": 4913,
      "35": 4914,
      "▁العباس": 4915,
      "79": 4916,
      "▁واعت": 4917,
      "سمح": 4918,
      "▁وبط": 4919,
      "سطنط": 4920,
      "▁للقوات": 4921,
      "فه": 4922,
      "اله": 4923,
      "اسبة": 4924,
      "▁السياسة": 4925,
      "▁بويب\n##": 4926,
      "▁قضية": 4927,
      "▁الفلسطينية": 4928,
      "▁مفت": 4929,
      "▁الأجن": 4930,
      "▁جورج": 4931,
      "ْت": 4932,
      "▁م،": 4933,
      "▁الرسمي": 4934,
      "▁كثيرة": 4935,
      "▁G": 4936,
      "▁الطلاب": 4937,
      "اكمة": 4938,
      "▁اد": 4939,
      "▁الحر": 4940,
      "ف،": 4941,
      "▁القائد": 4942,
      "▁سلطان": 4943,
      "سد": 4944,
      "▁بهذا": 4945,
      "▁والسي": 4946,
      "▁طبي": 4947,
      "حتب": 4948,
      "كات": 4949,
      "وميدي": 4950,
      "خطط": 4951,
      "رفع": 4952,
      "89": 4953,
      "▁المثال": 4954,
      "▁كاتب": 4955,
      "عتقد": 4956,
      "▁السيطرة": 4957,
      "▁المملوك": 4958,
      "▁عادة": 4959,
      "اد،": 4960,
      "▁نطاق": 4961,
      "▁ثر": 4962,
      "▁اتفاق": 4963,
      "▁مراد": 4964,
      "▁طيبة": 4965,
      "▁وهناك": 4966,
      "خبار": 4967,
      "▁سامي": 4968,
      "منح": 4969,
      "▁الطبية": 4970,
      "▁باعتبار": 4971,
      "▁فكرة": 4972,
      "▁(201": 4973,
      "▁للب": 4974,
      "▁الصراع": 4975,
      "▁البابا": 4976,
      "▁الواق": 4977,
      "ليق": 4978,
      "▁1995": 4979,
      "▁ممثل": 4980,
      "▁ظهور": 4981,
      "▁قصص": 4982,
      "▁قيام": 4983,
      "رين": 4984,
      "▁العاصمة": 4985,
      "▁اليونانية": 4986,
      "▁يغ": 4987,
      "▁الحالي": 4988,
      "▁الرح": 4989,
      "▁فرد": 4990,
      "▁كنيسة": 4991,
      "▁الجماعة": 4992,
      "وجب": 4993,
      "لفة": 4994,
      "▁مسيرته": 4995,
      "▁مدة": 4996,
      "▁قيس": 4997,
      "واح": 4998,
      "▁الحال": 4999,
      "▁الطفل": 5000,
      "▁الصغير": 5001,
      "▁المبار": 5002,
      "▁حت": 5003,
      "▁عائلة": 5004,
      "▁والتح": 5005,
      "▁بحث": 5006,
      "▁وتس": 5007,
      "ئذ": 5008,
      "عدة": 5009,
      "▁اسمها": 5010,
      "نه": 5011,
      "▁يذكر": 5012,
      "▁البيت": 5013,
      "▁وأبو": 5014,
      "▁40": 5015,
      "▁مصري،": 5016,
      "».\n-": 5017,
      "▁وتط": 5018,
      "▁فرقة": 5019,
      "2\n-": 5020,
      "▁لقد": 5021,
      "▁يسوع": 5022,
      "ورسعيد": 5023,
      "▁عقب": 5024,
      "▁الصالح": 5025,
      "▁تعرف": 5026,
      "▁تولي": 5027,
      "ولات": 5028,
      "▁لابن": 5029,
      "ينات": 5030,
      "▁إطار": 5031,
      "▁الأستاذ": 5032,
      "▁الشه": 5033,
      "▁فقال:": 5034,
      "غا": 5035,
      "▁بهم": 5036,
      "▁تز": 5037,
      "▁1997": 5038,
      "▁منزل": 5039,
      "▁يبدو": 5040,
      "▁حسام": 5041,
      "▁الإيط": 5042,
      "خصصة": 5043,
      "▁القبض": 5044,
      "سينما": 5045,
      "▁الأكثر": 5046,
      "▁تتم": 5047,
      "صرة": 5048,
      "قاط": 5049,
      "▁فلا": 5050,
      "ادئ": 5051,
      "له،": 5052,
      "▁داود": 5053,
      "as": 5054,
      "خفض": 5055,
      "▁أسوان": 5056,
      "▁الأول،": 5057,
      "ناه": 5058,
      "▁المعم": 5059,
      "▁وزوج": 5060,
      "▁مكة": 5061,
      "▁وفقًا": 5062,
      "▁الاقتصادي": 5063,
      "▁الفتح": 5064,
      "▁مدر": 5065,
      "▁جون": 5066,
      "▁الخير": 5067,
      "▁محافظ": 5068,
      "▁الري": 5069,
      "▁الجنود": 5070,
      "▁نبيل": 5071,
      "▁عاصمة": 5072,
      "لكتر": 5073,
      "▁الرواية": 5074,
      "َّا": 5075,
      "قافي": 5076,
      "فاوض": 5077,
      "▁الحصول": 5078,
      "عدام": 5079,
      "فيات": 5080,
      "▁القبائل": 5081,
      "▁الفرقة": 5082,
      "▁بث": 5083,
      "▁شغل": 5084,
      "▁النظ": 5085,
      "▁العباسي": 5086,
      "ي.": 5087,
      "▁المصري،": 5088,
      "ابات": 5089,
      "▁الإف": 5090,
      "▁الدم": 5091,
      "▁الخامسة": 5092,
      "▁كأ": 5093,
      "90": 5094,
      "▁أه": 5095,
      "▁الساعة": 5096,
      "▁مقت": 5097,
      "▁مدن": 5098,
      "ضيف": 5099,
      "▁تعد": 5100,
      "27": 5101,
      "وتي": 5102,
      "▁للخ": 5103,
      "26": 5104,
      "▁فاز": 5105,
      "▁نا": 5106,
      "عف": 5107,
      "▁أركان": 5108,
      "▁لله": 5109,
      "33": 5110,
      "▁العلاقات": 5111,
      "▁وأخذ": 5112,
      "▁سلامة": 5113,
      "زع": 5114,
      "كذا": 5115,
      "ماح": 5116,
      "▁متن": 5117,
      "▁تأثير": 5118,
      "ئت": 5119,
      "كمل": 5120,
      "▁أجزاء": 5121,
      "▁الأقل": 5122,
      "▁ويح": 5123,
      "ثمار": 5124,
      "▁2021": 5125,
      "بس": 5126,
      "َس": 5127,
      "▁بالش": 5128,
      "▁وأي": 5129,
      "▁تمثل": 5130,
      "▁مرحلة": 5131,
      "▁عمله": 5132,
      "▁أهمية": 5133,
      "▁روما": 5134,
      "▁جريدة": 5135,
      "▁خل": 5136,
      "▁الرع": 5137,
      "▁صبري": 5138,
      "ضو": 5139,
      "▁عسكرية": 5140,
      "▁علاء": 5141,
      "▁المظ": 5142,
      "▁رحل": 5143,
      "▁هـ/": 5144,
      "ريرك": 5145,
      "اطف": 5146,
      "▁محف": 5147,
      "▁الشافعي": 5148,
      "▁البداية": 5149,
      "▁السفن": 5150,
      "▁المعلم": 5151,
      "▁قرر": 5152,
      "َو": 5153,
      "علنت": 5154,
      "طع": 5155,
      "▁حجر": 5156,
      "▁باريس": 5157,
      "▁العشرين": 5158,
      "▁أنواع": 5159,
      "رجح": 5160,
      "▁ولما": 5161,
      "▁بعيد": 5162,
      "هيل": 5163,
      "تمس": 5164,
      "▁وقعت": 5165,
      "tion": 5166,
      "سيا": 5167,
      "▁إل": 5168,
      "45": 5169,
      "نمية": 5170,
      "كرم": 5171,
      "لفاء": 5172,
      "▁لهذه": 5173,
      "▁عزت": 5174,
      "▁الثانوية": 5175,
      "الق": 5176,
      "▁فاطمة": 5177,
      "▁كلمة": 5178,
      "▁بالر": 5179,
      "▁فاست": 5180,
      "تماد": 5181,
      "▁انضم": 5182,
      "▁الثاني،": 5183,
      "▁للص": 5184,
      "احية": 5185,
      "▁ذي": 5186,
      "▁الكتابة": 5187,
      "▁يزال": 5188,
      "▁موضوع": 5189,
      "▁الفيلم\n": 5190,
      "2-": 5191,
      "▁للملك": 5192,
      "▁رئاسة": 5193,
      "ou": 5194,
      "▁المي": 5195,
      "▁للفن": 5196,
      "▁غي": 5197,
      "وذج": 5198,
      "وم،": 5199,
      "▁ماهر": 5200,
      "ربط": 5201,
      "▁سلم": 5202,
      "▁الشريعة": 5203,
      "▁1948": 5204,
      "▁التاريخية": 5205,
      "87": 5206,
      "رابي": 5207,
      "مم": 5208,
      "▁كلا": 5209,
      "▁التالية": 5210,
      "▁المصريون": 5211,
      "▁للك": 5212,
      "وجيه": 5213,
      "▁الوحيد": 5214,
      "▁عط": 5215,
      "▁المفت": 5216,
      "▁الحديد": 5217,
      "وليس": 5218,
      "▁كوم": 5219,
      "▁1980": 5220,
      "ّم": 5221,
      "اصيل": 5222,
      "▁الدور": 5223,
      "َّى": 5224,
      "▁مرت": 5225,
      "▁الموجودة": 5226,
      "واة": 5227,
      "▁محطة": 5228,
      "▁يعني": 5229,
      "▁الاب": 5230,
      "▁البناء": 5231,
      "▁أسرة": 5232,
      "▁يمثل": 5233,
      "▁يص": 5234,
      "▁كثي": 5235,
      "▁تمثال": 5236,
      "▁المسلمون": 5237,
      "et": 5238,
      "▁موقف": 5239,
      "▁بكل": 5240,
      "▁العملية": 5241,
      "جت": 5242,
      "▁الـ": 5243,
      "ارضة": 5244,
      "ليين": 5245,
      "▁القسم": 5246,
      "▁الصحف": 5247,
      "21": 5248,
      "▁والمس": 5249,
      "دع": 5250,
      "وزير": 5251,
      "\nتوفي": 5252,
      "مو": 5253,
      "▁حكوم": 5254,
      "▁الرم": 5255,
      "قطاع": 5256,
      "▁1970": 5257,
      "▁تشكيل": 5258,
      "طلح": 5259,
      "▁لندن": 5260,
      "▁أراضي": 5261,
      "▁محل": 5262,
      "▁النصوص": 5263,
      "كلة": 5264,
      "▁اقتص": 5265,
      "طن": 5266,
      "▁المشاركة": 5267,
      "ليزي": 5268,
      "▁سبع": 5269,
      "▁روم": 5270,
      "▁النهر": 5271,
      "▁الخديوي": 5272,
      "▁علام": 5273,
      "▁النظر": 5274,
      "▁حياتها": 5275,
      "▁ضابط": 5276,
      "▁وقع": 5277,
      "قباط": 5278,
      "ياز": 5279,
      "اته،": 5280,
      "▁نشأ": 5281,
      "»\n-": 5282,
      "▁دخول": 5283,
      "طلع": 5284,
      "\nل": 5285,
      "sp": 5286,
      "▁نها": 5287,
      "▁بدون": 5288,
      "▁مواقع": 5289,
      "ظمات": 5290,
      "▁اليهودية": 5291,
      "لفزيون": 5292,
      "▁والا": 5293,
      "▁شباب": 5294,
      "إذا": 5295,
      "▁ولكنها": 5296,
      "▁الديمقرا": 5297,
      "23": 5298,
      "ديه": 5299,
      "نيف": 5300,
      "فرع": 5301,
      "99": 5302,
      "▁قائ": 5303,
      "▁معهم": 5304,
      "▁وأع": 5305,
      "▁تمت": 5306,
      "▁مواليد": 5307,
      "▁خص": 5308,
      "▁عال": 5309,
      "▁شن": 5310,
      ")\n1.": 5311,
      "ب،": 5312,
      "▁نادية": 5313,
      "يزيس": 5314,
      "جري": 5315,
      "▁حصار": 5316,
      "▁جو": 5317,
      "ملكة": 5318,
      "ندا": 5319,
      "كريم": 5320,
      "اب،": 5321,
      "▁شأن": 5322,
      "▁النوبة": 5323,
      "▁الحجاج": 5324,
      "ؤه": 5325,
      "▁المكان": 5326,
      "يرات": 5327,
      "▁عنخ": 5328,
      "وارع": 5329,
      "▁سمع": 5330,
      "▁خر": 5331,
      "لتا": 5332,
      "▁مخت": 5333,
      "▁له،": 5334,
      "▁العش": 5335,
      "▁العاص": 5336,
      "▁تظهر": 5337,
      "▁رحلة": 5338,
      "▁واسع": 5339,
      "ّه": 5340,
      "▁وزي": 5341,
      "▁المعد": 5342,
      "▁إست": 5343,
      "▁(ر": 5344,
      "▁عشر،": 5345,
      "بهة": 5346,
      "جمهورية": 5347,
      "فى": 5348,
      "ارة،": 5349,
      "ير\n-": 5350,
      "ردية": 5351,
      "▁1994": 5352,
      "▁التمثيل\n-": 5353,
      "▁فهي": 5354,
      "ربما": 5355,
      "لبية": 5356,
      "جارة": 5357,
      "▁بها،": 5358,
      "2.": 5359,
      "▁مدي": 5360,
      "ائها": 5361,
      "▁بينهما": 5362,
      "▁الوث": 5363,
      "▁المهندس": 5364,
      "▁الرومانية": 5365,
      "▁هار": 5366,
      "شرت": 5367,
      "\n\nقرية": 5368,
      "▁لبنان": 5369,
      "▁حامد": 5370,
      "▁الأو": 5371,
      "▁الأربع": 5372,
      "صالات": 5373,
      "خابرات": 5374,
      "وطة": 5375,
      ".\nبعد": 5376,
      "▁الشمالي": 5377,
      "▁الوطن": 5378,
      "▁تيم": 5379,
      "▁قرب": 5380,
      "▁الثلاثة": 5381,
      "▁مياه": 5382,
      "▁النح": 5383,
      "▁إسحاق": 5384,
      "▁الحارث": 5385,
      "▁رفع": 5386,
      "▁1984": 5387,
      "هنة": 5388,
      "▁تعتبر": 5389,
      "▁فخ": 5390,
      "اجد": 5391,
      "▁الشعبية": 5392,
      "▁نفسها": 5393,
      "▁قلعة": 5394,
      ".\nكما": 5395,
      "وسع": 5396,
      "نيات": 5397,
      "▁أيوب": 5398,
      "▁الرسول": 5399,
      "حين": 5400,
      "نز": 5401,
      "ّى": 5402,
      "▁الخدمات": 5403,
      "▁رجب": 5404,
      "▁بدء": 5405,
      "▁محكمة": 5406,
      "عث": 5407,
      "يتها": 5408,
      "▁بكتاب": 5409,
      "▁منف": 5410,
      "دي\n-": 5411,
      "▁بتح": 5412,
      "▁عربية": 5413,
      "▁الكهرب": 5414,
      "▁مؤسس": 5415,
      "▁بخبر": 5416,
      "▁تخرج": 5417,
      "▁تعود": 5418,
      "▁أولاد": 5419,
      "▁الروماني": 5420,
      "▁رضا": 5421,
      "▁الزراع": 5422,
      "▁صدرت": 5423,
      "▁عامًا": 5424,
      "▁«ت": 5425,
      "▁أمريك": 5426,
      "راقصة": 5427,
      "▁لصالح": 5428,
      "شراف": 5429,
      "▁شاعر": 5430,
      "▁خليفة": 5431,
      "34": 5432,
      "يان": 5433,
      "▁القطاع": 5434,
      "▁أغنية": 5435,
      "▁تشير": 5436,
      "▁سقوط": 5437,
      "كمال": 5438,
      "▁وكل": 5439,
      "راحة": 5440,
      "راقي": 5441,
      "▁الحاج": 5442,
      "▁مائ": 5443,
      "▁عرب": 5444,
      "▁معت": 5445,
      "طى": 5446,
      "َى": 5447,
      "انع": 5448,
      "▁كا": 5449,
      "▁الكون": 5450,
      "كنولوجيا": 5451,
      "▁تقدير": 5452,
      "هاجم": 5453,
      "يرة،": 5454,
      "\nتدور": 5455,
      "il": 5456,
      "▁مخرج": 5457,
      "▁F": 5458,
      "▁يو": 5459,
      "قتها": 5460,
      "▁رمزي": 5461,
      "▁ليست": 5462,
      "▁جل": 5463,
      "▁الشركات": 5464,
      "يسار": 5465,
      "جهزة": 5466,
      "▁الباحث": 5467,
      "▁الأساسية": 5468,
      "▁1993": 5469,
      "▁1956": 5470,
      "75": 5471,
      "▁1986": 5472,
      "▁حن": 5473,
      "▁قطع": 5474,
      "▁القيادة": 5475,
      "فاض": 5476,
      "اس،": 5477,
      "ناف": 5478,
      "والد": 5479,
      "▁علوم": 5480,
      "عودي": 5481,
      "▁فج": 5482,
      "تيال": 5483,
      "▁أخبار": 5484,
      "▁وأخ": 5485,
      "رابط": 5486,
      "▁باستخدام": 5487,
      "▁وذكر": 5488,
      "اتم": 5489,
      "▁مسؤول": 5490,
      "ل،": 5491,
      "▁سُ": 5492,
      "▁الجماع": 5493,
      "اهن": 5494,
      "جلترا": 5495,
      "سوق": 5496,
      "▁رائ": 5497,
      "▁مظ": 5498,
      "▁أسيوط": 5499,
      "ونه": 5500,
      "مائ": 5501,
      "▁الإمارات": 5502,
      "88": 5503,
      "هذا": 5504,
      "واريخ": 5505,
      "▁والفن": 5506,
      "ديق": 5507,
      "▁يرى": 5508,
      "▁قوم": 5509,
      "قرأ": 5510,
      "▁وخاصة": 5511,
      "▁بهدف": 5512,
      "▁غر": 5513,
      "▁الحصار": 5514,
      "قبال": 5515,
      "▁مدى": 5516,
      "▁الأفريقية": 5517,
      "▁صحيفة": 5518,
      "▁ويل": 5519,
      "▁والل": 5520,
      "▁السلطات": 5521,
      "ِم": 5522,
      "لاوة": 5523,
      "▁عامة": 5524,
      "اكر": 5525,
      "شطة": 5526,
      "▁برامج": 5527,
      "سكندرية": 5528,
      "▁بْن": 5529,
      "▁كبي": 5530,
      "▁أموال": 5531,
      "▁لطفي": 5532,
      "اغ": 5533,
      "▁ميد": 5534,
      "74": 5535,
      "ديات": 5536,
      "▁الشرع": 5537,
      "▁الشخصية": 5538,
      "جليز": 5539,
      "▁الملكي": 5540,
      "▁N": 5541,
      "وعية": 5542,
      ":\n1.": 5543,
      "▁جنود": 5544,
      "36": 5545,
      "▁المؤمن": 5546,
      "▁2022": 5547,
      "طح": 5548,
      "▁الور": 5549,
      "اجر": 5550,
      "▁عليه،": 5551,
      "▁مهم": 5552,
      "▁المخرج": 5553,
      "▁السابقة": 5554,
      "دران": 5555,
      "اريع": 5556,
      "▁جميل": 5557,
      "▁ويد": 5558,
      "▁الأيوبي": 5559,
      "▁السم": 5560,
      "▁الصحة": 5561,
      "▁الغني": 5562,
      "▁الميلاد،": 5563,
      "▁للنشر": 5564,
      "▁وشارك": 5565,
      "▁عائل": 5566,
      "▁1985": 5567,
      "▁الإدارية": 5568,
      "▁اند": 5569,
      "▁ضم": 5570,
      "▁ويب\n": 5571,
      "▁يستخدم": 5572,
      "29": 5573,
      "▁الخدمة": 5574,
      "فور": 5575,
      "▁ساعة": 5576,
      "وفر": 5577,
      "▁آنذاك": 5578,
      "▁صناعة": 5579,
      "▁القرار": 5580,
      "▁التنظيم": 5581,
      "▁القبطية": 5582,
      "▁عربي": 5583,
      "▁الأوروبي": 5584,
      "▁واق": 5585,
      "▁وبدأ": 5586,
      "▁بلد": 5587,
      "▁كليوباترا": 5588,
      "هضة": 5589,
      "▁أخت": 5590,
      "ليب": 5591,
      "▁1987": 5592,
      "هبي": 5593,
      "▁صر": 5594,
      "وقيع": 5595,
      ":201": 5596,
      "روض": 5597,
      "▁نظم": 5598,
      "▁0": 5599,
      "▁المدينة،": 5600,
      "ين.\n##": 5601,
      "▁الأمراء": 5602,
      "▁الأثرية": 5603,
      "▁ضريبة": 5604,
      "▁المنصب": 5605,
      "▁عضوا": 5606,
      "▁ارتفاع": 5607,
      "am": 5608,
      "▁p": 5609,
      "▁القوى": 5610,
      "▁شاب": 5611,
      "▁الطرق": 5612,
      "▁خلالها": 5613,
      "▁إفريقيا": 5614,
      "▁أبيه": 5615,
      "▁وصلت": 5616,
      "▁مسي": 5617,
      "▁جان": 5618,
      "▁الحربية": 5619,
      "▁لمس": 5620,
      "▁الشخصيات": 5621,
      "▁البنك": 5622,
      "▁وإخراج": 5623,
      "جزء": 5624,
      "َك": 5625,
      "▁ميناء": 5626,
      "▁مهمة": 5627,
      "▁واحت": 5628,
      "▁ناب": 5629,
      "▁الآلهة": 5630,
      "▁مرض": 5631,
      "nb": 5632,
      "▁السيدة": 5633,
      "كتابة": 5634,
      "▁1988": 5635,
      "عبة": 5636,
      "▁سفي": 5637,
      "▁حص": 5638,
      "▁...": 5639,
      "▁ألب": 5640,
      "▁بحل": 5641,
      "▁بورسعيد": 5642,
      "ائفة": 5643,
      "▁الاخت": 5644,
      "▁ظهرت": 5645,
      "▁الفلس": 5646,
      "▁1952": 5647,
      "▁الانتخابات": 5648,
      "▁تصل": 5649,
      "▁الفار": 5650,
      "▁ويع": 5651,
      "▁استطاع": 5652,
      "▁1960": 5653,
      "▁جندي": 5654,
      "▁الول": 5655,
      "▁الملا": 5656,
      "▁المرت": 5657,
      "▁منع": 5658,
      "▁يقدم": 5659,
      "▁أنشأ": 5660,
      "اخلي": 5661,
      "قيه": 5662,
      "▁(مواليد": 5663,
      "▁سجل": 5664,
      "َه": 5665,
      "▁موت": 5666,
      "▁واش": 5667,
      "▁الصغيرة": 5668,
      "قلت": 5669,
      "▁وسام": 5670,
      "▁أراد": 5671,
      "انى": 5672,
      "69": 5673,
      "▁الزراعة": 5674,
      "فال": 5675,
      "قايا": 5676,
      "▁عديدة": 5677,
      "جلد": 5678,
      "قسم": 5679,
      "مد": 5680,
      "▁فات": 5681,
      "▁المخت": 5682,
      "▁زكري": 5683,
      "▁وفق": 5684,
      "وظف": 5685,
      "َّة،": 5686,
      "▁أسامة": 5687,
      "▁1989": 5688,
      "ز،": 5689,
      "▁واف": 5690,
      "▁تنت": 5691,
      "ورك": 5692,
      "فرقة": 5693,
      "▁الحيوان": 5694,
      "▁فان": 5695,
      "▁أقام": 5696,
      "▁كام": 5697,
      "▁الصب": 5698,
      "▁لمحافظة": 5699,
      "▁وقف": 5700,
      "▁31": 5701,
      "▁البيزنط": 5702,
      "▁عي": 5703,
      "▁حفظ": 5704,
      "▁العودة": 5705,
      "▁كتابة": 5706,
      "ri": 5707,
      "جمة": 5708,
      "▁فرس": 5709,
      "▁طويل": 5710,
      "علقة": 5711,
      "اتحاد": 5712,
      "▁أنت": 5713,
      "قاذ": 5714,
      "َق": 5715,
      "▁التحق": 5716,
      "▁قبائل": 5717,
      "ه.\n##": 5718,
      "▁الهد": 5719,
      "▁الفض": 5720,
      "▁النهاية": 5721,
      "▁الماج": 5722,
      "▁تغيير": 5723,
      "▁المجال": 5724,
      "▁صديق": 5725,
      "▁بالفعل": 5726,
      "قلة": 5727,
      "▁وكتب": 5728,
      "▁وطلب": 5729,
      "▁الواقعة": 5730,
      "ولية": 5731,
      "▁وتوفي": 5732,
      "▁يؤدي": 5733,
      "ثوذ": 5734,
      "▁نع": 5735,
      "▁خس": 5736,
      "رجال": 5737,
      "▁السادسة": 5738,
      "ساب": 5739,
      "▁“": 5740,
      "يك": 5741,
      "▁and": 5742,
      "▁عود": 5743,
      "▁الماء": 5744,
      "غرافي": 5745,
      "▁يه": 5746,
      "فيف": 5747,
      "برس": 5748,
      "▁والعشرين": 5749,
      "▁لكنها": 5750,
      "▁الثامنة": 5751,
      "ش،": 5752,
      "▁جب": 5753,
      "▁وحوار": 5754,
      "▁والتوزيع": 5755,
      "▁عصام": 5756,
      "امات": 5757,
      "▁تحتوي": 5758,
      "ِر": 5759,
      "▁مريم": 5760,
      "ارته": 5761,
      "اهرات": 5762,
      "▁المنزل": 5763,
      "▁التدريب": 5764,
      "&nb": 5765,
      "ليه": 5766,
      "▁الوظ": 5767,
      "▁بتاريخ": 5768,
      "▁2023": 5769,
      "صميم": 5770,
      "&nbsp": 5771,
      "77": 5772,
      "اظ": 5773,
      "▁للكتاب": 5774,
      "▁الحليم": 5775,
      "▁بيان": 5776,
      "▁الدعوة": 5777,
      "&nbsp;": 5778,
      "جتمع": 5779,
      "اره": 5780,
      "راعي": 5781,
      "▁الأيام": 5782,
      "يًا": 5783,
      "▁هزيمة": 5784,
      "▁(بال": 5785,
      "▁وسائل": 5786,
      "▁الدستور": 5787,
      "65": 5788,
      "ضرب": 5789,
      "▁زينب": 5790,
      "دون": 5791,
      "▁الكامل": 5792,
      "اصم": 5793,
      "▁المرض": 5794,
      "▁لخ": 5795,
      "▁الأل": 5796,
      "▁البطولة": 5797,
      "▁محفوظ": 5798,
      "ود،": 5799,
      "▁الرعاية": 5800,
      "فتاء": 5801,
      "▁الصليبية": 5802,
      "امت": 5803,
      "▁هاني": 5804,
      "▁ثابت": 5805,
      "39": 5806,
      "رال": 5807,
      "ُن": 5808,
      "▁جهة": 5809,
      "▁الني": 5810,
      "▁مبنى": 5811,
      "▁واله": 5812,
      "▁غزو": 5813,
      "سي،": 5814,
      "▁دمياط": 5815,
      "▁التنمية": 5816,
      "▁ياسين": 5817,
      "▁أعد": 5818,
      "امعي": 5819,
      "▁البرت": 5820,
      "اعية": 5821,
      "▁1954": 5822,
      "▁السينمائي": 5823,
      "▁ترجمة": 5824,
      "ماثيل": 5825,
      "رقم": 5826,
      "▁1974": 5827,
      "▁ففي": 5828,
      "▁القاسم": 5829,
      "▁«ح": 5830,
      "▁الأموال": 5831,
      "▁يوح": 5832,
      ".\nوب": 5833,
      "▁خدمة": 5834,
      "يدا": 5835,
      "▁والأم": 5836,
      "▁إع": 5837,
      "▁العسكر": 5838,
      "▁الوضع": 5839,
      "▁البحيرة": 5840,
      "▁وكي": 5841,
      "▁بدلاً": 5842,
      "ــــ": 5843,
      "▁المادة": 5844,
      "▁التجارية": 5845,
      "▁العز": 5846,
      "▁طوال": 5847,
      "▁سوي": 5848,
      "▁الروك": 5849,
      "ذار": 5850,
      "عددة": 5851,
      "▁وقيل": 5852,
      "▁عمه": 5853,
      "▁عظيم": 5854,
      "▁درس": 5855,
      "▁رض": 5856,
      "▁«ع": 5857,
      "▁بيروت": 5858,
      "▁سا": 5859,
      "▁القادر": 5860,
      "▁الجبل": 5861,
      "▁الدخل": 5862,
      "▁سعاد": 5863,
      "حدد": 5864,
      "حة،": 5865,
      "▁كافة": 5866,
      "▁سوق": 5867,
      "▁الحكيم": 5868,
      "▁الفرق": 5869,
      "▁الخليج": 5870,
      "وقاف": 5871,
      "▁«إ": 5872,
      "هلية": 5873,
      "\nكانت": 5874,
      "▁ناج": 5875,
      "بلاد": 5876,
      "▁ويتم": 5877,
      "▁المسؤول": 5878,
      "▁1983": 5879,
      "\nتم": 5880,
      "حه": 5881,
      "ليمي": 5882,
      "ناوي": 5883,
      "▁الإي": 5884,
      "▁يحاول": 5885,
      "▁لكي": 5886,
      "قيقي": 5887,
      "▁لاحقًا": 5888,
      "▁هنري": 5889,
      ".5": 5890,
      "▁خوف": 5891,
      "وفى": 5892,
      "▁المصريات": 5893,
      "دار": 5894,
      "قامة": 5895,
      "▁لين": 5896,
      "اً.": 5897,
      "▁الوحدة": 5898,
      "▁صدقي": 5899,
      "راتيجية": 5900,
      "▁لوحة": 5901,
      "▁توت": 5902,
      "▁مرات": 5903,
      "تن": 5904,
      "▁الشاب": 5905,
      "▁مرس": 5906,
      "لعاب": 5907,
      "اربة": 5908,
      "▁قوانين": 5909,
      "▁دفن": 5910,
      "▁البرنامج": 5911,
      "▁2024": 5912,
      "▁بان": 5913,
      "▁يضم": 5914,
      "46": 5915,
      "▁الحص": 5916,
      "اطر": 5917,
      "▁السنوات": 5918,
      "▁رأى": 5919,
      "▁النهائي": 5920,
      "▁العمليات": 5921,
      "\nإ": 5922,
      "▁إيطاليا": 5923,
      "▁خلاف": 5924,
      "مالية": 5925,
      "▁وسلم": 5926,
      "▁الأمة": 5927,
      "قالات": 5928,
      "شارة": 5929,
      "ويم": 5930,
      "▁القاضي": 5931,
      "▁دائرة": 5932,
      "▁طنط": 5933,
      "رنت": 5934,
      "▁تعالى": 5935,
      "▁نسمة": 5936,
      "▁ق.م": 5937,
      "▁وأحمد": 5938,
      "▁الطرف": 5939,
      "أسيس": 5940,
      "▁الشمالية": 5941,
      "▁الْ": 5942,
      "▁وست": 5943,
      "ائدة": 5944,
      "ح،": 5945,
      "ظل": 5946,
      "▁فصل": 5947,
      "▁إعلان": 5948,
      "▁ساهم": 5949,
      "▁خان": 5950,
      "ملت": 5951,
      "▁ممن": 5952,
      "▁والفر": 5953,
      "199": 5954,
      "▁60": 5955,
      "\nب": 5956,
      "بيه": 5957,
      "▁الوالي": 5958,
      "▁1991": 5959,
      "سرائيل": 5960,
      "قيم": 5961,
      "مائة": 5962,
      "▁الجيزة": 5963,
      "▁W": 5964,
      "▁وبر": 5965,
      "▁خطة": 5966,
      "▁«ب": 5967,
      "تار": 5968,
      "▁(ق": 5969,
      "▁1992": 5970,
      "▁النز": 5971,
      "لقاب": 5972,
      "ى\n-": 5973,
      "▁الواحد": 5974,
      "▁ليت": 5975,
      "▁التراث": 5976,
      "ورة،": 5977,
      "▁ومصر": 5978,
      "▁1975": 5979,
      "▁عثر": 5980,
      "▁المتظاهر": 5981,
      "▁الجنوبي": 5982,
      "▁الوزارة": 5983,
      "76": 5984,
      "le": 5985,
      "ق،": 5986,
      "▁حف": 5987,
      "ودية": 5988,
      "▁صراع": 5989,
      "▁المستشفى": 5990,
      "▁القانوني": 5991,
      "▁تزال": 5992,
      "▁حماية": 5993,
      "▁رو": 5994,
      "▁العدل": 5995,
      "▁الأج": 5996,
      "▁نجم": 5997,
      "\nن": 5998,
      "▁حماس": 5999,
      "▁الاتفاق": 6000,
      "▁بحيث": 6001,
      "▁(مسلسل)\n\n": 6002,
      "يقية": 6003,
      "▁70": 6004,
      "▁الصحفي": 6005,
      "▁نقطة": 6006,
      "▁بالمع": 6007,
      "▁بينها": 6008,
      "▁تجاه": 6009,
      "▁المقابر": 6010,
      "▁دست": 6011,
      "وهاج": 6012,
      "▁المنتخب": 6013,
      "▁سعود": 6014,
      "عو": 6015,
      "▁قادة": 6016,
      "دمشق": 6017,
      "وضح": 6018,
      "طلقت": 6019,
      "▁تستخدم": 6020,
      "▁لفترة": 6021,
      "▁طبق": 6022,
      "اطئ": 6023,
      "▁البلد": 6024,
      "ent": 6025,
      "▁أز": 6026,
      "ابلة": 6027,
      "▁جي": 6028,
      "▁والمؤ": 6029,
      "▁35": 6030,
      "▁ناحية": 6031,
      "▁السابعة": 6032,
      "▁عنوان": 6033,
      "▁الظاهر": 6034,
      "قات": 6035,
      "▁إعداد": 6036,
      "▁كور": 6037,
      "▁وأمر": 6038,
      "▁«س": 6039,
      "▁حكمه": 6040,
      "واط": 6041,
      "تباع": 6042,
      "▁1981": 6043,
      "▁م.": 6044,
      "امه": 6045,
      "▁غرفة": 6046,
      "لامي": 6047,
      "▁1978": 6048,
      "▁ألمانيا": 6049,
      "▁K": 6050,
      "▁الشهير": 6051,
      "▁طف": 6052,
      "▁الموسيقى": 6053,
      "▁ميت": 6054,
      "▁إيزيس": 6055,
      "▁يجد": 6056,
      "رعان": 6057,
      "▁راب": 6058,
      "▁أيمن": 6059,
      "▁النقل": 6060,
      "▁الرومان": 6061,
      "▁معلومات": 6062,
      "تركة": 6063,
      "▁الخي": 6064,
      "▁والتعليم": 6065,
      "▁أغاني": 6066,
      "▁إقامة": 6067,
      "َيْ": 6068,
      "قن": 6069,
      "▁1979": 6070,
      "نائس": 6071,
      "▁العدو": 6072,
      "▁التفسير": 6073,
      "▁القلعة": 6074,
      "▁الميد": 6075,
      "يلية": 6076,
      "▁روح": 6077,
      "ميت": 6078,
      "بقى": 6079,
      "▁القومية": 6080,
      "▁خدم": 6081,
      "بلة": 6082,
      "▁الطبقة": 6083,
      "▁ياسر": 6084,
      "صلة": 6085,
      "▁الاع": 6086,
      "▁السوق": 6087,
      "▁لتن": 6088,
      "راما": 6089,
      "31": 6090,
      "49": 6091,
      "شارع": 6092,
      "▁المتحد": 6093,
      "▁الزبير": 6094,
      "اثولي": 6095,
      "▁يوحنا": 6096,
      "▁الأسطول": 6097,
      "▁خلق": 6098,
      "▁صنع": 6099,
      "▁بمث": 6100,
      "شكل": 6101,
      "▁شيئ": 6102,
      "▁حلوان": 6103,
      "▁شعبان": 6104,
      "جيع": 6105,
      "رابل": 6106,
      "يدر": 6107,
      "▁الكبيرة": 6108,
      "َّد": 6109,
      "قالة": 6110,
      "▁يتعلق": 6111,
      "▁الضفة": 6112,
      "▁التنفيذ": 6113,
      "ثرة": 6114,
      "▁وتد": 6115,
      "▁طاهر": 6116,
      "▁الهلال": 6117,
      "صلحة": 6118,
      "▁1976": 6119,
      "▁وظل": 6120,
      "▁اهتمام": 6121,
      "خدمات": 6122,
      "▁خطاب": 6123,
      "▁واسعة": 6124,
      "▁حدي": 6125,
      "▁الجميع": 6126,
      "▁مجتمع": 6127,
      "▁لنا": 6128,
      "▁سلاح": 6129,
      "▁سيرته": 6130,
      "▁البحري": 6131,
      "▁الصحية": 6132,
      "طات": 6133,
      "▁مواجهة": 6134,
      "▁مسلمة": 6135,
      "▁الإسكندرية،": 6136,
      "▁فرق": 6137,
      "▁المواد": 6138,
      "▁يط": 6139,
      "▁حفل": 6140,
      "▁هدى": 6141,
      "▁امتد": 6142,
      "ميس": 6143,
      "▁شكري": 6144,
      "▁وترك": 6145,
      "▁1977": 6146,
      "كيد": 6147,
      "ِد": 6148,
      "▁والأس": 6149,
      "▁سقط": 6150,
      "يله": 6151,
      "براطورية": 6152,
      "شية": 6153,
      "▁ألح": 6154,
      "▁منير": 6155,
      "▁المسلمين،": 6156,
      "▁فإنه": 6157,
      "▁وعدد": 6158,
      "▁يب": 6159,
      "▁الفضل": 6160,
      "▁الفرعون": 6161,
      "ذيب": 6162,
      "▁المخابرات": 6163,
      "▁للآ": 6164,
      "▁آسيا": 6165,
      "▁تصميم": 6166,
      "▁انتهت": 6167,
      "▁سكن": 6168,
      "ابوت": 6169,
      "▁وتر": 6170,
      "▁مصدر": 6171,
      "▁الأولى،": 6172,
      "▁إجراء": 6173,
      "▁الأشخاص": 6174,
      "ليس": 6175,
      "▁إخراج:": 6176,
      "▁الروا": 6177,
      "شا": 6178,
      "▁والاجتماع": 6179,
      "▁صادق": 6180,
      "وريس": 6181,
      "▁وحيد": 6182,
      "un": 6183,
      "اصل": 6184,
      "هان": 6185,
      "ّد": 6186,
      "▁حاليا": 6187,
      "▁الجزائر": 6188,
      "ة\n-": 6189,
      "▁الشكل": 6190,
      "▁وعضو": 6191,
      "▁المستقبل": 6192,
      "رز": 6193,
      "▁شبكة": 6194,
      "▁قيمة": 6195,
      "▁هلال": 6196,
      "▁أيدي": 6197,
      "▁بحر": 6198,
      "▁التحقيق": 6199,
      "▁المهدي": 6200,
      "▁بور": 6201,
      "▁هما": 6202,
      "لاحي": 6203,
      "▁الحادي": 6204,
      "▁الممتاز": 6205,
      "بحاث": 6206,
      "▁قن": 6207,
      "▁نجد": 6208,
      "▁الدين،": 6209,
      "▁القلب": 6210,
      "▁دراسات": 6211,
      "▁بموجب": 6212,
      "▁مختار": 6213,
      "▁فص": 6214,
      "قديم": 6215,
      "▁الوجه": 6216,
      "▁عزيز": 6217,
      "▁منى": 6218,
      "▁إثر": 6219,
      "▁حُ": 6220,
      "▁الجهاد": 6221,
      "▁النو": 6222,
      "▁الذات": 6223,
      "▁مشارك": 6224,
      "▁أبد": 6225,
      "▁للمن": 6226,
      "▁دورة": 6227,
      "▁بالمن": 6228,
      "▁الذهبي": 6229,
      "38": 6230,
      "كير": 6231,
      "▁وأرسل": 6232,
      "▁زواج": 6233,
      "\n\n-": 6234,
      "64": 6235,
      "▁حور": 6236,
      "▁والذ": 6237,
      "▁سينما": 6238,
      "▁الخطاب": 6239,
      "▁اليوناني": 6240,
      "▁الخرط": 6241,
      "اريات": 6242,
      "▁رشيد": 6243,
      "▁فرج": 6244,
      "▁فوز": 6245,
      "▁يرجع": 6246,
      "▁الصعيد": 6247,
      "▁از": 6248,
      "▁بجانب": 6249,
      "بطولة": 6250,
      "▁بنا": 6251,
      "ارير": 6252,
      "▁يهود": 6253,
      "▁الدعم": 6254,
      "وست": 6255,
      "▁الثقافية": 6256,
      "ing": 6257,
      "▁الطبيعي": 6258,
      "ثوذكس": 6259,
      "▁جابر": 6260,
      "▁المصرية.": 6261,
      "▁يونس": 6262,
      "▁مأ": 6263,
      "▁مِن": 6264,
      "▁العائلة": 6265,
      "▁اللات": 6266,
      "▁المجمع": 6267,
      "دري": 6268,
      "▁كلمات": 6269,
      "▁دائ": 6270,
      "▁مديرية": 6271,
      "▁مير": 6272,
      "▁مونتاج": 6273,
      "\n:": 6274,
      "▁مطر": 6275,
      ".\nول": 6276,
      "▁الجو": 6277,
      "▁«ن": 6278,
      "▁المتعلقة": 6279,
      "▁فمن": 6280,
      "▁عا": 6281,
      "▁ليكون": 6282,
      "▁الضباط": 6283,
      "▁والدها": 6284,
      "▁تدريب": 6285,
      "▁(199": 6286,
      "سلمين": 6287,
      "▁الماجستير": 6288,
      "▁بمثابة": 6289,
      "▁به،": 6290,
      "gy": 6291,
      "▁الأدبية": 6292,
      "▁القديس": 6293,
      "▁دراسته": 6294,
      "55": 6295,
      "▁عوف": 6296,
      "▁الجوائز": 6297,
      "▁طبع": 6298,
      "▁وإلى": 6299,
      "▁ومر": 6300,
      "▁يلي": 6301,
      "▁سك": 6302,
      "ويه": 6303,
      "▁الناصري": 6304,
      "طباء": 6305,
      "زاب": 6306,
      "▁مناف": 6307,
      "ارسة": 6308,
      "▁قطر": 6309,
      "ازم": 6310,
      "▁1964": 6311,
      "▁التعاون": 6312,
      "▁منهما": 6313,
      "▁القائمة": 6314,
      "▁وعرض": 6315,
      "▁سار": 6316,
      "▁بالخ": 6317,
      "▁أدت": 6318,
      "▁بلغت": 6319,
      "▁بدي": 6320,
      "▁الأسلحة": 6321,
      ".\nوي": 6322,
      "▁الفرد": 6323,
      "▁آدم": 6324,
      "▁م)": 6325,
      "▁يطلب": 6326,
      "▁تشمل": 6327,
      "واقف": 6328,
      "▁ق.م.": 6329,
      "صاها": 6330,
      "يست": 6331,
      "▁الرق": 6332,
      "َّل": 6333,
      "▁رسمي": 6334,
      "▁المعروفة": 6335,
      "▁العاشر": 6336,
      "▁دبلوم": 6337,
      "▁الفصل": 6338,
      "▁السياس": 6339,
      "▁بالكامل": 6340,
      "32": 6341,
      "▁أشار": 6342,
      "▁دوري": 6343,
      "لفه": 6344,
      "▁الوادي": 6345,
      "▁بيبرس": 6346,
      ".\nوكان": 6347,
      "▁الإلكتر": 6348,
      "▁امرأة.": 6349,
      "▁الحكومية": 6350,
      "مثل": 6351,
      "▁فشل": 6352,
      "▁شركات": 6353,
      "▁وعاد": 6354,
      "▁وجعل": 6355,
      "▁الإصلاح": 6356,
      "▁تدمير": 6357,
      "▁يريد": 6358,
      "▁ونشأ": 6359,
      "\nالم": 6360,
      "سحاب": 6361,
      "فان": 6362,
      "▁مطار": 6363,
      "▁السر": 6364,
      "▁تسمى": 6365,
      "▁بالط": 6366,
      "▁بالغ": 6367,
      "▁وانته": 6368,
      "لغاء": 6369,
      "عال": 6370,
      "فو": 6371,
      "▁إصدار": 6372,
      "▁العربية.\n##": 6373,
      "▁شه": 6374,
      "سبة": 6375,
      "▁فيها،": 6376,
      "▁يسمى": 6377,
      "▁لمح": 6378,
      ":\n##": 6379,
      "▁وأح": 6380,
      "▁البحوث": 6381,
      "▁اعتبار": 6382,
      "67": 6383,
      "ضاع": 6384,
      "▁حج": 6385,
      "▁ممد": 6386,
      "يدي": 6387,
      "▁سيا": 6388,
      "▁العراقي": 6389,
      "▁الروح": 6390,
      "▁مقابر": 6391,
      "44": 6392,
      "▁تجمع": 6393,
      "▁استمرت": 6394,
      "37": 6395,
      "▁عودة": 6396,
      ".\nوت": 6397,
      "▁تمثيل": 6398,
      "اضر": 6399,
      "▁وذ": 6400,
      "الغ": 6401,
      "▁فقام": 6402,
      "▁جنا": 6403,
      "▁وعند": 6404,
      "▁للمس": 6405,
      "▁وبطولة": 6406,
      "شى": 6407,
      "▁قول": 6408,
      "▁بعده": 6409,
      "▁هيكل": 6410,
      "▁بهذه": 6411,
      "ro": 6412,
      "خمة": 6413,
      "مح": 6414,
      "▁قتال": 6415,
      "اضط": 6416,
      "▁سياسية": 6417,
      "▁التقليد": 6418,
      "▁افتتاح": 6419,
      "ندية": 6420,
      "▁الابتد": 6421,
      "وهم": 6422,
      "هاجر": 6423,
      "▁الرأي": 6424,
      "▁تقرير": 6425,
      "ويد": 6426,
      "▁قضايا": 6427,
      "▁(ص": 6428,
      "ودان": 6429,
      "▁موسيقى": 6430,
      "▁تونس": 6431,
      ".\nكانت": 6432,
      "▁القن": 6433,
      "▁بيانات": 6434,
      "▁مطب": 6435,
      ".\nتم": 6436,
      "▁عبده": 6437,
      "▁1969": 6438,
      "▁فدان": 6439,
      "▁المث": 6440,
      "امين": 6441,
      "▁الطاقة": 6442,
      "إنجليز": 6443,
      "▁سياسة": 6444,
      "▁ووضع": 6445,
      "▁الإخ": 6446,
      "زوجة": 6447,
      "ازي": 6448,
      "نها": 6449,
      "نصر": 6450,
      "▁كش": 6451,
      "▁لآ": 6452,
      "▁خبر": 6453,
      "▁سبعة": 6454,
      "▁أحصاها": 6455,
      "▁مسرحية": 6456,
      "هول": 6457,
      "▁حصن": 6458,
      "▁طريقة": 6459,
      "▁الصي": 6460,
      "▁الإنجليزي": 6461,
      "▁بسر": 6462,
      "▁فضل": 6463,
      "▁والدة": 6464,
      "▁الدر": 6465,
      "▁الاث": 6466,
      "▁بيع": 6467,
      "▁فخر": 6468,
      "▁تامر": 6469,
      "▁الصغ": 6470,
      "اري،": 6471,
      "▁ضر": 6472,
      "▁الوقت،": 6473,
      "▁تور": 6474,
      "▁السماء": 6475,
      "راقبة": 6476,
      "▁زياد": 6477,
      "▁المسيحيين": 6478,
      "خاذ": 6479,
      "ُو": 6480,
      "▁الساحل": 6481,
      "▁الدنيا": 6482,
      "اني\n-": 6483,
      "▁وعمر": 6484,
      "54": 6485,
      "جون": 6486,
      "▁مكون": 6487,
      ".\nمن": 6488,
      "▁دليل": 6489,
      "▁اجت": 6490,
      "▁الأقباط": 6491,
      "▁الخمس": 6492,
      "▁الرسالة": 6493,
      "▁للدولة": 6494,
      "ابية": 6495,
      "قييم": 6496,
      "تباك": 6497,
      "▁1968": 6498,
      "▁لأنها": 6499,
      "ناً": 6500,
      "▁المسا": 6501,
      "▁انتخابات": 6502,
      "▁الصليبيين": 6503,
      "ليفزيون": 6504,
      "تة": 6505,
      "▁المكتب": 6506,
      "▁يقت": 6507,
      "وره": 6508,
      "واجد": 6509,
      "▁للز": 6510,
      "▁طه": 6511,
      "▁بعدما": 6512,
      "يده": 6513,
      "▁الخروج": 6514,
      "▁الإذاعة": 6515,
      "ويض": 6516,
      "▁النقوش": 6517,
      "▁عاماً": 6518,
      "▁طبيب": 6519,
      "روة": 6520,
      "ها.\n##": 6521,
      "▁العلاقة": 6522,
      "▁النواب": 6523,
      "▁عاما": 6524,
      "▁طفل": 6525,
      "▁المنتج": 6526,
      "▁الأقصر": 6527,
      "▁نصوص": 6528,
      "▁خز": 6529,
      "▁الدكتوراه": 6530,
      "▁الرسمية": 6531,
      "▁الغاز": 6532,
      "▁مستشار": 6533,
      "▁أعلنت": 6534,
      "▁الإغ": 6535,
      "▁ليع": 6536,
      "▁المنظمة": 6537,
      "▁اليهودي": 6538,
      "صدق": 6539,
      "ذن": 6540,
      "فعة": 6541,
      "ارا": 6542,
      "▁المعابد": 6543,
      "تباط": 6544,
      "▁المحلي": 6545,
      "▁بأمر": 6546,
      "▁تأسست": 6547,
      "▁ويست": 6548,
      "▁شاهين": 6549,
      "▁زكريا": 6550,
      "ويج": 6551,
      "كرت": 6552,
      "▁عمارة": 6553,
      "▁قديمة": 6554,
      "▁in": 6555,
      "▁وربما": 6556,
      "▁تغير": 6557,
      "▁(في": 6558,
      "▁الحرية": 6559,
      "▁الحقيق": 6560,
      "▁مسعود": 6561,
      "▁1971": 6562,
      "▁الملي": 6563,
      "▁الحروب": 6564,
      "▁ومد": 6565,
      "▁إنجلترا": 6566,
      "▁فتاة": 6567,
      "▁أغلب": 6568,
      "▁ترجم": 6569,
      "▁حصلت": 6570,
      "▁هام": 6571,
      "▁تتبع": 6572,
      "▁للمخرج": 6573,
      "▁وعدم": 6574,
      "و.": 6575,
      "▁مربع": 6576,
      "▁أسط": 6577,
      "ويش": 6578,
      "َّر": 6579,
      "▁تعلم": 6580,
      "▁1982": 6581,
      "▁التاريخ\n": 6582,
      "▁الأصلي": 6583,
      "سون": 6584,
      "▁جيد": 6585,
      "▁بنك": 6586,
      "▁الأسود": 6587,
      "▁الجمهور": 6588,
      "ي:": 6589,
      "▁لويس": 6590,
      "▁للمر": 6591,
      "▁أقيم": 6592,
      "▁رشدي": 6593,
      "ماكن": 6594,
      "▁معها": 6595,
      "سبانيا": 6596,
      "▁مصري.\n##": 6597,
      "درات": 6598,
      "زيزة": 6599,
      "▁فيل": 6600,
      "▁محاول": 6601,
      "▁بعضها": 6602,
      "قاليد": 6603,
      "▁ممدوح": 6604,
      "ئين": 6605,
      "▁عناصر": 6606,
      ".\nع": 6607,
      "قلية": 6608,
      "▁الفيوم": 6609,
      ").\n1.": 6610,
      "▁فكانت": 6611,
      "▁مناص": 6612,
      "عيين": 6613,
      "▁دمشق،": 6614,
      "جير": 6615,
      "مدة": 6616,
      "▁برج": 6617,
      "▁الأربعة": 6618,
      "▁رزق": 6619,
      "▁العربي،": 6620,
      "▁الغزو": 6621,
      "▁إليهم": 6622,
      "▁الأفراد": 6623,
      "▁الإنسانية": 6624,
      "▁وفاته\nتوفي": 6625,
      "نم": 6626,
      "▁الرك": 6627,
      "▁والمت": 6628,
      "▁ولذلك": 6629,
      "▁مرك": 6630,
      "وند": 6631,
      "▁الترب": 6632,
      "▁السفر": 6633,
      "▁الدار": 6634,
      "وقة": 6635,
      "▁وبح": 6636,
      "▁ويب\n-": 6637,
      "▁المركزي": 6638,
      "48": 6639,
      "▁J": 6640,
      "▁محم": 6641,
      "▁ليبيا": 6642,
      "▁إيج": 6643,
      "عدم": 6644,
      "▁ثاني": 6645,
      "▁نقش": 6646,
      "▁سفينة": 6647,
      "واس": 6648,
      "▁بقايا": 6649,
      "▁الصور": 6650,
      "▁هاشم": 6651,
      "ْد": 6652,
      "▁خال": 6653,
      "▁وأول": 6654,
      "▁يجعل": 6655,
      "▁قليل": 6656,
      "▁هانم": 6657,
      "▁طلاب": 6658,
      "▁الخلاف": 6659,
      "▁ضرب": 6660,
      "تحف": 6661,
      "▁قصيرة": 6662,
      "قع": 6663,
      "▁وبذلك": 6664,
      "▁المحافظة": 6665,
      "▁ودخل": 6666,
      "رافية": 6667,
      "ظار": 6668,
      "غيل": 6669,
      "▁ووف": 6670,
      "▁عائ": 6671,
      "▁تسبب": 6672,
      "▁يطلق": 6673,
      "رمان": 6674,
      "▁يستطيع": 6675,
      "▁خدمات": 6676,
      "شرح": 6677,
      "▁زعيم": 6678,
      "▁الجنوبية": 6679,
      "▁الوفد": 6680,
      "بان": 6681,
      "▁محي": 6682,
      "▁الماضي": 6683,
      "▁بحلول": 6684,
      "▁موجودة": 6685,
      "▁بمر": 6686,
      "▁الموضوع": 6687,
      "تهما": 6688,
      "راء،": 6689,
      "شور": 6690,
      "▁السكن": 6691,
      "▁البش": 6692,
      "▁يأتي": 6693,
      "خلال": 6694,
      "وبر": 6695,
      "▁ساعد": 6696,
      "لاو": 6697,
      "▁الثقافي": 6698,
      "▁الحجاز": 6699,
      "▁لديه": 6700,
      "ية»": 6701,
      "اطة": 6702,
      "▁فرح": 6703,
      "▁رح": 6704,
      "▁المتحدة،": 6705,
      "م\n-": 6706,
      "▁فم": 6707,
      "▁الألعاب": 6708,
      "يرًا": 6709,
      "رعاية": 6710,
      "▁الاستيلاء": 6711,
      "▁امت": 6712,
      "▁طلعت": 6713,
      "غلال": 6714,
      "▁اف": 6715,
      "ال،": 6716,
      "▁اليد": 6717,
      "ميزة": 6718,
      "▁80": 6719,
      "بابات": 6720,
      "▁إقليم": 6721,
      "جموعات": 6722,
      "▁قُتل": 6723,
      "ئر": 6724,
      "▁الوس": 6725,
      "في،": 6726,
      "رميم": 6727,
      "▁عبادة": 6728,
      "ألة": 6729,
      "قوش": 6730,
      "▁قديم": 6731,
      "▁القادة": 6732,
      "▁الإسماعيل": 6733,
      "جين": 6734,
      "▁الفارس": 6735,
      "▁الدرجة": 6736,
      "▁الأرثوذكس": 6737,
      "▁كنت": 6738,
      "درج": 6739,
      "▁الطيران": 6740,
      "▁ومت": 6741,
      "اطعة": 6742,
      "ظهرت": 6743,
      "ايير": 6744,
      "▁وغيرهم": 6745,
      "▁يلعب": 6746,
      "▁شفيق": 6747,
      "نازل": 6748,
      "▁وأف": 6749,
      "▁ومص": 6750,
      "▁الإسلامية،": 6751,
      "▁المستوى": 6752,
      "68": 6753,
      "مام": 6754,
      "▁الحفاظ": 6755,
      "▁الصيد": 6756,
      "▁انتصار": 6757,
      "▁البرلمان": 6758,
      "دعى": 6759,
      "فقة": 6760,
      "▁ألا": 6761,
      "▁المقدسة": 6762,
      "▁رفعت": 6763,
      "▁الحسيني": 6764,
      "هوم": 6765,
      "▁سرح": 6766,
      "▁أنفس": 6767,
      "▁الأساس": 6768,
      "▁المركزية": 6769,
      "عزيز": 6770,
      "▁الفقار": 6771,
      "▁حالياً": 6772,
      "▁يحتوي": 6773,
      "اورة": 6774,
      "▁s": 6775,
      "▁كات": 6776,
      "▁كوميدي": 6777,
      "▁قريب": 6778,
      "ادته": 6779,
      "لاغ": 6780,
      "▁الرؤ": 6781,
      "▁الراحل": 6782,
      "▁الهيكل": 6783,
      "▁تا": 6784,
      "▁(ك": 6785,
      "▁1958": 6786,
      "راعنة": 6787,
      "▁نسخة": 6788,
      "▁حورس": 6789,
      "لي\n-": 6790,
      "▁قنا": 6791,
      "▁يدعى": 6792,
      "▁العمارة": 6793,
      "مبي": 6794,
      "▁سوف": 6795,
      "▁نقد": 6796,
      "▁نعم": 6797,
      "▁إث": 6798,
      "▁كاملة": 6799,
      "حمة": 6800,
      "▁الدوا": 6801,
      "▁وهكذا": 6802,
      "▁وعم": 6803,
      "▁توس": 6804,
      "▁سجن": 6805,
      "▁سوهاج": 6806,
      "لفية": 6807,
      "▁الأمور": 6808,
      "حام": 6809,
      "م.\n##": 6810,
      "يعة": 6811,
      "الك": 6812,
      "▁يحدث": 6813,
      "▁بنات": 6814,
      "تبطة": 6815,
      "▁1965": 6816,
      "▁اتخذ": 6817,
      "▁يتمكن": 6818,
      "▁رأي": 6819,
      "▁يرت": 6820,
      "ورى": 6821,
      "▁ومست": 6822,
      "▁1950": 6823,
      "▁ممثلة": 6824,
      "َف": 6825,
      "▁بُ": 6826,
      "▁خصوص": 6827,
      "▁بحيرة": 6828,
      "▁بجوار": 6829,
      "▁تدخل": 6830,
      "▁المحتمل": 6831,
      "▁شاركت": 6832,
      "▁1953": 6833,
      "▁كيلوم": 6834,
      "▁مذ": 6835,
      "▁تحتمس": 6836,
      "▁أشكال": 6837,
      "زت": 6838,
      "▁المرش": 6839,
      "▁وعن": 6840,
      "▁ومنهم": 6841,
      "▁عوض": 6842,
      "▁الحقيقة": 6843,
      "▁الانتقال": 6844,
      "▁بوابة": 6845,
      "▁الجامعات": 6846,
      "عمر": 6847,
      "▁الأهداف": 6848,
      "▁زع": 6849,
      "''": 6850,
      "قوم": 6851,
      "▁أجن": 6852,
      "لاص": 6853,
      "▁إدريس": 6854,
      "▁نه": 6855,
      "▁قصيدة": 6856,
      "غت": 6857,
      "▁حكام": 6858,
      "▁وأش": 6859,
      "َّم": 6860,
      "ثيقة": 6861,
      "▁صفوف": 6862,
      "▁مجموعات": 6863,
      "▁توفير": 6864,
      "يص": 6865,
      "▁والمد": 6866,
      "▁مقدمة": 6867,
      "▁إرسال": 6868,
      "▁التب": 6869,
      "▁معرفة": 6870,
      "ركة،": 6871,
      "▁«ل": 6872,
      "ني،": 6873,
      "os": 6874,
      "وراً": 6875,
      "▁العظم": 6876,
      "▁(5": 6877,
      "▁السورية": 6878,
      "▁المدنية": 6879,
      "▁1955": 6880,
      "وغليف": 6881,
      "ونسو": 6882,
      "▁واجه": 6883,
      "▁(د": 6884,
      "▁عليها،": 6885,
      "▁وهذه": 6886,
      "▁مشاة": 6887,
      "▁وآخر": 6888,
      "▁والعلوم": 6889,
      "▁ساب": 6890,
      "▁القاعدة": 6891,
      "▁أمينة": 6892,
      "▁يعلم": 6893,
      "▁بنفسه": 6894,
      "▁قيل": 6895,
      "▁صندوق": 6896,
      "يس،": 6897,
      "مييز": 6898,
      "▁الزكاة": 6899,
      "▁تحول": 6900,
      "نتين": 6901,
      "أمون": 6902,
      "▁قواعد": 6903,
      "▁الكت": 6904,
      "▁مدخل": 6905,
      "▁إنتاج:": 6906,
      "▁هيرود": 6907,
      "73": 6908,
      "وامل": 6909,
      "ْل": 6910,
      "ادمة": 6911,
      "▁القيام": 6912,
      "▁رؤية": 6913,
      "▁والاقتص": 6914,
      "*.": 6915,
      "▁تبلغ": 6916,
      "ري:": 6917,
      "▁السوري": 6918,
      "▁البرامج": 6919,
      "▁سلطة": 6920,
      "وأ": 6921,
      "▁لبعض": 6922,
      "وبرا": 6923,
      "▁بعث": 6924,
      "آت": 6925,
      "ِب": 6926,
      "▁جر": 6927,
      "▁جهاز": 6928,
      "▁الجمعة": 6929,
      "2)": 6930,
      "▁العلا": 6931,
      "▁\"أ": 6932,
      "▁بطول": 6933,
      "▁الصحافة": 6934,
      "زيد": 6935,
      "زهر": 6936,
      "▁نجح": 6937,
      "▁العباسية": 6938,
      "▁فك": 6939,
      "▁المذهب": 6940,
      "▁سان": 6941,
      "▁شير": 6942,
      "▁الإسب": 6943,
      "▁المنصورة": 6944,
      "اليًا": 6945,
      "63": 6946,
      "▁عكا": 6947,
      "راط": 6948,
      "ائن": 6949,
      "▁الكن": 6950,
      "▁ثال": 6951,
      "▁وعلي": 6952,
      "▁\"م": 6953,
      "▁القضية": 6954,
      "▁الزراعية": 6955,
      "قة،": 6956,
      "▁فد": 6957,
      "وعي": 6958,
      "▁القانونية": 6959,
      "▁فرعون": 6960,
      "▁عرش": 6961,
      "▁وأصبحت": 6962,
      "▁الغز": 6963,
      "ردد": 6964,
      "▁آخرين": 6965,
      "▁أحكام": 6966,
      "ايد": 6967,
      "شن": 6968,
      "▁المض": 6969,
      "يا.": 6970,
      "▁أولى": 6971,
      "عبير": 6972,
      "▁90": 6973,
      "وة،": 6974,
      "▁تبع": 6975,
      "▁مجالات": 6976,
      "▁(الأ": 6977,
      "▁أخي": 6978,
      "▁والعشر": 6979,
      "▁التدريس": 6980,
      "▁الحضارة": 6981,
      "ثبت": 6982,
      "▁فلسط": 6983,
      "▁المواقع": 6984,
      "▁المذك": 6985,
      "▁النحو": 6986,
      "وس.": 6987,
      "▁الصد": 6988,
      "▁الصوت": 6989,
      "▁الشرف": 6990,
      "▁عمره": 6991,
      "▁أقسام": 6992,
      "َح": 6993,
      "واحي": 6994,
      "▁الأمين": 6995,
      "▁عهده": 6996,
      "▁مهندس": 6997,
      ".\nب": 6998,
      "غبة": 6999,
      "▁مان": 7000,
      "ريان": 7001,
      "▁روس": 7002,
      "لقاء": 7003,
      "▁ريت": 7004,
      "▁كف": 7005,
      "▁الحمل": 7006,
      "▁طرق": 7007,
      "▁بلدة": 7008,
      "▁تطور": 7009,
      "▁بإنشاء": 7010,
      "▁منز": 7011,
      "ولون": 7012,
      "▁مصر.\n##": 7013,
      "▁ثمانية": 7014,
      "خطوطة": 7015,
      "قلاب": 7016,
      "وطن": 7017,
      "▁قطعة": 7018,
      "▁تطبيق": 7019,
      "▁الصباح": 7020,
      "ad": 7021,
      "em": 7022,
      "▁توجه": 7023,
      "هاجمة": 7024,
      "وسة": 7025,
      "سيد": 7026,
      "▁الهدف": 7027,
      "▁موجود": 7028,
      "▁والمر": 7029,
      "▁قوله": 7030,
      "▁وجن": 7031,
      "▁المهنية": 7032,
      ".\nأما": 7033,
      "▁الإنترنت": 7034,
      "▁لقي": 7035,
      "▁دعا": 7036,
      "▁الدير": 7037,
      "اليف": 7038,
      "▁اعتبر": 7039,
      "َال": 7040,
      "ابدين": 7041,
      "درجة": 7042,
      "▁تسجيل": 7043,
      "▁المناصب": 7044,
      "▁مليار": 7045,
      "▁ملكة": 7046,
      "▁مراكز": 7047,
      "▁حتي": 7048,
      "نافس": 7049,
      "▁مرور": 7050,
      "▁النشاط": 7051,
      "66": 7052,
      "▁مول": 7053,
      "▁عاصم": 7054,
      "▁غريب": 7055,
      "رادات": 7056,
      "▁الميلاد.": 7057,
      "▁سفيان": 7058,
      "ّي": 7059,
      "▁اللاح": 7060,
      "▁المرابط": 7061,
      "▁الساح": 7062,
      "▁دائم": 7063,
      "▁له:": 7064,
      "▁ومعه": 7065,
      "▁سنوات،": 7066,
      "▁O": 7067,
      "ماة": 7068,
      "بداع": 7069,
      "▁والمح": 7070,
      "▁مدارس": 7071,
      "▁45": 7072,
      "▁هاجم": 7073,
      "▁الإداري": 7074,
      "▁السيرة": 7075,
      "▁للتح": 7076,
      "▁أبطال": 7077,
      "اقية": 7078,
      "▁تحالف": 7079,
      "▁ويمكن": 7080,
      "غلب": 7081,
      "▁ليل": 7082,
      "▁إر": 7083,
      "▁اكتشف": 7084,
      "▁الإقليم": 7085,
      "\nبلغ": 7086,
      "ساد": 7087,
      "▁|": 7088,
      "▁التخطيط": 7089,
      "وقال": 7090,
      "▁المؤسسات": 7091,
      "▁الأت": 7092,
      "▁تميم": 7093,
      "سماعيل": 7094,
      "▁أمل": 7095,
      "▁منظ": 7096,
      "▁إما": 7097,
      "▁الصيف": 7098,
      "▁الفلسطينيين": 7099,
      "\n(": 7100,
      "ّت": 7101,
      "▁الرائ": 7102,
      "▁المقت": 7103,
      "▁لغة": 7104,
      "▁هج": 7105,
      "▁السير": 7106,
      "▁المنوفية": 7107,
      "▁رعاية": 7108,
      "▁تحدث": 7109,
      "▁المباراة": 7110,
      "ناية": 7111,
      "وجة": 7112,
      "▁وجدت": 7113,
      "▁البلدان": 7114,
      "▁واضح": 7115,
      "▁وائل": 7116,
      "▁أعلام": 7117,
      "▁الصادر": 7118,
      "▁انتهاء": 7119,
      "بحر": 7120,
      "▁فه": 7121,
      "لاثة": 7122,
      "▁السعودي": 7123,
      "يمون": 7124,
      "▁عمان": 7125,
      "▁اتجاه": 7126,
      "ولوجية": 7127,
      "▁سويف": 7128,
      "وكل": 7129,
      "▁مدرس": 7130,
      "▁إغ": 7131,
      "▁الكاثولي": 7132,
      "▁الخض": 7133,
      "▁الديني": 7134,
      "برية": 7135,
      "▁الاخ": 7136,
      "هيئة": 7137,
      "غرب": 7138,
      "▁فاض": 7139,
      "▁يكتب": 7140,
      "وي\n-": 7141,
      "سيق": 7142,
      "رمين": 7143,
      "▁القدماء": 7144,
      "▁الثقاف": 7145,
      "▁..": 7146,
      "▁دسوق": 7147,
      "▁المتأ": 7148,
      "أليف": 7149,
      "▁كس": 7150,
      "▁الخب": 7151,
      "▁مسار": 7152,
      "▁مساح": 7153,
      "▁وكالة": 7154,
      "▁أعمالها": 7155,
      "جاجات": 7156,
      "كَ": 7157,
      "▁لإن": 7158,
      "▁شاكر": 7159,
      "▁ذوي": 7160,
      "▁القاهرة.": 7161,
      "▁للحصول": 7162,
      "▁غرنا": 7163,
      "▁الطائرة": 7164,
      "عمدة": 7165,
      "▁ونشر": 7166,
      "حوث": 7167,
      "▁فأرسل": 7168,
      "▁كتبه": 7169,
      "▁الفرسان": 7170,
      "▁القت": 7171,
      "اني:": 7172,
      "▁وعلم": 7173,
      "عمار": 7174,
      "▁المستشار": 7175,
      "▁الجندي": 7176,
      "▁الصناعية": 7177,
      "4-": 7178,
      "كاف": 7179,
      "ادثة": 7180,
      "خرجه": 7181,
      "▁بعضهم": 7182,
      ".D": 7183,
      "شفيات": 7184,
      "▁بذ": 7185,
      "▁العنف": 7186,
      "▁الحف": 7187,
      "▁طائرة": 7188,
      "عن": 7189,
      "▁كشف": 7190,
      "▁الأنا": 7191,
      "▁صاح": 7192,
      "▁ثي": 7193,
      "▁الطريقة": 7194,
      "▁وقتها": 7195,
      "▁اثنين": 7196,
      "▁أست": 7197,
      "▁المخطوطات": 7198,
      "▁سيناريو": 7199,
      "كاني": 7200,
      "▁زغل": 7201,
      "▁وجاء": 7202,
      "ازل": 7203,
      "▁والعمل": 7204,
      "▁الأشرف": 7205,
      "▁السنية": 7206,
      "▁رام": 7207,
      "▁بنسبة": 7208,
      "▁خش": 7209,
      "▁حساب": 7210,
      "فعية": 7211,
      "▁صفحة": 7212,
      "▁قرطبة": 7213,
      "▁الرحيم": 7214,
      "47": 7215,
      "جأ": 7216,
      "حسن": 7217,
      "▁بض": 7218,
      "▁العذ": 7219,
      "علامي": 7220,
      "▁إنها": 7221,
      "شارد": 7222,
      "▁وكيل": 7223,
      "▁المدخل": 7224,
      "▁للجيش": 7225,
      "▁أمنحتب": 7226,
      "تش": 7227,
      "طور": 7228,
      "ّف": 7229,
      "▁المطل": 7230,
      "▁إسرائيلي": 7231,
      "▁بالقاهرة،": 7232,
      "كشاف": 7233,
      "▁تضمن": 7234,
      "▁رك": 7235,
      "اهز": 7236,
      "▁«ج": 7237,
      "وضة": 7238,
      "صابات": 7239,
      "ُس": 7240,
      "▁عاطف": 7241,
      "▁البتر": 7242,
      "▁النخ": 7243,
      "ويورك": 7244,
      "كتشاف": 7245,
      "▁سيتي": 7246,
      "▁التصوير:": 7247,
      "▁الوثائق": 7248,
      "دريب": 7249,
      "▁بمح": 7250,
      "قبض": 7251,
      "▁ودفن": 7252,
      ".\nوأ": 7253,
      "▁قلاو": 7254,
      "▁1957": 7255,
      "▁جاءت": 7256,
      "▁الأجنبية": 7257,
      "/19": 7258,
      "▁التخصص": 7259,
      "ربين": 7260,
      "▁قدمت": 7261,
      "▁المواط": 7262,
      "▁f": 7263,
      "▁مين": 7264,
      "▁مرق": 7265,
      "▁المقر": 7266,
      "▁لذا": 7267,
      "▁القضايا": 7268,
      "▁بنى": 7269,
      "▁الدبلوم": 7270,
      "▁ثان": 7271,
      "▁ابنته": 7272,
      "▁الإسلام،": 7273,
      "▁الشعبي": 7274,
      "يسار|": 7275,
      "▁المنيا": 7276,
      "▁بعمل": 7277,
      "▁1963": 7278,
      "▁الشرعية": 7279,
      "قوس": 7280,
      "غان": 7281,
      "▁القلي": 7282,
      "▁النم": 7283,
      "▁التحالف": 7284,
      "▁قالب": 7285,
      "▁جذ": 7286,
      "وده": 7287,
      "اليب": 7288,
      "▁الغذ": 7289,
      "▁انتشار": 7290,
      "▁؛": 7291,
      "▁عالية": 7292,
      "▁جال": 7293,
      "▁ثانية": 7294,
      "▁تعزيز": 7295,
      "▁مدحت": 7296,
      "▁مونتاج:": 7297,
      "كى": 7298,
      "▁المذ": 7299,
      "▁الأسط": 7300,
      "▁التخ": 7301,
      "▁البرب": 7302,
      "بدأت": 7303,
      "▁مسرحي": 7304,
      "▁180": 7305,
      "▁المؤرخين": 7306,
      "ation": 7307,
      "▁حاتم": 7308,
      "▁قاسم": 7309,
      "▁العج": 7310,
      "▁دفاع": 7311,
      "▁غادر": 7312,
      "▁بينه": 7313,
      "▁(الق": 7314,
      "▁1966": 7315,
      "▁فقط،": 7316,
      "▁وأقام": 7317,
      "▁المسرحي": 7318,
      "▁سبق": 7319,
      "▁1961": 7320,
      "▁القصص": 7321,
      "gyp": 7322,
      "71": 7323,
      "ج،": 7324,
      "خار": 7325,
      "▁جوائز": 7326,
      "▁الجوي": 7327,
      "81": 7328,
      "▁أطفال": 7329,
      "▁الجر": 7330,
      "▁والأدب": 7331,
      "▁1972": 7332,
      "▁الخرطوم": 7333,
      "▁الريح": 7334,
      "▁تض": 7335,
      "▁العين": 7336,
      "▁نتائج": 7337,
      "هولة": 7338,
      "▁وُ": 7339,
      "▁يقال": 7340,
      "▁نخ": 7341,
      "لقات": 7342,
      "▁الفلسفة": 7343,
      "▁برق": 7344,
      "▁تلقى": 7345,
      "▁القوانين": 7346,
      "▁صعيد": 7347,
      "▁الصهي": 7348,
      "▁جيشه": 7349,
      "▁النصف": 7350,
      "▁القرط": 7351,
      "▁النحاس": 7352,
      "را،": 7353,
      "ديس": 7354,
      "▁(20": 7355,
      "▁الجنا": 7356,
      "مرت": 7357,
      "▁الخل": 7358,
      "▁قالت": 7359,
      "▁أماكن": 7360,
      "▁الإرهاب": 7361,
      "▁الممر": 7362,
      "▁حاج": 7363,
      "ديان": 7364,
      "▁النوع": 7365,
      "▁تنمية": 7366,
      "▁حمزة": 7367,
      "▁(18": 7368,
      "▁وخلال": 7369,
      "طلاع": 7370,
      "▁الموقف": 7371,
      "▁السفينة": 7372,
      "▁وسب": 7373,
      "▁ووصل": 7374,
      "▁حوار": 7375,
      "اليات": 7376,
      "▁رسائل": 7377,
      "زايد": 7378,
      "رابلس": 7379,
      "▁وحم": 7380,
      "▁معسكر": 7381,
      "▁النور": 7382,
      "قيات": 7383,
      "▁أمه": 7384,
      "▁يحب": 7385,
      "▁باقي": 7386,
      "علي": 7387,
      "▁يبدأ": 7388,
      "ونا": 7389,
      "وائف": 7390,
      "▁قيصر": 7391,
      "ايات": 7392,
      "طيف": 7393,
      ".\nومن": 7394,
      "▁الإست": 7395,
      "▁وأب": 7396,
      "▁«ش": 7397,
      "▁«ف": 7398,
      "▁لنفس": 7399,
      "▁التاسعة": 7400,
      "انيت": 7401,
      "▁الهول": 7402,
      "كي،": 7403,
      "▁الوحيدة": 7404,
      "طا": 7405,
      "▁مقدم": 7406,
      "▁لها،": 7407,
      "▁كعب": 7408,
      "لمانية": 7409,
      "كنيسة": 7410,
      "▁تقول": 7411,
      "▁الأعضاء": 7412,
      "8.": 7413,
      "عه": 7414,
      "نة،": 7415,
      "▁منه،": 7416,
      "ادن": 7417,
      "ومياء": 7418,
      "فيه": 7419,
      "وانب": 7420,
      "▁الإسلامي،": 7421,
      "▁وكتاب": 7422,
      "▁حرف": 7423,
      "▁شل": 7424,
      "▁الحقيقي": 7425,
      "نا،": 7426,
      "▁مسا": 7427,
      "▁حقق": 7428,
      "▁السبب": 7429,
      "امرة": 7430,
      "▁حقيقة": 7431,
      "▁قريش": 7432,
      "▁سافر": 7433,
      "▁نار": 7434,
      "▁وأسر": 7435,
      "نيين": 7436,
      "▁المؤسسة": 7437,
      "▁(10": 7438,
      "▁الشام،": 7439,
      "▁الموسم": 7440,
      "▁تأليف:": 7441,
      "▁أنطوني": 7442,
      "▁أسباب": 7443,
      "▁الأولي": 7444,
      "علماء": 7445,
      "▁المكتبة": 7446,
      "▁القيمة": 7447,
      "▁وإنما": 7448,
      "▁عرفت": 7449,
      "▁فلسطيني": 7450,
      "▁إيمان": 7451,
      "▁سفن": 7452,
      "▁مساء": 7453,
      "▁متأ": 7454,
      "▁أصيب": 7455,
      "سلطان": 7456,
      "▁بأسماء": 7457,
      "جنب": 7458,
      "▁وحدات": 7459,
      ".\nف": 7460,
      "▁ويش": 7461,
      "▁فرصة": 7462,
      "▁ساحل": 7463,
      "▁دقيقة": 7464,
      "وقات": 7465,
      "▁المحافظ": 7466,
      "▁المشاة": 7467,
      "▁موضع": 7468,
      "▁بون": 7469,
      "▁دب": 7470,
      "▁البكال": 7471,
      "صلت": 7472,
      "▁المجيد": 7473,
      "▁الشهيرة": 7474,
      "طة،": 7475,
      "▁تلفزي": 7476,
      "ماهير": 7477,
      "▁هرب": 7478,
      "▁الجاه": 7479,
      "▁متعددة": 7480,
      "59": 7481,
      "▁تخصص": 7482,
      "▁صلى": 7483,
      "▁300": 7484,
      "نساء": 7485,
      "▁المدير": 7486,
      "▁خطوط": 7487,
      "▁بقية": 7488,
      "▁قبرص": 7489,
      "▁رضوان": 7490,
      "61": 7491,
      "▁المسل": 7492,
      "▁الأهلية": 7493,
      "▁شيوخ": 7494,
      "▁الطيب": 7495,
      "وهو": 7496,
      "▁الأكاديمية": 7497,
      "▁اج": 7498,
      "▁أ.": 7499,
      "▁أسلوب": 7500,
      "▁كلها": 7501,
      "اوي\n-": 7502,
      "▁سميرة": 7503,
      "ألف": 7504,
      "عامل": 7505,
      "يقي": 7506,
      "الج": 7507,
      "▁فكر": 7508,
      "▁الموحد": 7509,
      "يمين": 7510,
      "▁بتن": 7511,
      "▁رمز": 7512,
      "▁غالبًا": 7513,
      "▁البشرية": 7514,
      "ُد": 7515,
      "▁كب": 7516,
      "▁سوري": 7517,
      "▁هل": 7518,
      "▁(ل": 7519,
      "▁وتخرج": 7520,
      "▁بطريقة": 7521,
      "▁أفندي": 7522,
      "▁(مصر": 7523,
      "نائي": 7524,
      "▁المبنى": 7525,
      "▁اللاعب": 7526,
      "▁الطبيعية": 7527,
      "جاوز": 7528,
      "فاءة": 7529,
      "▁أمريكا": 7530,
      "6-": 7531,
      "وحي": 7532,
      "▁بدمشق": 7533,
      "▁الجل": 7534,
      "▁الجامعي": 7535,
      "▁تحويل": 7536,
      "▁يتكون": 7537,
      "▁واخت": 7538,
      "▁احتلال": 7539,
      "َنْ": 7540,
      "▁الحلقة": 7541,
      "▁اتفاقية": 7542,
      "▁حضر": 7543,
      "▁انف": 7544,
      "▁كبيرًا": 7545,
      "▁لتحقيق": 7546,
      "▁صاروخ": 7547,
      "سطنطين": 7548,
      "43": 7549,
      "طوير": 7550,
      "▁سورة": 7551,
      "اسبات": 7552,
      "وا،": 7553,
      "▁أنصار": 7554,
      "▁1919": 7555,
      "▁الرأس": 7556,
      "▁المعارك": 7557,
      "وتر": 7558,
      "▁الفتاة": 7559,
      "▁التشري": 7560,
      "ur": 7561,
      "▁بز": 7562,
      "▁إصلاح": 7563,
      "▁يصبح": 7564,
      "▁والله": 7565,
      "ويين": 7566,
      "▁بهاء": 7567,
      "▁يُعرف": 7568,
      "▁مكاف": 7569,
      "▁الأصغر": 7570,
      "▁السعيد": 7571,
      "▁النسخة": 7572,
      "صحاب": 7573,
      "▁كو": 7574,
      "▁حجم": 7575,
      "بيين": 7576,
      "▁الصوم": 7577,
      "خصوص": 7578,
      "▁قاعة": 7579,
      "▁سيرة": 7580,
      "▁الرئ": 7581,
      "▁أساسي": 7582,
      "▁نقوش": 7583,
      "▁المبكرة": 7584,
      "ع،": 7585,
      "▁فيصل": 7586,
      "وسية": 7587,
      "▁ويعتبر": 7588,
      "▁الاستقلال": 7589,
      "▁1959": 7590,
      "▁(عبد": 7591,
      "▁المثال،": 7592,
      "▁و19": 7593,
      "ارقة": 7594,
      "▁الأوقاف": 7595,
      "▁وأحد": 7596,
      "▁الأميرة": 7597,
      "▁الخطيب": 7598,
      "▁مائة": 7599,
      "خال": 7600,
      "كك": 7601,
      "▁(ي": 7602,
      "▁النبات": 7603,
      "▁الكلام": 7604,
      "▁«من": 7605,
      "▁المنطق": 7606,
      "والى": 7607,
      "▁الابن": 7608,
      "▁جهود": 7609,
      "جهيز": 7610,
      "▁نفسه،": 7611,
      "▁القديمة.": 7612,
      "▁الأحيان": 7613,
      "▁الجيوش": 7614,
      "لمية": 7615,
      "▁المعارف": 7616,
      "وائي": 7617,
      "▁الأوروبية": 7618,
      "فات": 7619,
      "▁معاهدة": 7620,
      "رفت": 7621,
      "▁مجرد": 7622,
      "▁السودانية": 7623,
      "▁نظرية": 7624,
      "▁تذكر": 7625,
      "▁يتح": 7626,
      "▁حنان": 7627,
      "▁مراحل": 7628,
      "كاية": 7629,
      "ى.": 7630,
      "ُب": 7631,
      "▁البصرة": 7632,
      "▁الشاذ": 7633,
      "▁الثانية،": 7634,
      "▁المسح": 7635,
      "رشاد": 7636,
      "▁للدراسات": 7637,
      "سات": 7638,
      "ُت": 7639,
      "▁الموجود": 7640,
      "▁الموصل": 7641,
      "ولين": 7642,
      "▁طن": 7643,
      "صام": 7644,
      "َج": 7645,
      "▁يتبع": 7646,
      "▁الشيوخ": 7647,
      "▁تصدر": 7648,
      "▁روايات": 7649,
      "\n\nأبو": 7650,
      "▁الألمانية": 7651,
      "▁زغلول": 7652,
      "5-": 7653,
      "▁ظروف": 7654,
      "بيان": 7655,
      "▁وإذا": 7656,
      "▁أخرى.": 7657,
      "▁ذكره": 7658,
      "▁بمنطقة": 7659,
      "▁ماري": 7660,
      "▁بجمهورية": 7661,
      "▁فما": 7662,
      "▁شرع": 7663,
      "▁معا": 7664,
      "رائم": 7665,
      "اديث": 7666,
      "▁إمارة": 7667,
      "شاب": 7668,
      "▁c": 7669,
      "▁أمراء": 7670,
      "▁يقرب": 7671,
      "▁أحلام": 7672,
      "▁نموذج": 7673,
      "▁الإيطالي": 7674,
      "ؤها": 7675,
      "عوة": 7676,
      "▁يخرج": 7677,
      "▁ضيف": 7678,
      "▁كلث": 7679,
      "▁الجميلة": 7680,
      "7-": 7681,
      "▁الأط": 7682,
      "وازن": 7683,
      "▁الشناوي": 7684,
      "▁الزوجة": 7685,
      "id": 7686,
      "اوز": 7687,
      "ماذ": 7688,
      "▁أداء": 7689,
      "▁السكان\nبلغ": 7690,
      "▁نشرت": 7691,
      "▁بصورة": 7692,
      "\nس": 7693,
      "اقي": 7694,
      "▁باك": 7695,
      "فقه": 7696,
      "▁يدفع": 7697,
      "▁المصدر": 7698,
      "ياً،": 7699,
      "▁أهلها": 7700,
      "▁أسبوع": 7701,
      "▁الموارد": 7702,
      "يلات": 7703,
      "▁معارك": 7704,
      "▁ضباط": 7705,
      "▁للمح": 7706,
      "▁سلوى": 7707,
      "▁و\"": 7708,
      "ية)": 7709,
      "▁الداخلي": 7710,
      "▁الأساسي": 7711,
      "▁شرطة": 7712,
      "ثورة": 7713,
      "ناد": 7714,
      "▁كرم": 7715,
      "▁جماع": 7716,
      "▁الفلك": 7717,
      "تحق": 7718,
      "▁جزءًا": 7719,
      "▁البيزنطية": 7720,
      "نامج": 7721,
      "▁,": 7722,
      "▁U": 7723,
      "ين.\n-": 7724,
      "▁سطح": 7725,
      ".\nح": 7726,
      "▁صع": 7727,
      "▁طرد": 7728,
      "▁وبقي": 7729,
      "▁برئاسة": 7730,
      "ers": 7731,
      "▁لبن": 7732,
      "▁الروايات": 7733,
      "▁المليجي": 7734,
      "\n19": 7735,
      "▁حتب": 7736,
      "ونها": 7737,
      "▁بالز": 7738,
      "▁وأبي": 7739,
      "▁الطالب": 7740,
      "▁وقر": 7741,
      "▁والمست": 7742,
      "▁الزراعي": 7743,
      "▁سيدي": 7744,
      "▁أثار": 7745,
      "نائية": 7746,
      "▁اللازمة": 7747,
      "▁درويش": 7748,
      "ناطق": 7749,
      "▁اللطيف": 7750,
      "▁بطرس": 7751,
      "حفظ": 7752,
      "th": 7753,
      "▁الخادم": 7754,
      "▁وعين": 7755,
      "▁الهجرة": 7756,
      "راجعة": 7757,
      "▁عموم": 7758,
      "▁السياحة": 7759,
      "لاحظات": 7760,
      "نش": 7761,
      "▁ممر": 7762,
      "ري.": 7763,
      "حملة": 7764,
      "▁الجمع": 7765,
      "وسيقى": 7766,
      "▁الهير": 7767,
      "أسرة": 7768,
      "▁للمرة": 7769,
      "▁الأسر": 7770,
      "حوالي": 7771,
      "83": 7772,
      "um": 7773,
      "خور": 7774,
      "▁أتباع": 7775,
      "▁زهرة": 7776,
      "نيع": 7777,
      "▁أمريكي": 7778,
      "▁العام،": 7779,
      "▁1962": 7780,
      "▁قصائد": 7781,
      "▁جمعة": 7782,
      "72": 7783,
      "▁العلام": 7784,
      "▁السوفي": 7785,
      "▁خب": 7786,
      "اطع": 7787,
      "شيخ": 7788,
      "▁تناول": 7789,
      "▁سراح": 7790,
      "▁الكب": 7791,
      "▁معروفة": 7792,
      "بين": 7793,
      "ضور": 7794,
      "▁المقاومة": 7795,
      "▁الإحص": 7796,
      "▁أكاديمية": 7797,
      "▁جنب": 7798,
      "▁علمية": 7799,
      "▁اشتهر": 7800,
      "تق": 7801,
      "ريبي": 7802,
      "لة\n-": 7803,
      "▁الطويل": 7804,
      "▁ذلك.": 7805,
      "▁الملك،": 7806,
      "يطان": 7807,
      "▁بانت": 7808,
      "▁عس": 7809,
      "▁المهمة": 7810,
      ".\nل": 7811,
      "▁يدخل": 7812,
      "▁شعبة": 7813,
      "▁المزيد": 7814,
      "صط": 7815,
      "الأ": 7816,
      "▁منا": 7817,
      "▁منها،": 7818,
      "َّام": 7819,
      "▁عشرين": 7820,
      "▁للأطفال": 7821,
      "▁بكال": 7822,
      "فاوضات": 7823,
      "عون": 7824,
      "▁مبلغ": 7825,
      "▁حظ": 7826,
      "▁راتب": 7827,
      "▁وكانوا": 7828,
      "▁وقبل": 7829,
      "▁مصطلح": 7830,
      "▁الأدبي": 7831,
      "▁أقصى": 7832,
      "▁النيابة": 7833,
      "▁يذهب": 7834,
      "▁العناصر": 7835,
      "▁جه": 7836,
      "▁وهما": 7837,
      "اسمين": 7838,
      "▁بحسب": 7839,
      "نائه": 7840,
      "هـ/18": 7841,
      "▁الظروف": 7842,
      "▁مسل": 7843,
      "▁أزمة": 7844,
      "▁قاب": 7845,
      "▁نح": 7846,
      "▁ناهد": 7847,
      "▁الهجمات": 7848,
      "▁تشكل": 7849,
      "▁الدولة،": 7850,
      "▁150": 7851,
      "الجة": 7852,
      "▁فش": 7853,
      "▁شاهد": 7854,
      "▁ولقد": 7855,
      "▁مشاكل": 7856,
      "راً،": 7857,
      "58": 7858,
      ":م": 7859,
      "نوع": 7860,
      "▁تقل": 7861,
      "▁العلاج": 7862,
      "▁رست": 7863,
      "▁رامي": 7864,
      "▁بالص": 7865,
      "فيس": 7866,
      "قدمة": 7867,
      "▁مساعدة": 7868,
      "رسالة": 7869,
      "▁مقارنة": 7870,
      "▁ربيعة": 7871,
      "▁ويقول": 7872,
      "فذ": 7873,
      "▁للثقافة": 7874,
      "قيام": 7875,
      "▁استولى": 7876,
      "▁انتخاب": 7877,
      "▁تجارة": 7878,
      "ارتفاع": 7879,
      "ماذج": 7880,
      "طين": 7881,
      "▁المطب": 7882,
      "امن": 7883,
      "▁الحالية": 7884,
      "همية": 7885,
      "▁استقال": 7886,
      "شاركت": 7887,
      "▁والشيخ": 7888,
      "راكي": 7889,
      "ادين": 7890,
      "▁دراما": 7891,
      "▁بالب": 7892,
      "▁أسد": 7893,
      "▁الدين\n-": 7894,
      "▁تتكون": 7895,
      "▁الجنرال": 7896,
      "وثيق": 7897,
      "ضرار": 7898,
      "▁أهمها": 7899,
      "تو": 7900,
      "البة": 7901,
      "▁يقل": 7902,
      "▁يلت": 7903,
      "▁السلاح": 7904,
      "▁خاض": 7905,
      "في\n-": 7906,
      "وفير": 7907,
      "▁عودته": 7908,
      "41": 7909,
      "▁أحيان": 7910,
      "▁القبر": 7911,
      "▁معين": 7912,
      "▁طائرات": 7913,
      "▁العالم،": 7914,
      "▁والنشر": 7915,
      "▁ذكرت": 7916,
      "▁الأردنية": 7917,
      "▁أباظة": 7918,
      "سف": 7919,
      "▁ريم": 7920,
      "▁تابع": 7921,
      "قة.": 7922,
      "▁وبن": 7923,
      "نسا": 7924,
      "▁المجلة": 7925,
      "▁تدور": 7926,
      "▁اضط": 7927,
      "▁الكهرباء": 7928,
      "▁عائشة": 7929,
      "تخب": 7930,
      "▁الماض": 7931,
      "▁الترجمة": 7932,
      "▁شؤون": 7933,
      "▁البع": 7934,
      "▁المعرفة": 7935,
      "أنه": 7936,
      "▁الأدنى": 7937,
      "هيار": 7938,
      "▁مناصب": 7939,
      "م)،": 7940,
      "▁وخط": 7941,
      "حمس": 7942,
      "ياجات": 7943,
      "▁عامل": 7944,
      "▁الغناء": 7945,
      "▁مقالات": 7946,
      "▁ريتشارد": 7947,
      "\nوفي": 7948,
      "▁الريف": 7949,
      "▁مستقلة": 7950,
      "▁منصبه": 7951,
      "▁اللغات": 7952,
      "▁للفنون": 7953,
      "▁حجرة": 7954,
      "▁قوية": 7955,
      "▁هزم": 7956,
      "▁وتولى": 7957,
      "▁طراز": 7958,
      "▁وقوع": 7959,
      "▁شخصيات": 7960,
      "▁الشعراء": 7961,
      "ُلد": 7962,
      "▁شعره": 7963,
      "وراة": 7964,
      "تقد": 7965,
      "▁حفر": 7966,
      "▁السري": 7967,
      "▁للعلوم": 7968,
      "▁الجبهة": 7969,
      "▁الطف": 7970,
      "▁وفقا": 7971,
      "▁لتش": 7972,
      "صفه": 7973,
      "▁الضريبة": 7974,
      "▁500": 7975,
      "▁صديقه": 7976,
      "▁جوهر": 7977,
      "وّ": 7978,
      "▁القمر": 7979,
      "▁حدثت": 7980,
      "جراء": 7981,
      "▁وأكثر": 7982,
      "▁احمد": 7983,
      "▁أعقاب": 7984,
      "كايات": 7985,
      "▁رؤساء": 7986,
      "▁الاضط": 7987,
      "ريخ": 7988,
      "▁سيطرة": 7989,
      "▁1951": 7990,
      "▁تعليمه": 7991,
      "▁باعتباره": 7992,
      "َان": 7993,
      "▁خراس": 7994,
      "▁الفعل": 7995,
      "ستخدم": 7996,
      "ندسين": 7997,
      "▁للمؤ": 7998,
      "▁يمن": 7999,
      "▁درج": 8000,
      "▁وأد": 8001,
      "تمثيل": 8002,
      "َّت": 8003,
      "▁وقدم": 8004,
      "▁عباد": 8005,
      "▁الناحية": 8006,
      "▁اعتقال": 8007,
      "▁ببناء": 8008,
      "56": 8009,
      "تك": 8010,
      "▁V": 8011,
      "ينو": 8012,
      "راغ": 8013,
      "▁سود": 8014,
      "▁120": 8015,
      "▁الشهر": 8016,
      "▁«إن": 8017,
      "▁زار": 8018,
      "▁محمد،": 8019,
      "▁استقلال": 8020,
      "▁الأموية": 8021,
      "▁تقسيم": 8022,
      "▁وحي": 8023,
      "▁وخرج": 8024,
      "▁المرة": 8025,
      "▁تاج": 8026,
      "▁قراءة": 8027,
      "▁سهير": 8028,
      "ونات": 8029,
      "▁الإعلان": 8030,
      "▁المجاورة": 8031,
      "▁مثل:": 8032,
      "▁علاقات": 8033,
      "▁معينة": 8034,
      "▁المساعد": 8035,
      "▁عددًا": 8036,
      "▁تاريخية": 8037,
      "▁الممكن": 8038,
      "▁لقاء": 8039,
      "▁عضوًا": 8040,
      "▁قيد": 8041,
      "▁الدورة": 8042,
      "▁الخوار": 8043,
      "▁مصنع": 8044,
      "▁1936": 8045,
      "▁وقال:": 8046,
      "ئلة": 8047,
      "▁بركات": 8048,
      "▁فِي": 8049,
      "▁عج": 8050,
      "▁عطية": 8051,
      "▁أض": 8052,
      "▁الته": 8053,
      "فيذي": 8054,
      "قتال": 8055,
      "▁واقت": 8056,
      "▁1949": 8057,
      "▁يحصل": 8058,
      "▁اختلاف": 8059,
      "42": 8060,
      "▁.\n1.": 8061,
      "▁مذهب": 8062,
      "▁بصف": 8063,
      "▁الباش": 8064,
      "▁المساعدة": 8065,
      "▁الاش": 8066,
      "▁لان": 8067,
      "▁لات": 8068,
      "▁صابر": 8069,
      "وبري": 8070,
      "حتوي": 8071,
      "▁أدب": 8072,
      "▁الثالث،": 8073,
      "راكب": 8074,
      "▁كتبت": 8075,
      "▁البحرين": 8076,
      "▁تكوين": 8077,
      "▁المؤمنين": 8078,
      "▁الصغرى": 8079,
      "إضافة": 8080,
      "ابا": 8081,
      "▁أسقف": 8082,
      "▁أدوار": 8083,
      "▁والإسلام": 8084,
      "▁جدا": 8085,
      "▁الانتخاب": 8086,
      "▁وبدأت": 8087,
      "▁اغتيال": 8088,
      "مرة": 8089,
      "▁التقدم": 8090,
      "▁التقدير": 8091,
      "▁ند": 8092,
      "▁(3": 8093,
      "ائز": 8094,
      "▁غانم": 8095,
      "سباب": 8096,
      "▁ورغم": 8097,
      "▁ظلت": 8098,
      "▁الأسبق": 8099,
      "▁تزوجت": 8100,
      "▁دستور": 8101,
      "98": 8102,
      "رجم": 8103,
      "شرة": 8104,
      "لسي": 8105,
      "▁ترا": 8106,
      ".\nوع": 8107,
      "▁الكشف": 8108,
      "اشة": 8109,
      "▁العاملين": 8110,
      "نائب": 8111,
      "▁1945": 8112,
      "▁المفر": 8113,
      "ليدي": 8114,
      "▁الكتيبة": 8115,
      "▁الطبيب": 8116,
      "هداء": 8117,
      "▁الغالب": 8118,
      "▁بشدة": 8119,
      "▁ليصبح": 8120,
      "طبق": 8121,
      "▁النيل،": 8122,
      "▁اضطر": 8123,
      "▁وزوجته": 8124,
      "▁قائلاً": 8125,
      "ُه": 8126,
      "▁مدين": 8127,
      "▁ونا": 8128,
      "▁قيم": 8129,
      "▁جيوش": 8130,
      "▁وتج": 8131,
      "▁أوز": 8132,
      "▁سيارة": 8133,
      ")\n\nقرية": 8134,
      "سك": 8135,
      "وية.": 8136,
      "ُف": 8137,
      "يره": 8138,
      "▁الدلتا": 8139,
      "▁اللقب": 8140,
      "طفل": 8141,
      "▁1946": 8142,
      "▁حبي": 8143,
      "▁والأن": 8144,
      "كانية": 8145,
      "▁مصادر\n-": 8146,
      "▁الأنبا": 8147,
      "▁البلاد،": 8148,
      "▁البيئة": 8149,
      "ئك": 8150,
      "اسط": 8151,
      "▁البرية": 8152,
      "▁أوراق": 8153,
      "اطير": 8154,
      "▁والدته": 8155,
      "53": 8156,
      "ئب": 8157,
      "د.": 8158,
      "نوعة": 8159,
      "ّب": 8160,
      "اليم": 8161,
      "▁حاليًا": 8162,
      "▁نادر": 8163,
      "▁(6": 8164,
      "ويق": 8165,
      "ضمان": 8166,
      "▁واسم": 8167,
      "▁للإنتاج": 8168,
      "▁بالمس": 8169,
      "▁الفيل": 8170,
      "مرار": 8171,
      "▁أبواب": 8172,
      "شارات": 8173,
      "▁المتظاهرين": 8174,
      "▁بابل": 8175,
      "▁عزيزة": 8176,
      "▁أسطول": 8177,
      "وقعة": 8178,
      "▁عرضه": 8179,
      "▁بكالوريوس": 8180,
      "▁إسبانيا": 8181,
      "▁حديد": 8182,
      "▁سما": 8183,
      "▁الحادث": 8184,
      "▁الطعام": 8185,
      "▁وزراء": 8186,
      "▁العبيد": 8187,
      "▁لحقوق": 8188,
      "▁وقامت": 8189,
      "▁ماجد": 8190,
      "▁هارون": 8191,
      "▁أرد": 8192,
      "▁سيدة": 8193,
      "اسل": 8194,
      "▁الحرف": 8195,
      "▁يملك": 8196,
      "▁حمص": 8197,
      "▁المباني": 8198,
      "▁الجدار": 8199,
      "ائعة": 8200,
      "▁الوص": 8201,
      "وكب": 8202,
      "▁ويقع": 8203,
      "▁كلثوم": 8204,
      "خارف": 8205,
      "▁بيد": 8206,
      "▁هجمات": 8207,
      "▁ده": 8208,
      "▁وأُ": 8209,
      "▁1947": 8210,
      "▁بطولة\n-": 8211,
      "▁بالعمل": 8212,
      "▁لديهم": 8213,
      "▁شهدت": 8214,
      "▁السيسي": 8215,
      "▁عشر.": 8216,
      "▁نيويورك": 8217,
      "▁علاق": 8218,
      "▁حروب": 8219,
      "▁والجن": 8220,
      "ماج": 8221,
      "▁نزل": 8222,
      "▁غناء": 8223,
      "زيق": 8224,
      "َّن": 8225,
      "▁ورق": 8226,
      "▁جبال": 8227,
      "▁لمجلس": 8228,
      "▁الطوب": 8229,
      "▁القصيرة": 8230,
      "▁صحيح": 8231,
      "▁خروج": 8232,
      "▁المواطنين": 8233,
      "ter": 8234,
      "غد": 8235,
      "ريست": 8236,
      "ابين": 8237,
      "▁الجليل": 8238,
      "منة": 8239,
      "▁1228": 8240,
      "▁كاف": 8241,
      "▁الأصول": 8242,
      "▁بحوث": 8243,
      "▁يدل": 8244,
      "▁هاجر": 8245,
      "57": 8246,
      "▁يرفض": 8247,
      "رابة": 8248,
      "▁قوي": 8249,
      "حلول": 8250,
      "▁ملابس": 8251,
      "▁الألماني": 8252,
      "اوى": 8253,
      "تائج": 8254,
      "▁ميس": 8255,
      "▁رتبة": 8256,
      "▁استقر": 8257,
      "▁مؤرخ": 8258,
      "▁باشا،": 8259,
      "▁زيارة": 8260,
      "▁تقريبًا": 8261,
      "جاء": 8262,
      "▁b": 8263,
      "▁فإذا": 8264,
      "▁المحي": 8265,
      "▁خطط": 8266,
      "▁رأسه": 8267,
      "▁الحديث،": 8268,
      "▁انتهى": 8269,
      "لبة": 8270,
      "▁اح": 8271,
      "▁عَل": 8272,
      "▁فيهم": 8273,
      "▁تهدف": 8274,
      "ريفة": 8275,
      "▁حلم": 8276,
      "▁سري": 8277,
      "▁صلاة": 8278,
      "فرغ": 8279,
      "▁*م": 8280,
      "▁قصير": 8281,
      "▁لرئيس": 8282,
      "\nق": 8283,
      "▁مذكر": 8284,
      "▁فري": 8285,
      "ور\n-": 8286,
      "▁للسي": 8287,
      "فرق": 8288,
      "▁أميرة": 8289,
      "بعاد": 8290,
      "▁عبيدة": 8291,
      "▁أنفسهم": 8292,
      "رغم": 8293,
      "▁ببعض": 8294,
      "▁رق": 8295,
      "سلطة": 8296,
      "▁طائفة": 8297,
      "سيطر": 8298,
      "َّه": 8299,
      "▁المعارضة": 8300,
      "▁الأقصى": 8301,
      "ia": 8302,
      "بكة": 8303,
      "▁الاهتمام": 8304,
      "▁أمي": 8305,
      "▁كله": 8306,
      "▁جودة": 8307,
      "▁الكوم": 8308,
      "▁«ق": 8309,
      "وائد": 8310,
      "▁إسرائيلية": 8311,
      "▁لديها": 8312,
      "▁اللبنانية": 8313,
      "دريس": 8314,
      "كول": 8315,
      "▁تو": 8316,
      "▁تبدأ": 8317,
      "▁للأم": 8318,
      "▁الأنص": 8319,
      "▁يجمع": 8320,
      "▁مقاومة": 8321,
      "▁المالي": 8322,
      "ماك": 8323,
      "سور": 8324,
      "غو": 8325,
      "فون": 8326,
      "▁وصار": 8327,
      "▁عسكر": 8328,
      "▁الكوفة": 8329,
      "▁بعدم": 8330,
      "▁المساجد": 8331,
      "▁الياب": 8332,
      "▁الاقت": 8333,
      "▁أحسن": 8334,
      "▁إسرائيل،": 8335,
      "▁فرسان": 8336,
      "▁مظهر": 8337,
      "▁منس": 8338,
      "▁توقف": 8339,
      "▁سلالة": 8340,
      "▁لمدينة": 8341,
      "▁إنجاز": 8342,
      "بعث": 8343,
      "▁مستقل": 8344,
      "▁بجيش": 8345,
      "▁التون": 8346,
      "▁بالإسكندرية": 8347,
      "▁وبعدها": 8348,
      "▁يأخذ": 8349,
      "المة": 8350,
      "▁المشر": 8351,
      "▁الآش": 8352,
      "▁مؤقت": 8353,
      "▁السفلى": 8354,
      "▁كونت": 8355,
      "▁الفنانة": 8356,
      "خيص": 8357,
      "▁صحفي": 8358,
      "▁الاشت": 8359,
      "▁برن": 8360,
      "▁عكس": 8361,
      "لا،": 8362,
      "واه": 8363,
      "وعات": 8364,
      "تحفة": 8365,
      "▁ولعب": 8366,
      "▁المحاكم": 8367,
      "▁(محمد": 8368,
      "▁ابت": 8369,
      "▁إنتاجه": 8370,
      "▁نفوذ": 8371,
      "▁نظرًا": 8372,
      "غني": 8373,
      "كشف": 8374,
      "▁شوق": 8375,
      "▁2011،": 8376,
      "▁إنجيل": 8377,
      "▁وسيناريو": 8378,
      "▁السلطنة": 8379,
      "▁الشرعي": 8380,
      "▁فروع": 8381,
      "te": 8382,
      "▁l": 8383,
      "▁بردية": 8384,
      "▁إض": 8385,
      "▁العقد": 8386,
      "▁العقل": 8387,
      "▁صي": 8388,
      "▁زهير": 8389,
      "▁الضابط": 8390,
      "▁تاريخها": 8391,
      "▁بالتعاون": 8392,
      "▁بويب\n": 8393,
      "▁الفاطمية": 8394,
      "▁مرقس": 8395,
      "واش": 8396,
      "▁الكنائس": 8397,
      "▁بارز": 8398,
      "وافقة": 8399,
      "▁الديمقراطية": 8400,
      "▁الاد": 8401,
      "▁بوش": 8402,
      "▁المحم": 8403,
      "▁الجغرافي": 8404,
      "▁زاد": 8405,
      "كرر": 8406,
      "▁لتكون": 8407,
      "▁عضواً": 8408,
      "▁قاضي": 8409,
      "▁العصابة": 8410,
      "افلة": 8411,
      "▁الطائرات": 8412,
      "▁تعني": 8413,
      "▁أسفر": 8414,
      "فترض": 8415,
      "يعان": 8416,
      "طلاب": 8417,
      "▁وليد": 8418,
      "▁الأحكام": 8419,
      "▁مفهوم": 8420,
      "َهُ": 8421,
      "▁ساح": 8422,
      "▁ويوجد": 8423,
      "تي،": 8424,
      "▁المنورة": 8425,
      "تها.": 8426,
      "وزع": 8427,
      "ِّي": 8428,
      "براطور": 8429,
      "▁المحيطة": 8430,
      "▁وبلغ": 8431,
      "▁حلف": 8432,
      "▁سامية": 8433,
      "▁الشرب": 8434,
      "▁وتُ": 8435,
      "▁(أحمد": 8436,
      "▁الإسماعيلية": 8437,
      "وغليفية": 8438,
      "جبت": 8439,
      "▁الجهات": 8440,
      "وبيا": 8441,
      "▁غرف": 8442,
      "....": 8443,
      "ضمام": 8444,
      "▁عقبة": 8445,
      "▁باتجاه": 8446,
      "▁متنوعة": 8447,
      "▁مبر": 8448,
      "▁إز": 8449,
      "▁الشت": 8450,
      "▁الاتصالات": 8451,
      "▁وثلاث": 8452,
      "▁The": 8453,
      "▁الجنس": 8454,
      "وسطة": 8455,
      "▁طرابلس": 8456,
      "▁غن": 8457,
      "▁تعيش": 8458,
      "ادي،": 8459,
      "▁بحري": 8460,
      "▁الأخرى،": 8461,
      "ناتون": 8462,
      "▁عزل": 8463,
      "▁إيران": 8464,
      "ريطة": 8465,
      "ديا": 8466,
      "▁صفر": 8467,
      "▁مباشر": 8468,
      "▁الرياضية": 8469,
      "زر": 8470,
      "ضيع": 8471,
      "ارن": 8472,
      "▁يسمح": 8473,
      "▁حرية": 8474,
      "▁دنيا": 8475,
      "▁الشوارع": 8476,
      "▁محرم": 8477,
      "▁متولي": 8478,
      "▁الضح": 8479,
      "▁نسخ": 8480,
      "▁مطالب": 8481,
      "▁ويقوم": 8482,
      "▁حالات": 8483,
      ".\n:": 8484,
      "▁القائم": 8485,
      "▁(وال": 8486,
      "▁(مس": 8487,
      "▁الجهاز": 8488,
      "وابط": 8489,
      "▁سامح": 8490,
      "▁بسرعة": 8491,
      "ig": 8492,
      "ه:": 8493,
      "▁حادث": 8494,
      "▁التأمين": 8495,
      "▁القبة": 8496,
      "▁شم": 8497,
      "ائط": 8498,
      "▁مصر\n-": 8499,
      "▁الأردني": 8500,
      "8-": 8501,
      "ce": 8502,
      "لومات": 8503,
      "وحدة": 8504,
      "▁فخرج": 8505,
      "▁كُ": 8506,
      "▁جرج": 8507,
      "▁الحن": 8508,
      "▁البنا": 8509,
      "▁خليج": 8510,
      "▁صيف": 8511,
      "اشية": 8512,
      "▁بمدرسة": 8513,
      "▁سيطر": 8514,
      "▁وافق": 8515,
      "▁غرناطة": 8516,
      "▁فور": 8517,
      "▁عك": 8518,
      "▁الملح": 8519,
      "▁توقيع": 8520,
      "▁التل": 8521,
      "▁السعد": 8522,
      "▁شو": 8523,
      "▁الإع": 8524,
      "▁الجيعان": 8525,
      "▁ونادي": 8526,
      "وارئ": 8527,
      "رسوم": 8528,
      "▁للأمم": 8529,
      "▁الأنشطة": 8530,
      "▁إشارة": 8531,
      "▁نال": 8532,
      "▁هالة": 8533,
      "▁وبناء": 8534,
      "▁والعالم": 8535,
      "▁أقرب": 8536,
      "▁للغاية": 8537,
      "▁المجموعات": 8538,
      "ورها": 8539,
      "▁القس": 8540,
      "▁ويبدو": 8541,
      "▁ونقل": 8542,
      "▁عملت": 8543,
      "▁لجميع": 8544,
      "▁قلاوون": 8545,
      "راوح": 8546,
      "▁قشت": 8547,
      "▁(4": 8548,
      "ائيل": 8549,
      "▁علي،": 8550,
      "▁حسان": 8551,
      "▁ثروت": 8552,
      "طان": 8553,
      "▁السج": 8554,
      "حدر": 8555,
      "▁المنظمات": 8556,
      "▁عمار": 8557,
      "▁المهلب": 8558,
      "▁المجتمعات": 8559,
      "▁خسائر": 8560,
      "الع": 8561,
      "▁مشاركة": 8562,
      "▁وولد": 8563,
      "▁بخط": 8564,
      "راة": 8565,
      "▁قليلة": 8566,
      "▁الجنسية": 8567,
      "▁بالاشتراك": 8568,
      "▁الكرن": 8569,
      "▁ويعد": 8570,
      "وظفين": 8571,
      "▁بابا": 8572,
      "\nوقد": 8573,
      "أى": 8574,
      "▁تخص": 8575,
      "▁إير": 8576,
      "▁الألب": 8577,
      "▁للسينما": 8578,
      "▁الشارع": 8579,
      "▁الدفن": 8580,
      "▁زال": 8581,
      "▁بطل": 8582,
      "▁الصحابة": 8583,
      "▁نقابة": 8584,
      "▁جدًا": 8585,
      "▁المغول": 8586,
      "▁العدالة": 8587,
      "فير": 8588,
      "▁w": 8589,
      "▁قمر": 8590,
      "▁روى": 8591,
      "▁الخالق": 8592,
      "▁كتابات": 8593,
      "طبة": 8594,
      "عاء": 8595,
      "▁فيه،": 8596,
      ".\nم": 8597,
      "▁جدران": 8598,
      "▁البطل": 8599,
      "وب،": 8600,
      "▁استع": 8601,
      "▁أمية": 8602,
      "▁مدب": 8603,
      "▁السيارات": 8604,
      "▁شعبية": 8605,
      "▁غزة،": 8606,
      "▁البكالوريوس": 8607,
      "▁أعداد": 8608,
      "▁أديب": 8609,
      "▁الحالة": 8610,
      "ائية،": 8611,
      "هرم": 8612,
      "▁ضخمة": 8613,
      "▁مسابقة": 8614,
      "▁الهجري": 8615,
      "وري،": 8616,
      "▁هـ)": 8617,
      "▁مشترك": 8618,
      "▁المشتركة": 8619,
      "▁عدا": 8620,
      "▁وبي": 8621,
      "▁سين": 8622,
      "ومان": 8623,
      "▁ثُم": 8624,
      "كتبة": 8625,
      "▁تحليل": 8626,
      "▁الفرنس": 8627,
      "▁حلقة": 8628,
      "▁وتأليف": 8629,
      "شاط": 8630,
      "صيل": 8631,
      "▁حز": 8632,
      "▁للض": 8633,
      "▁المتط": 8634,
      "▁لدعم": 8635,
      "شبس": 8636,
      "▁الدستورية": 8637,
      "▁ثالث": 8638,
      "62": 8639,
      "حكام": 8640,
      "خير": 8641,
      "▁فريدة": 8642,
      "▁علا": 8643,
      "ما،": 8644,
      "▁هول": 8645,
      "ديلات": 8646,
      "▁شام": 8647,
      "▁شديدة": 8648,
      "ناعات": 8649,
      "فسر": 8650,
      "▁والتن": 8651,
      "▁مشكلة": 8652,
      "▁«الأ": 8653,
      "▁تأثر": 8654,
      "▁الأخبار": 8655,
      "خان": 8656,
      "نون": 8657,
      "واحل": 8658,
      "▁ضعف": 8659,
      "▁تتعلق": 8660,
      "▁يحكم": 8661,
      "▁ابتد": 8662,
      "▁نشأت": 8663,
      "▁اليس": 8664,
      "ارئ": 8665,
      "▁والض": 8666,
      "▁والإن": 8667,
      "▁ناف": 8668,
      "▁الرسم": 8669,
      "▁الصلاحي": 8670,
      "▁ينب": 8671,
      "ريبية": 8672,
      "اوي،": 8673,
      "▁نابليون": 8674,
      "جو": 8675,
      "صير": 8676,
      "▁واص": 8677,
      "▁لعدة": 8678,
      "▁القول": 8679,
      "حمي": 8680,
      "▁الفقر": 8681,
      "▁الوحد": 8682,
      "▁الضوء": 8683,
      "▁واحد،": 8684,
      "▁المقدمة": 8685,
      "▁de": 8686,
      "▁ثقافة": 8687,
      "52": 8688,
      "▁ترش": 8689,
      "▁تمرد": 8690,
      "ريجي": 8691,
      "▁الجمل": 8692,
      "▁النتائج": 8693,
      "▁الطلب": 8694,
      "خلق": 8695,
      "▁يعرض": 8696,
      "▁سنة،": 8697,
      "▁إبراهيم\n-": 8698,
      "▁ملخص": 8699,
      "▁(أو": 8700,
      "▁راشد": 8701,
      "قسام": 8702,
      "ُق": 8703,
      "ْب": 8704,
      "▁#": 8705,
      "▁المهد": 8706,
      "▁قبة": 8707,
      "▁النهضة": 8708,
      "▁يمتلك": 8709,
      "رابات": 8710,
      "▁فأخذ": 8711,
      "هـ،": 8712,
      "▁الأحزاب": 8713,
      "▁بالجامعة": 8714,
      "▁التواصل": 8715,
      "▁أنتج": 8716,
      "بي\n-": 8717,
      "▁الكلمة": 8718,
      "\n\nإ": 8719,
      "▁مسؤ": 8720,
      "▁الله\n-": 8721,
      "▁المصري.": 8722,
      "▁التمثال": 8723,
      "▁الفارسي": 8724,
      "▁كثيراً": 8725,
      "▁كتيبة": 8726,
      "▁الأحد": 8727,
      "▁السور": 8728,
      "تيات": 8729,
      "▁اي": 8730,
      "▁إنش": 8731,
      "شفت": 8732,
      "غار": 8733,
      "هذه": 8734,
      "▁مطلع": 8735,
      "ليط": 8736,
      "▁الهواء": 8737,
      "▁نساء": 8738,
      "▁تفاصيل": 8739,
      "13م": 8740,
      "▁المملوكي": 8741,
      "▁الأجانب": 8742,
      "▁الأتراك": 8743,
      "▁مرج": 8744,
      "▁المحيط": 8745,
      "▁القنا": 8746,
      "لفت": 8747,
      "▁المعز": 8748,
      "▁بدلا": 8749,
      "\n-\n-\n-\n-\n-\n-\n-\n-": 8750,
      "عله": 8751,
      "لة،": 8752,
      "▁والبر": 8753,
      "▁ستي": 8754,
      "▁السبت": 8755,
      "▁الفساد": 8756,
      "رمز": 8757,
      "▁أصغر": 8758,
      "▁تعرضت": 8759,
      "ag": 8760,
      "زلة": 8761,
      "لًا": 8762,
      "▁لدين": 8763,
      "▁تلامي": 8764,
      "ائص": 8765,
      "▁الطراز": 8766,
      "▁أبيد": 8767,
      "▁ومحمود": 8768,
      "▁استعادة": 8769,
      "▁العرب،": 8770,
      "▁الأمراض": 8771,
      "يات،": 8772,
      "أمير": 8773,
      "▁الجديدة،": 8774,
      "▁إسلامية": 8775,
      "▁رجاء": 8776,
      "\nقال": 8777,
      "▁واع": 8778,
      "▁عيون": 8779,
      "▁يكتشف": 8780,
      "▁الأرجح": 8781,
      "▁ساعات": 8782,
      "▁الحكام": 8783,
      "▁بطريرك": 8784,
      "▁الاستثمار": 8785,
      "▁أقيمت": 8786,
      "/200": 8787,
      "لن": 8788,
      "▁فأن": 8789,
      "▁هُ": 8790,
      "▁الستين": 8791,
      "▁الخلفاء": 8792,
      "خروج": 8793,
      "▁وحسن": 8794,
      "▁يتحدث": 8795,
      "▁لأم": 8796,
      "▁مشاهد": 8797,
      "▁ممارسة": 8798,
      "راسية": 8799,
      "▁التجاري": 8800,
      "▁قواته": 8801,
      "▁الربيع": 8802,
      "▁أنطاك": 8803,
      "▁كبيراً": 8804,
      ".»": 8805,
      "51": 8806,
      "صات": 8807,
      "▁الفلاح": 8808,
      "ستشفى": 8809,
      "▁الرقم": 8810,
      "▁الصلاة": 8811,
      "▁المتح": 8812,
      "▁تعريف": 8813,
      "▁التجار": 8814,
      "▁أجراه": 8815,
      "▁التعليمية": 8816,
      "▁المسرحية": 8817,
      "▁وتطوير": 8818,
      "او": 8819,
      "جرد": 8820,
      "▁بئر": 8821,
      "▁المقام": 8822,
      "ارها": 8823,
      "▁سال": 8824,
      "▁(9": 8825,
      "منت": 8826,
      "▁وعشرين": 8827,
      "▁وجمع": 8828,
      "اضرات": 8829,
      "▁الآخرة": 8830,
      "قاليم": 8831,
      "▁حميد": 8832,
      "▁عزبة": 8833,
      "▁رشاد": 8834,
      "\nيت": 8835,
      "**": 8836,
      "ضائع": 8837,
      "▁كرب": 8838,
      "▁حارة": 8839,
      "▁الجند": 8840,
      "▁سيما": 8841,
      "جدية": 8842,
      "صدير": 8843,
      "▁1940": 8844,
      "▁اليوم،": 8845,
      "مى": 8846,
      "▁تمر": 8847,
      "▁توحيد": 8848,
      "▁سرق": 8849,
      "▁المعارض": 8850,
      "▁بعثة": 8851,
      "▁بها.": 8852,
      "▁(توفي": 8853,
      "\n\nمحمد": 8854,
      "▁الابتدائية": 8855,
      "غنية": 8856,
      "▁عثم": 8857,
      "▁إشب": 8858,
      "▁والدين": 8859,
      "▁الرشيد": 8860,
      "نتج": 8861,
      "▁بحرية": 8862,
      "▁دوره": 8863,
      "▁بالمدينة": 8864,
      "▁آخرون": 8865,
      "▁العراق،": 8866,
      "▁دينار": 8867,
      "ئيل": 8868,
      "ضية": 8869,
      "▁تلا": 8870,
      "ركت": 8871,
      "▁الخمسة": 8872,
      "▁زايد": 8873,
      "▁وحكم": 8874,
      "لاً،": 8875,
      "▁قبول": 8876,
      "▁دعوة": 8877,
      "▁In": 8878,
      "▁بمساعدة": 8879,
      "\nيع": 8880,
      "لو": 8881,
      "▁فف": 8882,
      "▁جند": 8883,
      "▁المؤيد": 8884,
      "▁مماتي": 8885,
      "▁التعامل": 8886,
      "▁القضاة": 8887,
      "▁تلفزيوني": 8888,
      "قوط": 8889,
      "▁فكري": 8890,
      "ريوس": 8891,
      "▁العادل": 8892,
      "▁شهاب": 8893,
      "▁بالاست": 8894,
      "خصية": 8895,
      "▁وحاول": 8896,
      "▁المدينة.": 8897,
      "▁الاتصال": 8898,
      "▁منتج": 8899,
      "▁اعتماد": 8900,
      "▁الأندلس،": 8901,
      "▁هندسة": 8902,
      "▁وأيضا": 8903,
      "يزة": 8904,
      "▁هبة": 8905,
      "▁الإث": 8906,
      "▁الجب": 8907,
      "قدس": 8908,
      "▁«د": 8909,
      "▁أبح": 8910,
      "▁البيان": 8911,
      "▁الطبيعة": 8912,
      "▁وتقع": 8913,
      "▁ألقاب": 8914,
      "▁حازم": 8915,
      "▁وجهة": 8916,
      "▁الزمان": 8917,
      "▁يقود": 8918,
      "▁فأمر": 8919,
      "اوي:": 8920,
      "▁بكثير": 8921,
      "▁تركيا": 8922,
      "ul": 8923,
      "▁ورفض": 8924,
      "▁بري": 8925,
      "▁قلي": 8926,
      "▁أمثال": 8927,
      "▁يترك": 8928,
      "▁لأبي": 8929,
      "▁تجاوز": 8930,
      "\\\\و": 8931,
      "▁التنقيب": 8932,
      "▁وأيض": 8933,
      "▁البترول": 8934,
      "▁بلي": 8935,
      "▁سانت": 8936,
      "▁التض": 8937,
      "▁الحوار": 8938,
      "رة.": 8939,
      "▁البنية": 8940,
      "▁الصناعة": 8941,
      "▁التاريخي": 8942,
      "▁بناءً": 8943,
      "\nهو": 8944,
      "يء": 8945,
      "▁للي": 8946,
      "▁كول": 8947,
      "▁حش": 8948,
      "▁سور": 8949,
      "رب،": 8950,
      "▁يعتمد": 8951,
      "▁والدراسات": 8952,
      "▁السوداني": 8953,
      "سحب": 8954,
      "غرافية": 8955,
      "▁لعدم": 8956,
      "▁حصول": 8957,
      "▁وتف": 8958,
      "▁مصرية،": 8959,
      "وانات": 8960,
      "▁لتس": 8961,
      "▁مدار": 8962,
      "▁رئيساً": 8963,
      "▁إليه،": 8964,
      "▁«التحفة": 8965,
      "▁وظيفة": 8966,
      "▁الذهبية": 8967,
      "▁شقيقه": 8968,
      "82": 8969,
      "▁بقتل": 8970,
      "▁مناق": 8971,
      "▁سرعان": 8972,
      "▁البخ": 8973,
      "ائري": 8974,
      "▁وأج": 8975,
      "▁أحدهما": 8976,
      "▁بأكمل": 8977,
      "فقات": 8978,
      "▁الاتجاه": 8979,
      "▁ترتيب": 8980,
      "▁الآخرين": 8981,
      "لاطين": 8982,
      "▁البعثة": 8983,
      "▁ومل": 8984,
      "▁عما": 8985,
      "▁لوزارة": 8986,
      "▁إلغاء": 8987,
      "▁شهرة": 8988,
      "▁عنهم": 8989,
      "▁أدهم": 8990,
      "▁تأمين": 8991,
      "▁وانضم": 8992,
      "قذ": 8993,
      "▁بقرار": 8994,
      "ور.": 8995,
      "▁القراءة": 8996,
      "ربت": 8997,
      "▁الطويلة": 8998,
      "▁محب": 8999,
      "▁المشاكل": 9000,
      "▁اليونان": 9001,
      "▁المتهم": 9002,
      "▁مسئ": 9003,
      "▁بتاح": 9004,
      "ارسات": 9005,
      "▁الجنسي": 9006,
      "▁130": 9007,
      "▁الفرصة": 9008,
      "خبره": 9009,
      "▁واشت": 9010,
      "▁عابدين": 9011,
      ".\nاست": 9012,
      "▁الرحلة": 9013,
      "▁انتقال": 9014,
      "▁معدل": 9015,
      "ؤل": 9016,
      "▁المساحة": 9017,
      "▁اللح": 9018,
      "▁بلقب": 9019,
      "▁التنفيذي": 9020,
      "▁حكومية": 9021,
      "▁طنطا": 9022,
      "كلم": 9023,
      "▁المشارك": 9024,
      "ليام": 9025,
      "▁الخبر": 9026,
      "▁الثمان": 9027,
      "نيت": 9028,
      "▁تتضمن": 9029,
      "▁هـ.": 9030,
      "▁لدراسة": 9031,
      "▁انتقلت": 9032,
      "▁التكوين": 9033,
      "__": 9034,
      "▁تول": 9035,
      "▁أعط": 9036,
      "▁أعاد": 9037,
      "وزو": 9038,
      "▁يقول:": 9039,
      "▁الوجود": 9040,
      "▁المقا": 9041,
      "▁التغيير": 9042,
      "▁جريمة": 9043,
      "▁الفراعنة": 9044,
      "▁الدق": 9045,
      "قدة": 9046,
      "▁محور": 9047,
      "▁تعديل": 9048,
      "▁أعوام": 9049,
      "▁مصري.": 9050,
      "وهي": 9051,
      "▁المشترك": 9052,
      "▁حكمت": 9053,
      "▁إلهام": 9054,
      "▁نشأته": 9055,
      "▁مالي": 9056,
      "▁الأطباء": 9057,
      "قدت": 9058,
      "▁أفكار": 9059,
      "▁رئيسا": 9060,
      "▁والقانون": 9061,
      "▁الحيوانات": 9062,
      "▁فلسطين،": 9063,
      "▁تكري": 9064,
      "▁(حوالي": 9065,
      "▁السد": 9066,
      "\n\nت": 9067,
      "ماعيلي": 9068,
      "▁تسليم": 9069,
      "▁الشروق": 9070,
      "▁ألفونسو": 9071,
      "دادات": 9072,
      "▁النهائية": 9073,
      "▁ملايين": 9074,
      "▁العظمى": 9075,
      "▁مثال": 9076,
      "▁قادر": 9077,
      "ادلة": 9078,
      "وجي": 9079,
      "سطاط": 9080,
      "▁أعظم": 9081,
      "▁مصطفى\n-": 9082,
      "▁(أي": 9083,
      "▁سقطت": 9084,
      "رو": 9085,
      "وين،": 9086,
      "انين": 9087,
      "▁الأماكن": 9088,
      "ناها": 9089,
      "▁والتع": 9090,
      "▁اقترح": 9091,
      "▁الباحثين": 9092,
      "▁ألحان": 9093,
      "ir": 9094,
      "الة،": 9095,
      "هائ": 9096,
      "▁المحامي": 9097,
      "▁عنده": 9098,
      "اصرة": 9099,
      "▁الغربية،": 9100,
      "▁القرطاج": 9101,
      ".*": 9102,
      "زاز": 9103,
      "سه": 9104,
      "واري": 9105,
      "▁a": 9106,
      "▁مجلد": 9107,
      "▁فندق": 9108,
      "▁توم": 9109,
      "▁ومش": 9110,
      "وتها": 9111,
      "▁بتس": 9112,
      "▁400": 9113,
      "▁الحرب،": 9114,
      ":\nأ": 9115,
      "▁الشعرية": 9116,
      "▁مؤلفات": 9117,
      "▁الإيطالية": 9118,
      "مبية": 9119,
      "▁سريع": 9120,
      "▁خلافة": 9121,
      "▁النجوم": 9122,
      "▁الخطة": 9123,
      "▁وفاء": 9124,
      "▁أشخاص": 9125,
      "حفاظ": 9126,
      "▁ربط": 9127,
      "▁بقوة": 9128,
      "▁والثاني": 9129,
      "▁m": 9130,
      "▁مولد": 9131,
      "▁والعد": 9132,
      "▁جس": 9133,
      "▁دينية": 9134,
      "بيعة": 9135,
      "▁الكاملة": 9136,
      "▁وأعلن": 9137,
      "▁مرتبة": 9138,
      "▁الأفريقي": 9139,
      "▁عدّ": 9140,
      "▁شروط": 9141,
      "▁كيفية": 9142,
      "▁العشرين،": 9143,
      "96": 9144,
      "ci": 9145,
      "▁القتل": 9146,
      "▁خلع": 9147,
      "▁الكهنة": 9148,
      "كتورة": 9149,
      "▁المحل": 9150,
      "▁الأعظم": 9151,
      "رامية": 9152,
      "▁العراقية": 9153,
      "▁صبحي": 9154,
      "▁جميلة": 9155,
      "▁البرتغ": 9156,
      "فالات": 9157,
      "ك\n-": 9158,
      "▁وكن": 9159,
      "▁بوزارة": 9160,
      "▁الفرات": 9161,
      "كلات": 9162,
      "▁والتاريخ": 9163,
      "وضاع": 9164,
      "▁مبادئ": 9165,
      "التزام": 9166,
      "▁وتمكن": 9167,
      "▁التقى": 9168,
      "▁لبناء": 9169,
      "▁توزيع:": 9170,
      "ش\n-": 9171,
      "▁بالتح": 9172,
      "وقفت": 9173,
      "▁ذا": 9174,
      "▁غضب": 9175,
      "▁للتنمية": 9176,
      "صدقاء": 9177,
      "▁الرسائل": 9178,
      "▁بولس": 9179,
      "▁تهديد": 9180,
      "▁موظف": 9181,
      "▁وثيقة": 9182,
      "▁أجهزة": 9183,
      "▁المحد": 9184,
      "▁قطب": 9185,
      "▁قندي": 9186,
      "▁التصميم": 9187,
      "فيا": 9188,
      "▁الصورة": 9189,
      "▁الصديق": 9190,
      "وليد": 9191,
      "▁1930": 9192,
      "▁نيابة": 9193,
      "▁إحسان": 9194,
      "ضت": 9195,
      "▁أرب": 9196,
      "▁الإطلاق": 9197,
      "▁الجمال": 9198,
      "▁الجراح": 9199,
      "▁ابنها": 9200,
      "▁أبوه": 9201,
      "▁مقاتل": 9202,
      "▁ملكية": 9203,
      "▁الرسوم": 9204,
      "عاب": 9205,
      "▁برا": 9206,
      "▁فلس": 9207,
      "▁أَ": 9208,
      "▁تشرين": 9209,
      "▁الأثر": 9210,
      "▁القيم": 9211,
      "▁الست": 9212,
      "▁النشر": 9213,
      "▁رئيسًا": 9214,
      "▁المناخ": 9215,
      "▁التأثير": 9216,
      "▁الإرها": 9217,
      "▁الاختلاف": 9218,
      "\nلم": 9219,
      "لز": 9220,
      "▁يهو": 9221,
      "وبوليس": 9222,
      "▁ضخم": 9223,
      "▁بتك": 9224,
      "ـــ": 9225,
      "▁الأصلية": 9226,
      "حا": 9227,
      "▁لزي": 9228,
      "▁تميز": 9229,
      "▁التوراة": 9230,
      "لاوي": 9231,
      "▁صن": 9232,
      "▁«ك": 9233,
      "▁وفد": 9234,
      "▁بأي": 9235,
      "▁مقاطعة": 9236,
      "▁اتخاذ": 9237,
      "وادث": 9238,
      "▁الفاطميين": 9239,
      "▁بمعنى": 9240,
      "▁قتله": 9241,
      "▁القليوبية": 9242,
      "iv": 9243,
      "▁مواد": 9244,
      "▁ورا": 9245,
      "▁ودي": 9246,
      "▁فب": 9247,
      "▁سرية": 9248,
      "▁119": 9249,
      "▁الحافظ": 9250,
      "ومع": 9251,
      "▁عام،": 9252,
      "▁2012،": 9253,
      "▁كلام": 9254,
      "▁مشوار": 9255,
      "▁خلفية": 9256,
      "َتْ": 9257,
      "▁النفط": 9258,
      "▁التاريخ\nقرية": 9259,
      "بيد": 9260,
      "قين": 9261,
      "ُون": 9262,
      "▁والبي": 9263,
      "▁التحت": 9264,
      "▁الشؤون": 9265,
      "▁الرد": 9266,
      "▁الخلق": 9267,
      "▁فترات": 9268,
      "▁وخمس": 9269,
      "▁وصدر": 9270,
      "▁السلع": 9271,
      "▁الواضح": 9272,
      "ist": 9273,
      "سطنطينية": 9274,
      "اية،": 9275,
      "ّ،": 9276,
      "▁نصب": 9277,
      "▁أنّ": 9278,
      "▁خطر": 9279,
      "▁وأما": 9280,
      "▁يتزوج": 9281,
      "▁دياب": 9282,
      "▁الأخلاق": 9283,
      "▁الأغاني": 9284,
      "▁الجنائزي": 9285,
      "▁تمامًا": 9286,
      "▁عدي": 9287,
      "▁أون": 9288,
      "▁دوا": 9289,
      "وسرت": 9290,
      "▁مسألة": 9291,
      "▁أكد": 9292,
      "▁المشهور": 9293,
      "▁لنادي": 9294,
      "▁إشراف": 9295,
      "▁طلبة": 9296,
      "▁علامة": 9297,
      "▁وانتهت": 9298,
      "1\n-": 9299,
      "op": 9300,
      "جاعة": 9301,
      "▁وشر": 9302,
      "▁أذ": 9303,
      "▁إين": 9304,
      "▁سارة": 9305,
      "▁البق": 9306,
      "▁وإعادة": 9307,
      "▁جداً": 9308,
      "▁الجمهوري": 9309,
      "▁غياب": 9310,
      "حض": 9311,
      "▁'": 9312,
      "▁و(": 9313,
      "▁بإن": 9314,
      "▁فني": 9315,
      "▁إبن": 9316,
      "▁ناش": 9317,
      "▁زمان": 9318,
      "▁لمؤ": 9319,
      "▁له.": 9320,
      "قرآن": 9321,
      "▁رئيسية": 9322,
      "▁لحماية": 9323,
      "▁منهج": 9324,
      "▁باستثناء": 9325,
      "▁عادت": 9326,
      "▁واضحة": 9327,
      "قادات": 9328,
      "▁الراقصة": 9329,
      "▁فقتل": 9330,
      "▁عر": 9331,
      "▁أوب": 9332,
      "▁تصري": 9333,
      "▁تصور": 9334,
      "▁قس": 9335,
      ".\nثم": 9336,
      "يلان": 9337,
      "▁رفي": 9338,
      "برنامج": 9339,
      "مر،": 9340,
      "اني.": 9341,
      "▁استعداد": 9342,
      "▁وقب": 9343,
      "▁وفتح": 9344,
      "▁تدعى": 9345,
      "▁يشكل": 9346,
      "▁حينها": 9347,
      "\n----\n": 9348,
      "ابيع": 9349,
      "▁التلفزيون": 9350,
      "▁معنى": 9351,
      "▁النطاق": 9352,
      "ندسة": 9353,
      "َّب": 9354,
      "▁المنح": 9355,
      "▁حمادة": 9356,
      "▁الأدلة": 9357,
      "▁الخطوط": 9358,
      "▁القبطي": 9359,
      "▁الإحصاء": 9360,
      "\nبال": 9361,
      "محمد": 9362,
      "▁التاج": 9363,
      "▁جرى": 9364,
      "ائح": 9365,
      "▁وتضم": 9366,
      "كره": 9367,
      "دين،": 9368,
      "▁محطات": 9369,
      "▁القدس،": 9370,
      "▁امرأة.استشهاد": 9371,
      "جازي": 9372,
      "▁الهادي": 9373,
      "▁وته": 9374,
      "▁المجد": 9375,
      "▁المهرجان": 9376,
      "▁كاري": 9377,
      ".\nلم": 9378,
      "▁الزقا": 9379,
      "▁تحسين": 9380,
      "▁ولو": 9381,
      "رابين": 9382,
      "▁لعمل": 9383,
      "بطال": 9384,
      "▁التدخل": 9385,
      "▁التركية": 9386,
      "▁واستمرت": 9387,
      "▁قرطاج": 9388,
      "▁روبرت": 9389,
      "▁كيلومتر": 9390,
      "▁1228هـ/18": 9391,
      "▁مادة": 9392,
      "▁بابن": 9393,
      "▁لحم": 9394,
      "ات\n##": 9395,
      "▁الأبحاث": 9396,
      "▁الحجري": 9397,
      "▁مكانة": 9398,
      "▁جمادى": 9399,
      "▁استمرار": 9400,
      "\nيق": 9401,
      "▁بزي": 9402,
      "▁الأي": 9403,
      "▁هز": 9404,
      "▁(المع": 9405,
      "▁الثاني.": 9406,
      "▁الناس،": 9407,
      "ess": 9408,
      "▁قضى": 9409,
      "▁النجاح": 9410,
      "ويا": 9411,
      "وصول": 9412,
      "▁ميز": 9413,
      "▁نيل": 9414,
      "▁نيا": 9415,
      "▁الحماية": 9416,
      "▁الشديد": 9417,
      "فرج": 9418,
      "▁أحمد\n-": 9419,
      "▁أعمدة": 9420,
      "▁عمران": 9421,
      "▁البرون": 9422,
      "الفعل": 9423,
      "▁بويب\n-": 9424,
      "og": 9425,
      "طالب": 9426,
      "▁طرف": 9427,
      "▁أحدث": 9428,
      "▁وتحديد": 9429,
      "▁القطع": 9430,
      "▁الحقيقية": 9431,
      "ار\n-": 9432,
      "اسر": 9433,
      "▁1.": 9434,
      "▁الإيمان": 9435,
      "وبيس": 9436,
      "▁وبها": 9437,
      "▁الفتوح": 9438,
      "▁يحتاج": 9439,
      "فادة": 9440,
      "▁فنان": 9441,
      "▁منازل": 9442,
      "▁ترت": 9443,
      "▁شبرا": 9444,
      "▁الحروف": 9445,
      "▁البريد": 9446,
      "▁الجهة": 9447,
      "▁باله": 9448,
      "ائهم": 9449,
      "▁بمجلس": 9450,
      "هما،": 9451,
      "▁صدور": 9452,
      "ييد": 9453,
      "َأ": 9454,
      "▁توجيه": 9455,
      "▁دو": 9456,
      "▁الإير": 9457,
      "▁خض": 9458,
      "▁استبد": 9459,
      "▁أمور": 9460,
      "▁يشغل": 9461,
      "▁1939": 9462,
      "▁2006.\n##": 9463,
      "▁الأحرار": 9464,
      "▁منشأة": 9465,
      "▁الأنصاري": 9466,
      "▁مسب": 9467,
      "▁مصلحة": 9468,
      "▁كير": 9469,
      "▁حدد": 9470,
      "▁حاصل": 9471,
      "▁سج": 9472,
      "▁سوس": 9473,
      "▁هر": 9474,
      "▁رئ": 9475,
      "▁العامة،": 9476,
      "▁ونج": 9477,
      "▁عميد": 9478,
      "▁لأي": 9479,
      "▁قررت": 9480,
      "▁يجوز": 9481,
      "▁والثانية": 9482,
      "فاضة": 9483,
      "▁عايدة": 9484,
      "▁العلامة": 9485,
      "يئة": 9486,
      "▁شجرة": 9487,
      "▁دولي": 9488,
      "▁الفكرة": 9489,
      "▁الدين:": 9490,
      "▁ومنذ": 9491,
      "\nتت": 9492,
      "▁بقسم": 9493,
      "▁تسعة": 9494,
      "جزيرة": 9495,
      "▁المباشر": 9496,
      "▁1228هـ/1813م": 9497,
      "1)": 9498,
      "عق": 9499,
      "▁الاشتراك": 9500,
      "▁حفص": 9501,
      "▁نيو": 9502,
      ".\nقال": 9503,
      "▁النات": 9504,
      "▁المتوفى": 9505,
      "▁مسيرة": 9506,
      "تابع": 9507,
      "▁سياس": 9508,
      "▁ونصف": 9509,
      "▁بتهمة": 9510,
      "▁المستخدمة": 9511,
      "\\\\ف": 9512,
      "▁نقاط": 9513,
      "▁رموز": 9514,
      "وجهة": 9515,
      "▁الحديثة،": 9516,
      "▁مشروعات": 9517,
      "▁ميلاد": 9518,
      "▁الإجراءات": 9519,
      "▁قالب:": 9520,
      "شبسوت": 9521,
      "شين": 9522,
      "▁مخطوطات": 9523,
      "▁بوجود": 9524,
      "▁ترجع": 9525,
      "▁هات": 9526,
      "▁وتاريخ": 9527,
      "▁ويأ": 9528,
      "مي،": 9529,
      "▁تمويل": 9530,
      "▁ديفيد": 9531,
      "وائية": 9532,
      "▁واستطاع": 9533,
      "▁بالسجن": 9534,
      "▁كثيرا": 9535,
      "▁ألبوم": 9536,
      "▁التقليدية": 9537,
      "▁مها": 9538,
      "▁لوك": 9539,
      "▁سوء": 9540,
      "▁العائل": 9541,
      ".\nن": 9542,
      "قتله": 9543,
      "▁أعيد": 9544,
      "▁مرتين": 9545,
      "▁المغربي": 9546,
      "▁وتقديم": 9547,
      "قاً": 9548,
      "يمس": 9549,
      "▁الطوائف": 9550,
      "▁أسوار": 9551,
      "▁الأولمبية": 9552,
      "▁وكاتب": 9553,
      "▁بيه": 9554,
      "وظيف": 9555,
      "▁باعتبارها": 9556,
      "▁اللاتينية": 9557,
      "ٍ،": 9558,
      "▁وام": 9559,
      "▁حذ": 9560,
      "▁ساحة": 9561,
      "تمام": 9562,
      "وتة": 9563,
      "▁مصري.\n-": 9564,
      "▁الناش": 9565,
      "▁القدرة": 9566,
      "▁بالرغم": 9567,
      "▁مسيحي": 9568,
      "▁محيي": 9569,
      "\nبدأ": 9570,
      "3\n-": 9571,
      "ec": 9572,
      "ضابط": 9573,
      "الته": 9574,
      "▁عمال": 9575,
      "▁مناه": 9576,
      "▁تلمي": 9577,
      "▁سد": 9578,
      "▁سرا": 9579,
      "▁الحصن": 9580,
      "▁الإعلامي": 9581,
      "ردن": 9582,
      "▁تأتي": 9583,
      "▁الطبعة": 9584,
      "▁دولية": 9585,
      "▁الهاش": 9586,
      "▁عائلته": 9587,
      "▁والاجتماعية": 9588,
      "-200": 9589,
      "طم": 9590,
      "▁فنية": 9591,
      "▁البو": 9592,
      "يمكن": 9593,
      "كرمة": 9594,
      "▁إنت": 9595,
      "▁متزوج": 9596,
      "▁شرف\n-": 9597,
      "▁محافظات": 9598,
      "▁اقتصاد": 9599,
      "\n*": 9600,
      "▁مملوك": 9601,
      "▁إِ": 9602,
      "▁حينما": 9603,
      "▁الأوائل": 9604,
      "▁الدخول": 9605,
      "▁الهكس": 9606,
      "▁36": 9607,
      "▁العمل،": 9608,
      "يهان": 9609,
      "▁الأكاديم": 9610,
      "▁لشركة": 9611,
      "▁البنات": 9612,
      "▁الشهيد": 9613,
      "ie": 9614,
      "كبر": 9615,
      "▁البعث": 9616,
      "احف": 9617,
      "▁ثريا": 9618,
      "▁سيكون": 9619,
      "▁يوسف\n-": 9620,
      "▁(15": 9621,
      "▁أبحاث": 9622,
      "▁المهم": 9623,
      "▁تاش": 9624,
      "▁ناس": 9625,
      "▁الحرة": 9626,
      "▁معارض": 9627,
      "▁يتولى": 9628,
      "راتي": 9629,
      "▁حمد": 9630,
      "▁النائب": 9631,
      "▁القضائية": 9632,
      "▁الاعتراف": 9633,
      "▁طبيعة": 9634,
      "▁وفقاً": 9635,
      "95": 9636,
      "صطفى": 9637,
      "▁وذهب": 9638,
      "▁فهر": 9639,
      "▁تتح": 9640,
      "▁كوش": 9641,
      "وف،": 9642,
      "▁وهبي": 9643,
      "▁ومركز": 9644,
      "▁سمح": 9645,
      "ُمْ": 9646,
      "▁الشيعة": 9647,
      "ؤال": 9648,
      "قابل": 9649,
      "ّس": 9650,
      "▁الهم": 9651,
      "▁منخفض": 9652,
      "▁«لا": 9653,
      "▁الطي": 9654,
      "اليون": 9655,
      "وانئ": 9656,
      "▁أخبر": 9657,
      "▁قاموا": 9658,
      "ثقاف": 9659,
      "▁الفارسية": 9660,
      "▁الحملات": 9661,
      "خفاض": 9662,
      "▁كلم": 9663,
      "▁شراء": 9664,
      "▁البالغ": 9665,
      "▁وتزوج": 9666,
      "▁أسفل": 9667,
      "▁الشرقية،": 9668,
      "▁للدفاع": 9669,
      "▁الأرض،": 9670,
      "▁تعالى:": 9671,
      "جابة": 9672,
      "صت": 9673,
      "▁الال": 9674,
      "▁الجماهير": 9675,
      "الي،": 9676,
      "▁السياسات": 9677,
      "▁نهائي": 9678,
      "▁الجماعات": 9679,
      "غن": 9680,
      "▁باي": 9681,
      "▁يضع": 9682,
      "▁السوبر": 9683,
      "فيفة": 9684,
      "▁والتنمية": 9685,
      "▁لأحد": 9686,
      "▁لجامعة": 9687,
      "▁إسماعيل\n-": 9688,
      "▁مئات": 9689,
      "▁فيديو": 9690,
      "▁وتخ": 9691,
      "▁أوامر": 9692,
      "▁محمد\n-": 9693,
      "▁ضح": 9694,
      "\n\nعبد": 9695,
      "▁حدوث": 9696,
      "▁التركي": 9697,
      "▁حديقة": 9698,
      "▁محاولات": 9699,
      "▁الشاذلي": 9700,
      "\nرقم": 9701,
      "مبراطورية": 9702,
      "ادة،": 9703,
      "▁جمه": 9704,
      "▁السلم": 9705,
      "ومية": 9706,
      "وفقًا": 9707,
      "▁آمال": 9708,
      "▁دخلت": 9709,
      "▁أنشئت": 9710,
      "▁سابقا": 9711,
      "▁وجنوب": 9712,
      "▁أية": 9713,
      "▁ألك": 9714,
      "▁أسلحة": 9715,
      "▁لبيب": 9716,
      "▁يرد": 9717,
      "▁للانت": 9718,
      "▁الحرم": 9719,
      "▁خسر": 9720,
      "▁الصندوق": 9721,
      "▁وفاز": 9722,
      "▁الإسكان": 9723,
      "▁حسن\n-": 9724,
      "▁مهام": 9725,
      "▁الرياضي": 9726,
      "▁النبوي": 9727,
      "▁البربر": 9728,
      "▁خراسان": 9729,
      "فاه": 9730,
      "هناك": 9731,
      "▁يهودي": 9732,
      "▁ياسمين": 9733,
      "▁كليات": 9734,
      "▁العريش": 9735,
      "▁الحري": 9736,
      "▁سبأ": 9737,
      "▁اتجه": 9738,
      "▁العلوي": 9739,
      "▁المنازل": 9740,
      "▁شعراء": 9741,
      "▁الأزهر،": 9742,
      "\".\n##": 9743,
      "جاع": 9744,
      "▁اهتم": 9745,
      "ميات": 9746,
      "حيح": 9747,
      "▁ضياء": 9748,
      "▁يُعتقد": 9749,
      "ثالث": 9750,
      "▁الفنانين": 9751,
      "▁الإنشاء": 9752,
      "▁للطيران": 9753,
      "بيا": 9754,
      "فراد": 9755,
      "▁العس": 9756,
      "دي:": 9757,
      "تهرت": 9758,
      "▁الخارجي": 9759,
      "▁الأثري": 9760,
      "بياء": 9761,
      "▁تكريم": 9762,
      "▁قضاء": 9763,
      "▁جسر": 9764,
      "▁الحفل": 9765,
      "▁ويقال": 9766,
      "تيش": 9767,
      "اليين": 9768,
      "رقية": 9769,
      "▁متوسط": 9770,
      "تابعة": 9771,
      "▁البيضاء": 9772,
      "▁ارتباط": 9773,
      "The": 9774,
      "سائر": 9775,
      "ينت": 9776,
      "▁العالية": 9777,
      "▁وتب": 9778,
      "▁وأثناء": 9779,
      "▁الصين": 9780,
      "▁بعدد": 9781,
      "تبه": 9782,
      "▁اتهم": 9783,
      "▁اختار": 9784,
      "▁ثلاثين": 9785,
      "▁المعماري": 9786,
      "».استشهاد": 9787,
      "▁مالية": 9788,
      "▁عف": 9789,
      "▁أحمس": 9790,
      "▁كجزء": 9791,
      "▁والفض": 9792,
      "▁(خ": 9793,
      "▁وأنا": 9794,
      "▁ذاك": 9795,
      "▁تاريخه": 9796,
      "▁البيانات": 9797,
      "▁الوظائف": 9798,
      "ك.": 9799,
      "ُي": 9800,
      "▁الار": 9801,
      "▁الميت": 9802,
      "▁تابوت": 9803,
      "ليلى": 9804,
      "▁سيل": 9805,
      "▁شق": 9806,
      "▁الحادية": 9807,
      "▁وتعد": 9808,
      "قلعة": 9809,
      "▁تعتمد": 9810,
      "ية.استشهاد": 9811,
      "▁مجدد": 9812,
      "▁يتمتع": 9813,
      "▁الانسحاب": 9814,
      "▁المؤلفات": 9815,
      "▁المدنيين": 9816,
      "صين": 9817,
      "صاف": 9818,
      "▁عوا": 9819,
      "▁حجازي": 9820,
      "▁الألف": 9821,
      "▁جوية": 9822,
      "▁جوزي": 9823,
      "▁النسب": 9824,
      "اهب": 9825,
      "\n\nالم": 9826,
      "▁وجيزة": 9827,
      "▁رئيسي": 9828,
      "▁خطيب": 9829,
      "▁تؤدي": 9830,
      "▁ووزير": 9831,
      "▁يقرر": 9832,
      "▁حوض": 9833,
      "راش": 9834,
      "▁(7": 9835,
      "▁معالم": 9836,
      "▁النعم": 9837,
      "▁الخميس": 9838,
      "▁آشور": 9839,
      "▁مسافة": 9840,
      "▁مشاريع": 9841,
      "▁البطريرك": 9842,
      "▁حملات": 9843,
      "▁قنديل": 9844,
      "شح": 9845,
      "فعت": 9846,
      "▁علاج": 9847,
      "▁تلق": 9848,
      "ها\n-": 9849,
      "▁والشر": 9850,
      "▁قمة": 9851,
      "▁ماي": 9852,
      "▁تمتد": 9853,
      "▁والعديد": 9854,
      "▁تجار": 9855,
      "▁أقوال": 9856,
      "▁1937": 9857,
      "▁المكون": 9858,
      "▁سراج": 9859,
      "حيى": 9860,
      "▁والتق": 9861,
      "▁خلفه": 9862,
      "▁كثيرًا": 9863,
      "▁رأفت": 9864,
      "▁إيهاب": 9865,
      "▁أربعين": 9866,
      "▁الكلاسي": 9867,
      "▁والذين": 9868,
      "أر": 9869,
      "▁أقر": 9870,
[...]
