{
  "version": "1.0",
  "truncation": null,
  "padding": null,
  "added_tokens": [
    {
      "id": 0,
      "content": "[PAD]",
      "single_word": false,
      "lstrip": false,
      "rstrip": false,
      "normalized": false,
      "special": true
    },
    {
      "id": 1,
      "content": "[UNK]",
      "single_word": false,
      "lstrip": false,
      "rstrip": false,
      "normalized": false,
      "special": true
    },
    {
      "id": 2,
      "content": "[BOS]",
      "single_word": false,
      "lstrip": false,
      "rstrip": false,
      "normalized": false,
      "special": true
    },
    {
      "id": 3,
      "content": "[EOS]",
      "single_word": false,
      "lstrip": false,
      "rstrip": false,
      "normalized": false,
      "special": true
    },
    {
      "id": 4,
      "content": "[SEP]",
      "single_word": false,
      "lstrip": false,
      "rstrip": false,
      "normalized": false,
      "special": true
    },
    {
      "id": 5,
      "content": "[AR]",
      "single_word": false,
      "lstrip": false,
      "rstrip": false,
      "normalized": false,
      "special": true
    },
    {
      "id": 6,
      "content": "[EN]",
      "single_word": false,
      "lstrip": false,
      "rstrip": false,
      "normalized": false,
      "special": true
    },
    {
      "id": 7,
      "content": "[SYS]",
      "single_word": false,
      "lstrip": false,
      "rstrip": false,
      "normalized": false,
      "special": true
    },
    {
      "id": 8,
      "content": "[USER]",
      "single_word": false,
      "lstrip": false,
      "rstrip": false,
      "normalized": false,
      "special": true
    },
    {
      "id": 9,
      "content": "[ASST]",
      "single_word": false,
      "lstrip": false,
      "rstrip": false,
      "normalized": false,
      "special": true
    }
  ],
  "normalizer": {
    "type": "Sequence",
    "normalizers": [
      {
        "type": "NFC"
      },
      {
        "type": "Replace",
        "pattern": {
          "Regex": "[\\u064B-\\u0652\\u0640]"
        },
        "content": ""
      },
      {
        "type": "Replace",
        "pattern": {
          "String": "أ"
        },
        "content": "ا"
      },
      {
        "type": "Replace",
        "pattern": {
          "String": "إ"
        },
        "content": "ا"
      },
      {
        "type": "Replace",
        "pattern": {
          "String": "آ"
        },
        "content": "ا"
      },
      {
        "type": "Replace",
        "pattern": {
          "String": "ى"
        },
        "content": "ي"
      },
      {
        "type": "Replace",
        "pattern": {
          "Regex": "[ \\t]+"
        },
        "content": " "
      }
    ]
  },
  "pre_tokenizer": {
    "type": "Metaspace",
    "replacement": "▁",
    "prepend_scheme": "always",
    "split": true
  },
  "post_processor": null,
  "decoder": {
    "type": "Metaspace",
    "replacement": "▁",
    "prepend_scheme": "always",
    "split": true
  },
  "model": {
    "type": "BPE",
    "dropout": null,
    "unk_token": "[UNK]",
    "continuing_subword_prefix": null,
    "end_of_word_suffix": null,
    "fuse_unk": false,
    "byte_fallback": false,
    "ignore_merges": false,
    "vocab": {
      "[PAD]": 0,
      "[UNK]": 1,
      "[BOS]": 2,
      "[EOS]": 3,
      "[SEP]": 4,
      "[AR]": 5,
      "[EN]": 6,
      "[SYS]": 7,
      "[USER]": 8,
      "[ASST]": 9,
      "\n": 10,
      "!": 11,
      "\"": 12,
      "#": 13,
      "$": 14,
      "%": 15,
      "&": 16,
      "'": 17,
      "(": 18,
      ")": 19,
      "*": 20,
      "+": 21,
      ",": 22,
      "-": 23,
      ".": 24,
      "/": 25,
      "0": 26,
      "1": 27,
      "2": 28,
      "3": 29,
      "4": 30,
      "5": 31,
      "6": 32,
      "7": 33,
      "8": 34,
      "9": 35,
      ":": 36,
      ";": 37,
      "<": 38,
      "=": 39,
      ">": 40,
      "?": 41,
      "@": 42,
      "A": 43,
      "B": 44,
      "C": 45,
      "D": 46,
      "E": 47,
      "F": 48,
      "G": 49,
      "H": 50,
      "I": 51,
      "J": 52,
      "K": 53,
      "L": 54,
      "M": 55,
      "N": 56,
      "O": 57,
      "P": 58,
      "Q": 59,
      "R": 60,
      "S": 61,
      "T": 62,
      "U": 63,
      "V": 64,
      "W": 65,
      "X": 66,
      "Y": 67,
      "Z": 68,
      "[": 69,
      "\\": 70,
      "]": 71,
      "^": 72,
      "_": 73,
      "`": 74,
      "a": 75,
      "b": 76,
      "c": 77,
      "d": 78,
      "e": 79,
      "f": 80,
      "g": 81,
      "h": 82,
      "i": 83,
      "j": 84,
      "k": 85,
      "l": 86,
      "m": 87,
      "n": 88,
      "o": 89,
      "p": 90,
      "q": 91,
      "r": 92,
      "s": 93,
      "t": 94,
      "u": 95,
      "v": 96,
      "w": 97,
      "x": 98,
      "y": 99,
      "z": 100,
      "{": 101,
      "|": 102,
      "}": 103,
      "~": 104,
      "": 105,
      "": 106,
      " ": 107,
      "¡": 108,
      "¢": 109,
      "£": 110,
      "¤": 111,
      "¥": 112,
      "¦": 113,
      "§": 114,
      "¨": 115,
      "©": 116,
      "ª": 117,
      "«": 118,
      "­": 119,
      "®": 120,
      "¯": 121,
      "°": 122,
      "±": 123,
      "²": 124,
      "³": 125,
      "´": 126,
      "µ": 127,
      "¶": 128,
      "·": 129,
      "¹": 130,
      "º": 131,
      "»": 132,
      "¼": 133,
      "½": 134,
      "¾": 135,
      "¿": 136,
      "À": 137,
      "Á": 138,
      "Â": 139,
      "Ã": 140,
      "Ä": 141,
      "Å": 142,
      "Æ": 143,
      "Ç": 144,
      "È": 145,
      "É": 146,
      "Ê": 147,
      "Ë": 148,
      "Ì": 149,
      "Í": 150,
      "Î": 151,
      "Ï": 152,
      "Ð": 153,
      "Ñ": 154,
      "Ò": 155,
      "Ó": 156,
      "Ô": 157,
      "Õ": 158,
      "Ö": 159,
      "×": 160,
      "Ø": 161,
      "Ù": 162,
      "Ú": 163,
      "Û": 164,
      "Ü": 165,
      "Ý": 166,
      "Þ": 167,
      "ß": 168,
      "à": 169,
      "á": 170,
      "â": 171,
      "ã": 172,
      "ä": 173,
      "å": 174,
      "æ": 175,
      "ç": 176,
      "è": 177,
      "é": 178,
      "ê": 179,
      "ë": 180,
      "ì": 181,
      "í": 182,
      "î": 183,
      "ï": 184,
      "ð": 185,
      "ñ": 186,
      "ò": 187,
      "ó": 188,
      "ô": 189,
      "õ": 190,
      "ö": 191,
      "÷": 192,
      "ø": 193,
      "ù": 194,
      "ú": 195,
      "û": 196,
      "ü": 197,
      "ý": 198,
      "þ": 199,
      "ÿ": 200,
      "Ā": 201,
      "ā": 202,
      "Ă": 203,
      "ă": 204,
      "Ą": 205,
      "ą": 206,
      "Ć": 207,
      "ć": 208,
      "Ĉ": 209,
      "ĉ": 210,
      "Ċ": 211,
      "ċ": 212,
      "Č": 213,
      "č": 214,
      "Ď": 215,
      "ď": 216,
      "Đ": 217,
      "đ": 218,
      "Ē": 219,
      "ē": 220,
      "Ĕ": 221,
      "ĕ": 222,
      "Ė": 223,
      "ė": 224,
      "Ę": 225,
      "ę": 226,
      "Ě": 227,
      "ě": 228,
      "Ĝ": 229,
      "ĝ": 230,
      "Ğ": 231,
      "ğ": 232,
      "Ġ": 233,
      "ġ": 234,
      "Ģ": 235,
      "ģ": 236,
      "Ĥ": 237,
      "ĥ": 238,
      "Ħ": 239,
      "ħ": 240,
      "Ĩ": 241,
      "ĩ": 242,
      "Ī": 243,
      "ī": 244,
      "Ĭ": 245,
      "ĭ": 246,
      "Į": 247,
      "į": 248,
      "İ": 249,
      "ı": 250,
      "Ĳ": 251,
      "ĳ": 252,
      "Ĵ": 253,
      "ĵ": 254,
      "Ķ": 255,
      "ķ": 256,
      "Ĺ": 257,
      "ĺ": 258,
      "Ļ": 259,
      "ļ": 260,
      "Ľ": 261,
      "ľ": 262,
      "Ŀ": 263,
      "ŀ": 264,
      "Ł": 265,
      "ł": 266,
      "Ń": 267,
      "ń": 268,
      "Ņ": 269,
      "ņ": 270,
      "Ň": 271,
      "ň": 272,
      "ŉ": 273,
      "Ŋ": 274,
      "ŋ": 275,
      "Ō": 276,
      "ō": 277,
      "Ŏ": 278,
      "ŏ": 279,
      "Ő": 280,
      "ő": 281,
      "Œ": 282,
      "œ": 283,
      "Ŕ": 284,
      "ŕ": 285,
      "Ŗ": 286,
      "ŗ": 287,
      "Ř": 288,
      "ř": 289,
      "Ś": 290,
      "ś": 291,
      "Ŝ": 292,
      "ŝ": 293,
      "Ş": 294,
      "ş": 295,
      "Š": 296,
      "š": 297,
      "Ţ": 298,
      "ţ": 299,
      "ť": 300,
      "Ŧ": 301,
      "ŧ": 302,
      "Ũ": 303,
      "ũ": 304,
      "Ū": 305,
      "ū": 306,
      "Ŭ": 307,
      "ŭ": 308,
      "ů": 309,
      "ű": 310,
      "ų": 311,
      "Ŵ": 312,
      "ŵ": 313,
      "Ŷ": 314,
      "ŷ": 315,
      "Ÿ": 316,
      "Ź": 317,
      "ź": 318,
      "Ż": 319,
      "ż": 320,
      "Ž": 321,
      "ž": 322,
      "ſ": 323,
      "ƀ": 324,
      "Ɓ": 325,
      "Ƃ": 326,
      "ƃ": 327,
      "ƅ": 328,
      "Ɔ": 329,
      "Ƈ": 330,
      "ƈ": 331,
      "Ɖ": 332,
      "Ɗ": 333,
      "Ǝ": 334,
      "Ə": 335,
      "Ɛ": 336,
      "Ƒ": 337,
      "ƒ": 338,
      "Ɠ": 339,
      "Ɣ": 340,
      "Ɨ": 341,
      "Ƙ": 342,
      "ƙ": 343,
      "ƚ": 344,
      "Ɯ": 345,
      "Ɲ": 346,
      "ƞ": 347,
      "Ɵ": 348,
      "Ơ": 349,
      "ơ": 350,
      "Ƣ": 351,
      "ƣ": 352,
      "Ƥ": 353,
      "ƥ": 354,
      "Ƨ": 355,
      "ƨ": 356,
      "Ʃ": 357,
      "ƭ": 358,
      "Ư": 359,
      "ư": 360,
      "Ʋ": 361,
      "Ƴ": 362,
      "ƴ": 363,
      "Ƶ": 364,
      "ƶ": 365,
      "Ʒ": 366,
      "Ƹ": 367,
      "ƹ": 368,
      "ƻ": 369,
      "ƿ": 370,
      "ǀ": 371,
      "ǁ": 372,
      "ǂ": 373,
      "ǃ": 374,
      "Ǉ": 375,
      "ǈ": 376,
      "ǉ": 377,
      "Ǌ": 378,
      "ǋ": 379,
      "ǌ": 380,
      "Ǎ": 381,
      "ǎ": 382,
      "Ǐ": 383,
      "ǐ": 384,
      "Ǒ": 385,
      "ǒ": 386,
      "Ǔ": 387,
      "ǔ": 388,
      "Ǖ": 389,
      "ǖ": 390,
      "Ǘ": 391,
      "ǘ": 392,
      "Ǚ": 393,
      "ǚ": 394,
      "Ǜ": 395,
      "ǜ": 396,
      "ǝ": 397,
      "Ǟ": 398,
      "ǟ": 399,
      "Ǡ": 400,
      "ǡ": 401,
      "Ǣ": 402,
      "ǣ": 403,
      "Ǥ": 404,
      "ǥ": 405,
      "Ǧ": 406,
      "ǧ": 407,
      "Ǩ": 408,
      "ǩ": 409,
      "ǫ": 410,
      "Ǭ": 411,
      "ǭ": 412,
      "ǯ": 413,
      "ǰ": 414,
      "Ǵ": 415,
      "ǵ": 416,
      "Ƿ": 417,
      "Ǹ": 418,
      "ǹ": 419,
      "Ǻ": 420,
      "ǻ": 421,
      "ǿ": 422,
      "Ȁ": 423,
      "ȁ": 424,
      "Ȃ": 425,
      "ȃ": 426,
      "Ȅ": 427,
      "ȅ": 428,
      "Ȇ": 429,
      "ȇ": 430,
      "Ȉ": 431,
      "ȉ": 432,
      "Ȋ": 433,
      "ȋ": 434,
      "Ȑ": 435,
      "ȑ": 436,
      "Ȓ": 437,
      "ȓ": 438,
      "ȗ": 439,
      "Ș": 440,
      "ș": 441,
      "Ț": 442,
      "ț": 443,
      "Ȝ": 444,
      "ȝ": 445,
      "Ȟ": 446,
      "ȟ": 447,
      "Ƞ": 448,
      "ȡ": 449,
      "Ȣ": 450,
      "ȣ": 451,
      "Ȥ": 452,
      "ȥ": 453,
      "Ȧ": 454,
      "ȧ": 455,
      "Ȩ": 456,
      "ȩ": 457,
      "Ȫ": 458,
      "ȫ": 459,
      "Ȭ": 460,
      "ȭ": 461,
      "Ȯ": 462,
      "ȯ": 463,
      "Ȱ": 464,
      "ȱ": 465,
      "Ȳ": 466,
      "ȳ": 467,
      "ȴ": 468,
      "ȵ": 469,
      "ȶ": 470,
      "ȷ": 471,
      "Ⱥ": 472,
      "Ȼ": 473,
      "ȼ": 474,
      "Ƚ": 475,
      "ȿ": 476,
      "ɀ": 477,
      "Ɂ": 478,
      "Ʉ": 479,
      "Ʌ": 480,
      "Ɇ": 481,
      "ɇ": 482,
      "Ɉ": 483,
      "ɉ": 484,
      "Ɋ": 485,
      "ɋ": 486,
      "Ɍ": 487,
      "ɍ": 488,
      "Ɏ": 489,
      "ɏ": 490,
      "ɐ": 491,
      "ɑ": 492,
      "ɒ": 493,
      "ɓ": 494,
      "ɔ": 495,
      "ɕ": 496,
      "ɖ": 497,
      "ɗ": 498,
      "ɘ": 499,
      "ə": 500,
      "ɚ": 501,
      "ɛ": 502,
      "ɜ": 503,
      "ɝ": 504,
      "ɟ": 505,
      "ɠ": 506,
      "ɡ": 507,
      "ɢ": 508,
      "ɣ": 509,
      "ɤ": 510,
      "ɥ": 511,
      "ɦ": 512,
      "ɨ": 513,
      "ɪ": 514,
      "ɫ": 515,
      "ɬ": 516,
      "ɭ": 517,
      "ɮ": 518,
      "ɯ": 519,
      "ɰ": 520,
      "ɱ": 521,
      "ɲ": 522,
      "ɳ": 523,
      "ɴ": 524,
      "ɵ": 525,
      "ɸ": 526,
      "ɹ": 527,
      "ɻ": 528,
      "ɼ": 529,
      "ɽ": 530,
      "ɾ": 531,
      "ɿ": 532,
      "ʀ": 533,
      "ʁ": 534,
      "ʂ": 535,
      "ʃ": 536,
      "ʄ": 537,
      "ʇ": 538,
      "ʈ": 539,
      "ʉ": 540,
      "ʊ": 541,
      "ʋ": 542,
      "ʌ": 543,
      "ʍ": 544,
      "ʎ": 545,
      "ʏ": 546,
      "ʐ": 547,
      "ʑ": 548,
      "ʒ": 549,
      "ʔ": 550,
      "ʕ": 551,
      "ʖ": 552,
      "ʗ": 553,
      "ʙ": 554,
      "ʛ": 555,
      "ʝ": 556,
      "ʞ": 557,
      "ʠ": 558,
      "ʡ": 559,
      "ʢ": 560,
      "ʤ": 561,
      "ʦ": 562,
      "ʧ": 563,
      "ʪ": 564,
      "ʫ": 565,
      "ʮ": 566,
      "ʯ": 567,
      "ʰ": 568,
      "ʱ": 569,
      "ʲ": 570,
      "ʳ": 571,
      "ʴ": 572,
      "ʶ": 573,
      "ʷ": 574,
      "ʸ": 575,
      "ʹ": 576,
      "ʺ": 577,
      "ʻ": 578,
      "ʼ": 579,
      "ʽ": 580,
      "ʾ": 581,
      "ʿ": 582,
      "ˀ": 583,
      "ˁ": 584,
      "ˆ": 585,
      "ˇ": 586,
      "ˈ": 587,
      "ˉ": 588,
      "ˌ": 589,
      "ː": 590,
      "ˑ": 591,
      "˔": 592,
      "˖": 593,
      "˘": 594,
      "˙": 595,
      "˚": 596,
      "˜": 597,
      "˞": 598,
      "ˠ": 599,
      "ˤ": 600,
      "˹": 601,
      "˺": 602,
      "̀": 603,
      "́": 604,
      "̂": 605,
      "̃": 606,
      "̄": 607,
      "̅": 608,
      "̆": 609,
      "̇": 610,
      "̈": 611,
      "̉": 612,
      "̊": 613,
      "̋": 614,
      "̌": 615,
      "̍": 616,
      "̎": 617,
      "̏": 618,
      "̐": 619,
      "̑": 620,
      "̓": 621,
      "̕": 622,
      "̘": 623,
      "̚": 624,
      "̜": 625,
      "̝": 626,
      "̞": 627,
      "̟": 628,
      "̠": 629,
      "̡": 630,
      "̣": 631,
      "̤": 632,
      "̥": 633,
      "̦": 634,
      "̧": 635,
      "̨": 636,
      "̩": 637,
      "̪": 638,
      "̬": 639,
      "̭": 640,
      "̯": 641,
      "̰": 642,
      "̱": 643,
      "̲": 644,
      "̴": 645,
      "̵": 646,
      "̶": 647,
      "̷": 648,
      "̸": 649,
      "̺": 650,
      "̻": 651,
      "̼": 652,
      "̽": 653,
      "̾": 654,
      "͂": 655,
      "͑": 656,
      "͗": 657,
      "͘": 658,
      "͞": 659,
      "͟": 660,
      "͠": 661,
      "͡": 662,
      "Ͱ": 663,
      "Ͳ": 664,
      "ͷ": 665,
      "ͻ": 666,
      "΄": 667,
      "Ά": 668,
      "Έ": 669,
      "Ή": 670,
      "Ί": 671,
      "Ό": 672,
      "Ύ": 673,
      "Ώ": 674,
      "ΐ": 675,
      "Α": 676,
      "Β": 677,
      "Γ": 678,
      "Δ": 679,
      "Ε": 680,
      "Ζ": 681,
      "Η": 682,
      "Θ": 683,
      "Ι": 684,
      "Κ": 685,
      "Λ": 686,
      "Μ": 687,
      "Ν": 688,
      "Ξ": 689,
      "Ο": 690,
      "Π": 691,
      "Ρ": 692,
      "Σ": 693,
      "Τ": 694,
      "Υ": 695,
      "Φ": 696,
      "Χ": 697,
      "Ψ": 698,
      "Ω": 699,
      "Ϊ": 700,
      "Ϋ": 701,
      "ά": 702,
      "έ": 703,
      "ή": 704,
      "ί": 705,
      "ΰ": 706,
      "α": 707,
      "β": 708,
      "γ": 709,
      "δ": 710,
      "ε": 711,
      "ζ": 712,
      "η": 713,
      "θ": 714,
      "ι": 715,
      "κ": 716,
      "λ": 717,
      "μ": 718,
      "ν": 719,
      "ξ": 720,
      "ο": 721,
      "π": 722,
      "ρ": 723,
      "ς": 724,
      "σ": 725,
      "τ": 726,
      "υ": 727,
      "φ": 728,
      "χ": 729,
      "ψ": 730,
      "ω": 731,
      "ϊ": 732,
      "ϋ": 733,
      "ό": 734,
      "ύ": 735,
      "ώ": 736,
      "ϐ": 737,
      "ϑ": 738,
      "ϒ": 739,
      "ϓ": 740,
      "ϔ": 741,
      "ϕ": 742,
      "ϖ": 743,
      "Ϙ": 744,
      "ϙ": 745,
      "Ϛ": 746,
      "ϛ": 747,
      "Ϝ": 748,
      "ϝ": 749,
      "Ϟ": 750,
      "ϟ": 751,
      "Ϡ": 752,
      "ϡ": 753,
      "Ϣ": 754,
      "ϣ": 755,
      "Ϥ": 756,
      "ϥ": 757,
      "Ϧ": 758,
      "ϧ": 759,
      "Ϩ": 760,
      "ϩ": 761,
      "Ϫ": 762,
      "ϫ": 763,
      "Ϭ": 764,
      "ϭ": 765,
      "Ϯ": 766,
      "ϯ": 767,
      "ϲ": 768,
      "ϵ": 769,
      "Ϸ": 770,
      "ϸ": 771,
      "Ϲ": 772,
      "Ϻ": 773,
      "Ѐ": 774,
      "Ё": 775,
      "Ђ": 776,
      "Ѓ": 777,
      "Є": 778,
      "Ѕ": 779,
      "І": 780,
      "Ї": 781,
      "Ј": 782,
      "Љ": 783,
      "Њ": 784,
      "Ћ": 785,
      "Ќ": 786,
      "Ѝ": 787,
      "Ў": 788,
      "Џ": 789,
      "А": 790,
      "Б": 791,
      "В": 792,
      "Г": 793,
      "Д": 794,
      "Е": 795,
      "Ж": 796,
      "З": 797,
      "И": 798,
      "Й": 799,
      "К": 800,
      "Л": 801,
      "М": 802,
      "Н": 803,
      "О": 804,
      "П": 805,
      "Р": 806,
      "С": 807,
      "Т": 808,
      "У": 809,
      "Ф": 810,
      "Х": 811,
      "Ц": 812,
      "Ч": 813,
      "Ш": 814,
      "Щ": 815,
      "Ъ": 816,
      "Ы": 817,
      "Ь": 818,
      "Э": 819,
      "Ю": 820,
      "Я": 821,
      "а": 822,
      "б": 823,
      "в": 824,
      "г": 825,
      "д": 826,
      "е": 827,
      "ж": 828,
      "з": 829,
      "и": 830,
      "й": 831,
      "к": 832,
      "л": 833,
      "м": 834,
      "н": 835,
      "о": 836,
      "п": 837,
      "р": 838,
      "с": 839,
      "т": 840,
      "у": 841,
      "ф": 842,
      "х": 843,
      "ц": 844,
      "ч": 845,
      "ш": 846,
      "щ": 847,
      "ъ": 848,
      "ы": 849,
      "ь": 850,
      "э": 851,
      "ю": 852,
      "я": 853,
      "ѐ": 854,
      "ё": 855,
      "ђ": 856,
      "ѓ": 857,
      "є": 858,
      "ѕ": 859,
      "і": 860,
      "ї": 861,
      "ј": 862,
      "љ": 863,
      "њ": 864,
      "ћ": 865,
      "ќ": 866,
      "ѝ": 867,
      "ў": 868,
      "џ": 869,
      "Ѡ": 870,
      "ѡ": 871,
      "Ѣ": 872,
      "ѣ": 873,
      "Ѥ": 874,
      "ѥ": 875,
      "Ѧ": 876,
      "ѧ": 877,
      "Ѩ": 878,
      "ѩ": 879,
      "Ѫ": 880,
      "ѫ": 881,
      "Ѭ": 882,
      "ѭ": 883,
      "Ѯ": 884,
      "ѯ": 885,
      "Ѱ": 886,
      "ѱ": 887,
      "Ѳ": 888,
      "ѳ": 889,
      "Ѵ": 890,
      "ѵ": 891,
      "Ѷ": 892,
      "ѷ": 893,
      "Ѻ": 894,
      "ѻ": 895,
      "Ѿ": 896,
      "ѿ": 897,
      "Ҁ": 898,
      "ҁ": 899,
      "҂": 900,
      "҃": 901,
      "҆": 902,
      "҈": 903,
      "҉": 904,
      "Ҋ": 905,
      "ҋ": 906,
      "Ҍ": 907,
      "ҍ": 908,
      "Ҏ": 909,
      "ҏ": 910,
      "Ґ": 911,
      "ґ": 912,
      "Ғ": 913,
      "ғ": 914,
      "Ҕ": 915,
      "Җ": 916,
      "җ": 917,
      "Ҙ": 918,
      "ҙ": 919,
      "Қ": 920,
      "қ": 921,
      "Ҝ": 922,
      "ҝ": 923,
      "Ҟ": 924,
      "Ҡ": 925,
      "ҡ": 926,
      "Ң": 927,
      "ң": 928,
      "Ҥ": 929,
      "Ҧ": 930,
      "ҧ": 931,
      "Ҩ": 932,
      "Ҫ": 933,
      "ҫ": 934,
      "Ҭ": 935,
      "ҭ": 936,
      "Ү": 937,
      "ү": 938,
      "Ұ": 939,
      "ұ": 940,
      "Ҳ": 941,
      "ҳ": 942,
      "Ҵ": 943,
      "Ҷ": 944,
      "ҷ": 945,
      "Ҹ": 946,
      "ҹ": 947,
      "Һ": 948,
      "һ": 949,
      "Ҽ": 950,
      "Ӏ": 951,
      "Ӂ": 952,
      "ӂ": 953,
      "Ӆ": 954,
      "ӆ": 955,
      "Ӈ": 956,
      "Ӊ": 957,
      "Ӌ": 958,
      "ӌ": 959,
      "Ӑ": 960,
      "Ӓ": 961,
      "ӓ": 962,
      "Ӕ": 963,
      "ӗ": 964,
      "Ә": 965,
      "ә": 966,
      "Ӛ": 967,
      "ӛ": 968,
      "Ӝ": 969,
      "ӝ": 970,
      "Ӡ": 971,
      "Ӣ": 972,
      "ӣ": 973,
      "Ӥ": 974,
      "ӥ": 975,
      "Ӧ": 976,
      "ӧ": 977,
      "Ө": 978,
      "ө": 979,
      "ӫ": 980,
      "Ӯ": 981,
      "ӯ": 982,
      "Ӱ": 983,
      "ӱ": 984,
      "Ӳ": 985,
      "Ӵ": 986,
      "ӵ": 987,
      "Ӷ": 988,
      "ӷ": 989,
      "ӹ": 990,
      "Ӻ": 991,
      "Ӽ": 992,
      "Ӿ": 993,
      "Ԁ": 994,
      "ԁ": 995,
      "Ԉ": 996,
      "ԉ": 997,
      "Ԋ": 998,
      "ԋ": 999,
      "Ԏ": 1000,
      "ԏ": 1001,
      "Ԓ": 1002,
      "ԓ": 1003,
      "Ԛ": 1004,
      "ԛ": 1005,
      "Ԝ": 1006,
      "ԝ": 1007,
      "Ԥ": 1008,
      "ԥ": 1009,
      "Ԩ": 1010,
      "ԩ": 1011,
      "Ԯ": 1012,
      "ԯ": 1013,
      "Ա": 1014,
      "Բ": 1015,
      "Գ": 1016,
      "Դ": 1017,
      "Ե": 1018,
      "Զ": 1019,
      "Է": 1020,
      "Ը": 1021,
      "Թ": 1022,
      "Ժ": 1023,
      "Ի": 1024,
      "Լ": 1025,
      "Խ": 1026,
      "Ծ": 1027,
      "Կ": 1028,
      "Հ": 1029,
      "Ձ": 1030,
      "Ղ": 1031,
      "Ճ": 1032,
      "Մ": 1033,
      "Յ": 1034,
      "Ն": 1035,
      "Շ": 1036,
      "Ո": 1037,
      "Չ": 1038,
      "Պ": 1039,
      "Ջ": 1040,
      "Ռ": 1041,
      "Ս": 1042,
      "Վ": 1043,
      "Տ": 1044,
      "Ր": 1045,
      "Ց": 1046,
      "Ւ": 1047,
      "Փ": 1048,
      "Ք": 1049,
      "Օ": 1050,
      "Ֆ": 1051,
      "՚": 1052,
      "՛": 1053,
      "՜": 1054,
      "՝": 1055,
      "՞": 1056,
      "՟": 1057,
      "ա": 1058,
      "բ": 1059,
      "գ": 1060,
      "դ": 1061,
      "ե": 1062,
      "զ": 1063,
      "է": 1064,
      "ը": 1065,
      "թ": 1066,
      "ժ": 1067,
      "ի": 1068,
      "լ": 1069,
      "խ": 1070,
      "ծ": 1071,
      "կ": 1072,
      "հ": 1073,
      "ձ": 1074,
      "ղ": 1075,
      "ճ": 1076,
      "մ": 1077,
      "յ": 1078,
      "ն": 1079,
      "շ": 1080,
      "ո": 1081,
      "չ": 1082,
      "պ": 1083,
      "ջ": 1084,
      "ռ": 1085,
      "ս": 1086,
      "վ": 1087,
      "տ": 1088,
      "ր": 1089,
      "ց": 1090,
      "ւ": 1091,
      "փ": 1092,
      "ք": 1093,
      "օ": 1094,
      "ֆ": 1095,
      "և": 1096,
      "։": 1097,
      "֊": 1098,
      "֍": 1099,
      "֎": 1100,
      "֏": 1101,
      "֑": 1102,
      "֓": 1103,
      "֔": 1104,
      "֖": 1105,
      "֙": 1106,
      "֣": 1107,
      "֤": 1108,
      "֥": 1109,
      "ְ": 1110,
      "ֱ": 1111,
      "ֲ": 1112,
      "ֳ": 1113,
      "ִ": 1114,
      "ֵ": 1115,
      "ֶ": 1116,
      "ַ": 1117,
      "ָ": 1118,
      "ֹ": 1119,
      "ֺ": 1120,
      "ֻ": 1121,
      "ּ": 1122,
      "ֽ": 1123,
      "־": 1124,
      "ֿ": 1125,
      "ׁ": 1126,
      "ׂ": 1127,
      "׃": 1128,
      "ׄ": 1129,
      "ׇ": 1130,
      "א": 1131,
      "ב": 1132,
      "ג": 1133,
      "ד": 1134,
      "ה": 1135,
      "ו": 1136,
      "ז": 1137,
      "ח": 1138,
      "ט": 1139,
      "י": 1140,
      "ך": 1141,
      "כ": 1142,
      "ל": 1143,
      "ם": 1144,
      "מ": 1145,
      "ן": 1146,
      "נ": 1147,
      "ס": 1148,
      "ע": 1149,
      "ף": 1150,
      "פ": 1151,
      "ץ": 1152,
      "צ": 1153,
      "ק": 1154,
      "ר": 1155,
      "ש": 1156,
      "ת": 1157,
      "װ": 1158,
      "ײ": 1159,
      "׳": 1160,
      "״": 1161,
      "،": 1162,
      "ؕ": 1163,
      "ؙ": 1164,
      "؛": 1165,
      "؜": 1166,
      "؞": 1167,
      "؟": 1168,
      "ؠ": 1169,
      "ء": 1170,
      "ؤ": 1171,
      "ئ": 1172,
      "ا": 1173,
      "ب": 1174,
      "ة": 1175,
      "ت": 1176,
      "ث": 1177,
      "ج": 1178,
      "ح": 1179,
      "خ": 1180,
      "د": 1181,
      "ذ": 1182,
      "ر": 1183,
      "ز": 1184,
      "س": 1185,
      "ش": 1186,
      "ص": 1187,
      "ض": 1188,
      "ط": 1189,
      "ظ": 1190,
      "ع": 1191,
      "غ": 1192,
      "ؽ": 1193,
      "ف": 1194,
      "ق": 1195,
      "ك": 1196,
      "ل": 1197,
      "م": 1198,
      "ن": 1199,
      "ه": 1200,
      "و": 1201,
      "ي": 1202,
      "ٓ": 1203,
      "ٔ": 1204,
      "ٕ": 1205,
      "ٖ": 1206,
      "ٗ": 1207,
      "٘": 1208,
      "ٙ": 1209,
      "ٛ": 1210,
      "ٜ": 1211,
      "ٝ": 1212,
      "ٞ": 1213,
      "٠": 1214,
      "١": 1215,
      "٢": 1216,
      "٣": 1217,
      "٤": 1218,
      "٥": 1219,
      "٦": 1220,
      "٧": 1221,
      "٨": 1222,
      "٩": 1223,
      "٪": 1224,
      "٫": 1225,
      "٬": 1226,
      "٭": 1227,
      "ٮ": 1228,
      "ٯ": 1229,
      "ٰ": 1230,
      "ٱ": 1231,
      "ٲ": 1232,
      "ٳ": 1233,
      "ٴ": 1234,
      "ٶ": 1235,
      "ٸ": 1236,
      "ٹ": 1237,
      "ٺ": 1238,
      "ٻ": 1239,
      "ټ": 1240,
      "ٽ": 1241,
      "پ": 1242,
      "ٿ": 1243,
      "ځ": 1244,
      "ڃ": 1245,
      "ڄ": 1246,
      "څ": 1247,
      "چ": 1248,
      "ڇ": 1249,
      "ڈ": 1250,
      "ډ": 1251,
      "ڊ": 1252,
      "ڌ": 1253,
      "ڍ": 1254,
      "ڎ": 1255,
      "ڐ": 1256,
      "ڑ": 1257,
      "ڒ": 1258,
      "ړ": 1259,
      "ڕ": 1260,
      "ږ": 1261,
      "ڗ": 1262,
      "ژ": 1263,
      "ښ": 1264,
      "ڛ": 1265,
      "ڞ": 1266,
      "ڟ": 1267,
      "ڠ": 1268,
      "ڡ": 1269,
      "ڢ": 1270,
      "ڤ": 1271,
      "ڦ": 1272,
      "ڧ": 1273,
      "ڨ": 1274,
      "ک": 1275,
      "ڪ": 1276,
      "ګ": 1277,
      "ڬ": 1278,
      "ڭ": 1279,
      "گ": 1280,
      "ڳ": 1281,
      "ڵ": 1282,
      "ڷ": 1283,
      "ں": 1284,
      "ڻ": 1285,
      "ڼ": 1286,
      "ڽ": 1287,
      "ھ": 1288,
      "ۀ": 1289,
      "ہ": 1290,
      "ۂ": 1291,
      "ۃ": 1292,
      "ۄ": 1293,
      "ۅ": 1294,
      "ۆ": 1295,
      "ۇ": 1296,
      "ۈ": 1297,
      "ۉ": 1298,
      "ۋ": 1299,
      "ی": 1300,
      "ۍ": 1301,
      "ێ": 1302,
      "ۏ": 1303,
      "ې": 1304,
      "ۑ": 1305,
      "ے": 1306,
      "۔": 1307,
      "ە": 1308,
      "ۖ": 1309,
      "ۙ": 1310,
      "ۚ": 1311,
      "۝": 1312,
      "۞": 1313,
      "۟": 1314,
      "ۡ": 1315,
      "ۢ": 1316,
      "ۤ": 1317,
      "ۥ": 1318,
      "ۦ": 1319,
      "ۨ": 1320,
      "۩": 1321,
      "ۭ": 1322,
      "۰": 1323,
      "۱": 1324,
      "۲": 1325,
      "۳": 1326,
      "۴": 1327,
      "۵": 1328,
      "۶": 1329,
      "۷": 1330,
      "۸": 1331,
      "۹": 1332,
      "܀": 1333,
      "܂": 1334,
      "܄": 1335,
      "ܐ": 1336,
      "ܒ": 1337,
      "ܓ": 1338,
      "ܕ": 1339,
      "ܖ": 1340,
      "ܗ": 1341,
      "ܘ": 1342,
      "ܙ": 1343,
      "ܚ": 1344,
      "ܛ": 1345,
      "ܝ": 1346,
      "ܟ": 1347,
      "ܠ": 1348,
      "ܡ": 1349,
      "ܢ": 1350,
      "ܣ": 1351,
      "ܥ": 1352,
      "ܦ": 1353,
      "ܨ": 1354,
      "ܩ": 1355,
      "ܪ": 1356,
      "ܫ": 1357,
      "ܬ": 1358,
      "ܰ": 1359,
      "ܲ": 1360,
      "ܳ": 1361,
      "ܵ": 1362,
      "ܸ": 1363,
      "ܹ": 1364,
      "ܼ": 1365,
      "ܽ": 1366,
      "ܿ": 1367,
      "݁": 1368,
      "݂": 1369,
      "݇": 1370,
      "ݑ": 1371,
      "ݒ": 1372,
      "ݖ": 1373,
      "ݗ": 1374,
      "ݘ": 1375,
      "ݛ": 1376,
      "ݝ": 1377,
      "ݠ": 1378,
      "ݡ": 1379,
      "ݢ": 1380,
      "ݣ": 1381,
      "ݤ": 1382,
      "ݧ": 1383,
      "ݨ": 1384,
      "ݪ": 1385,
      "ݿ": 1386,
      "ހ": 1387,
      "ށ": 1388,
      "ނ": 1389,
      "ރ": 1390,
      "ބ": 1391,
      "ޅ": 1392,
      "ކ": 1393,
      "އ": 1394,
      "ވ": 1395,
      "މ": 1396,
      "ފ": 1397,
      "ދ": 1398,
      "ތ": 1399,
      "ލ": 1400,
      "ގ": 1401,
      "ޏ": 1402,
      "ސ": 1403,
      "ޑ": 1404,
      "ޒ": 1405,
      "ޓ": 1406,
      "ޔ": 1407,
      "ޕ": 1408,
      "ޖ": 1409,
      "ޗ": 1410,
      "ޙ": 1411,
      "ޜ": 1412,
      "ޠ": 1413,
      "ޢ": 1414,
      "ަ": 1415,
      "ާ": 1416,
      "ި": 1417,
      "ީ": 1418,
      "ު": 1419,
      "ް": 1420,
      "ޱ": 1421,
      "ߊ": 1422,
      "ߋ": 1423,
      "ߌ": 1424,
      "ߎ": 1425,
      "ߏ": 1426,
      "ߕ": 1427,
      "ߖ": 1428,
      "ߘ": 1429,
      "ߜ": 1430,
      "ߞ": 1431,
      "ߟ": 1432,
      "ߡ": 1433,
      "ߣ": 1434,
      "ࠀ": 1435,
      "ࠁ": 1436,
      "ࠂ": 1437,
      "ࠃ": 1438,
      "ࠄ": 1439,
      "ࠅ": 1440,
      "ࠆ": 1441,
      "ࠇ": 1442,
      "ࠈ": 1443,
      "ࠉ": 1444,
      "ࠊ": 1445,
      "ࠋ": 1446,
      "ࠌ": 1447,
      "ࠍ": 1448,
      "ࠎ": 1449,
      "ࠏ": 1450,
      "ࠐ": 1451,
      "ࠑ": 1452,
      "ࠒ": 1453,
      "ࠓ": 1454,
      "ࠔ": 1455,
      "ࠕ": 1456,
      "ࠖ": 1457,
      "ࠗ": 1458,
      "࠘": 1459,
      "࠙": 1460,
      "ࠚ": 1461,
      "ࠛ": 1462,
      "ࠜ": 1463,
      "ࠝ": 1464,
      "ࠞ": 1465,
      "ࠠ": 1466,
      "ࠡ": 1467,
      "ࠢ": 1468,
      "ࠣ": 1469,
      "ࠤ": 1470,
      "ࠥ": 1471,
      "ࠦ": 1472,
      "ࠧ": 1473,
      "ࠨ": 1474,
      "ࠩ": 1475,
      "ࠪ": 1476,
      "ࠫ": 1477,
      "ࠬ": 1478,
      "࠭": 1479,
      "࠰": 1480,
      "࠱": 1481,
      "࠲": 1482,
      "࠳": 1483,
      "࠴": 1484,
      "࠵": 1485,
      "࠶": 1486,
      "࠷": 1487,
      "࠸": 1488,
      "࠹": 1489,
      "࠺": 1490,
      "࠻": 1491,
      "࠼": 1492,
      "࠽": 1493,
      "࠾": 1494,
      "ࡀ": 1495,
      "ࡁ": 1496,
      "ࡃ": 1497,
      "ࡅ": 1498,
      "ࡉ": 1499,
      "ࡌ": 1500,
      "ࡍ": 1501,
      "ࡏ": 1502,
      "ࡓ": 1503,
      "ࡔ": 1504,
      "ࡕ": 1505,
      "࢜": 1506,
      "࢞": 1507,
      "࢟": 1508,
      "ࢨ": 1509,
      "ࢪ": 1510,
      "ࢫ": 1511,
      "ࢬ": 1512,
      "ࢰ": 1513,
      "ࢼ": 1514,
      "࣓": 1515,
      "ࣤ": 1516,
      "ࣥ": 1517,
      "ࣦ": 1518,
      "ࣧ": 1519,
      "ࣨ": 1520,
      "ࣩ": 1521,
      "࣪": 1522,
      "࣫": 1523,
      "࣬": 1524,
      "࣭": 1525,
      "࣮": 1526,
      "࣯": 1527,
      "ࣱ": 1528,
      "ࣳ": 1529,
      "ࣴ": 1530,
      "ࣵ": 1531,
      "ࣷ": 1532,
      "ࣸ": 1533,
      "ࣹ": 1534,
      "ࣺ": 1535,
      "ँ": 1536,
      "ं": 1537,
      "ः": 1538,
      "अ": 1539,
      "आ": 1540,
      "इ": 1541,
      "ई": 1542,
      "उ": 1543,
      "ऊ": 1544,
      "ऋ": 1545,
      "ऌ": 1546,
      "ऍ": 1547,
      "ऎ": 1548,
      "ए": 1549,
      "ऐ": 1550,
      "ऑ": 1551,
      "ऒ": 1552,
      "ओ": 1553,
      "औ": 1554,
      "क": 1555,
      "ख": 1556,
      "ग": 1557,
      "घ": 1558,
      "ङ": 1559,
      "च": 1560,
      "छ": 1561,
      "ज": 1562,
      "झ": 1563,
      "ञ": 1564,
      "ट": 1565,
      "ठ": 1566,
      "ड": 1567,
      "ढ": 1568,
      "ण": 1569,
      "त": 1570,
      "थ": 1571,
      "द": 1572,
      "ध": 1573,
      "न": 1574,
      "ऩ": 1575,
      "प": 1576,
      "फ": 1577,
      "ब": 1578,
      "भ": 1579,
      "म": 1580,
      "य": 1581,
      "र": 1582,
      "ऱ": 1583,
      "ल": 1584,
      "ळ": 1585,
      "ऴ": 1586,
      "व": 1587,
      "श": 1588,
      "ष": 1589,
      "स": 1590,
      "ह": 1591,
      "़": 1592,
      "ऽ": 1593,
      "ा": 1594,
      "ि": 1595,
      "ी": 1596,
      "ु": 1597,
      "ू": 1598,
      "ृ": 1599,
      "ॄ": 1600,
      "ॅ": 1601,
      "ॆ": 1602,
      "े": 1603,
      "ै": 1604,
      "ॉ": 1605,
      "ॊ": 1606,
      "ो": 1607,
      "ौ": 1608,
      "्": 1609,
      "॑": 1610,
      "॒": 1611,
      "ॠ": 1612,
      "ॡ": 1613,
      "ॢ": 1614,
      "ॣ": 1615,
      "।": 1616,
      "॥": 1617,
      "०": 1618,
      "१": 1619,
      "२": 1620,
      "३": 1621,
      "४": 1622,
      "५": 1623,
      "६": 1624,
      "७": 1625,
      "८": 1626,
      "९": 1627,
      "ॲ": 1628,
      "ॳ": 1629,
      "ॴ": 1630,
      "ॵ": 1631,
      "ॶ": 1632,
      "ॷ": 1633,
      "ॸ": 1634,
      "ॹ": 1635,
      "ॻ": 1636,
      "ॼ": 1637,
      "ॾ": 1638,
      "ॿ": 1639,
      "ঁ": 1640,
      "ং": 1641,
      "ঃ": 1642,
      "অ": 1643,
      "আ": 1644,
      "ই": 1645,
      "ঈ": 1646,
      "উ": 1647,
      "ঊ": 1648,
      "ঋ": 1649,
      "ঌ": 1650,
      "এ": 1651,
      "ঐ": 1652,
      "ও": 1653,
      "ঔ": 1654,
      "ক": 1655,
      "খ": 1656,
      "গ": 1657,
      "ঘ": 1658,
      "ঙ": 1659,
      "চ": 1660,
      "ছ": 1661,
      "জ": 1662,
      "ঝ": 1663,
      "ঞ": 1664,
      "ট": 1665,
      "ঠ": 1666,
      "ড": 1667,
      "ঢ": 1668,
      "ণ": 1669,
      "ত": 1670,
      "থ": 1671,
      "দ": 1672,
      "ধ": 1673,
      "ন": 1674,
      "প": 1675,
      "ফ": 1676,
      "ব": 1677,
      "ভ": 1678,
      "ম": 1679,
      "য": 1680,
      "র": 1681,
      "ল": 1682,
      "শ": 1683,
      "ষ": 1684,
      "স": 1685,
      "হ": 1686,
      "়": 1687,
      "া": 1688,
      "ি": 1689,
      "ী": 1690,
      "ু": 1691,
      "ূ": 1692,
      "ৃ": 1693,
      "ৄ": 1694,
      "ে": 1695,
      "ৈ": 1696,
      "ো": 1697,
      "ৌ": 1698,
      "্": 1699,
      "ৎ": 1700,
      "ৠ": 1701,
      "ৡ": 1702,
      "ৢ": 1703,
      "ৣ": 1704,
      "০": 1705,
      "১": 1706,
      "২": 1707,
      "৩": 1708,
      "৪": 1709,
      "৫": 1710,
      "৬": 1711,
      "৭": 1712,
      "৮": 1713,
      "৯": 1714,
      "ৰ": 1715,
      "ৱ": 1716,
      "৳": 1717,
      "৷": 1718,
      "ਁ": 1719,
      "ਂ": 1720,
      "ਃ": 1721,
      "ਅ": 1722,
      "ਆ": 1723,
      "ਇ": 1724,
      "ਈ": 1725,
      "ਉ": 1726,
      "ਊ": 1727,
      "ਏ": 1728,
      "ਐ": 1729,
      "ਓ": 1730,
      "ਔ": 1731,
      "ਕ": 1732,
      "ਖ": 1733,
      "ਗ": 1734,
      "ਘ": 1735,
      "ਙ": 1736,
      "ਚ": 1737,
      "ਛ": 1738,
      "ਜ": 1739,
      "ਝ": 1740,
      "ਞ": 1741,
      "ਟ": 1742,
      "ਠ": 1743,
      "ਡ": 1744,
      "ਢ": 1745,
      "ਣ": 1746,
      "ਤ": 1747,
      "ਥ": 1748,
      "ਦ": 1749,
      "ਧ": 1750,
      "ਨ": 1751,
      "ਪ": 1752,
      "ਫ": 1753,
      "ਬ": 1754,
      "ਭ": 1755,
      "ਮ": 1756,
      "ਯ": 1757,
      "ਰ": 1758,
      "ਲ": 1759,
      "ਵ": 1760,
      "ਸ": 1761,
      "ਹ": 1762,
      "਼": 1763,
      "ਾ": 1764,
      "ਿ": 1765,
      "ੀ": 1766,
      "ੁ": 1767,
      "ੂ": 1768,
      "ੇ": 1769,
      "ੈ": 1770,
      "ੋ": 1771,
      "ੌ": 1772,
      "੍": 1773,
      "੦": 1774,
      "੧": 1775,
      "੨": 1776,
      "੩": 1777,
      "੪": 1778,
      "੫": 1779,
      "੬": 1780,
      "੭": 1781,
      "੮": 1782,
      "੯": 1783,
      "ં": 1784,
      "ઃ": 1785,
      "અ": 1786,
      "આ": 1787,
      "ઇ": 1788,
      "ઈ": 1789,
      "ઉ": 1790,
      "ઊ": 1791,
      "ઋ": 1792,
      "ઌ": 1793,
      "ઍ": 1794,
      "એ": 1795,
      "ઐ": 1796,
      "ઑ": 1797,
      "ઓ": 1798,
      "ઔ": 1799,
      "ક": 1800,
      "ખ": 1801,
      "ગ": 1802,
      "ઘ": 1803,
      "ઙ": 1804,
      "ચ": 1805,
      "છ": 1806,
      "જ": 1807,
      "ઝ": 1808,
      "ઞ": 1809,
      "ટ": 1810,
      "ઠ": 1811,
      "ડ": 1812,
      "ઢ": 1813,
      "ણ": 1814,
      "ત": 1815,
      "થ": 1816,
      "દ": 1817,
      "ધ": 1818,
      "ન": 1819,
      "પ": 1820,
      "ફ": 1821,
      "બ": 1822,
      "ભ": 1823,
      "મ": 1824,
      "ય": 1825,
      "ર": 1826,
      "લ": 1827,
      "ળ": 1828,
      "વ": 1829,
      "શ": 1830,
      "ષ": 1831,
      "સ": 1832,
      "હ": 1833,
      "ા": 1834,
      "િ": 1835,
      "ી": 1836,
      "ુ": 1837,
      "ૂ": 1838,
      "ૃ": 1839,
      "ૄ": 1840,
      "ૅ": 1841,
      "ે": 1842,
      "ૈ": 1843,
      "ૉ": 1844,
      "ો": 1845,
      "ૌ": 1846,
      "્": 1847,
      "ૠ": 1848,
      "ૡ": 1849,
      "ૢ": 1850,
      "ૣ": 1851,
      "૦": 1852,
      "૧": 1853,
      "૨": 1854,
      "૩": 1855,
      "૪": 1856,
      "૫": 1857,
      "૬": 1858,
      "૭": 1859,
      "૮": 1860,
      "૯": 1861,
      "ଂ": 1862,
      "ଃ": 1863,
      "ଅ": 1864,
      "ଆ": 1865,
      "ଇ": 1866,
      "ଈ": 1867,
      "ଉ": 1868,
      "ଊ": 1869,
      "ଋ": 1870,
      "ଌ": 1871,
      "ଏ": 1872,
      "ଐ": 1873,
      "ଓ": 1874,
      "ଔ": 1875,
      "କ": 1876,
      "ଖ": 1877,
      "ଗ": 1878,
      "ଘ": 1879,
      "ଙ": 1880,
      "ଚ": 1881,
      "ଛ": 1882,
      "ଜ": 1883,
      "ଝ": 1884,
      "ଞ": 1885,
      "ଟ": 1886,
      "ଠ": 1887,
      "ଡ": 1888,
      "ଢ": 1889,
      "ଣ": 1890,
      "ତ": 1891,
      "ଥ": 1892,
      "ଦ": 1893,
      "ଧ": 1894,
      "ନ": 1895,
      "ପ": 1896,
      "ଫ": 1897,
      "ବ": 1898,
      "ଭ": 1899,
      "ମ": 1900,
      "ଯ": 1901,
      "ର": 1902,
      "ଲ": 1903,
      "ଳ": 1904,
      "ଶ": 1905,
      "ଷ": 1906,
      "ସ": 1907,
      "ହ": 1908,
      "଼": 1909,
      "ା": 1910,
      "ି": 1911,
      "ୀ": 1912,
      "ୁ": 1913,
      "ୂ": 1914,
      "ୃ": 1915,
      "ୄ": 1916,
      "େ": 1917,
      "ୈ": 1918,
      "ୋ": 1919,
      "ୌ": 1920,
      "୍": 1921,
      "ୟ": 1922,
      "ୠ": 1923,
      "ୡ": 1924,
      "ୢ": 1925,
      "ୣ": 1926,
      "୦": 1927,
      "୧": 1928,
      "୨": 1929,
      "୩": 1930,
      "୪": 1931,
      "୫": 1932,
      "୬": 1933,
      "୭": 1934,
      "୮": 1935,
      "୯": 1936,
      "ୱ": 1937,
      "ஂ": 1938,
      "ஃ": 1939,
      "அ": 1940,
      "ஆ": 1941,
      "இ": 1942,
      "ஈ": 1943,
      "உ": 1944,
      "ஊ": 1945,
      "எ": 1946,
      "ஏ": 1947,
      "ஐ": 1948,
      "ஒ": 1949,
      "ஓ": 1950,
      "ஔ": 1951,
      "க": 1952,
      "ங": 1953,
      "ச": 1954,
      "ஜ": 1955,
      "ஞ": 1956,
      "ட": 1957,
      "ண": 1958,
      "த": 1959,
      "ந": 1960,
      "ன": 1961,
      "ப": 1962,
      "ம": 1963,
      "ய": 1964,
      "ர": 1965,
      "ற": 1966,
      "ல": 1967,
      "ள": 1968,
      "ழ": 1969,
      "வ": 1970,
      "ஶ": 1971,
      "ஷ": 1972,
      "ஸ": 1973,
      "ஹ": 1974,
      "ா": 1975,
      "ி": 1976,
      "ீ": 1977,
      "ு": 1978,
      "ூ": 1979,
      "ெ": 1980,
      "ே": 1981,
      "ை": 1982,
      "ொ": 1983,
      "ோ": 1984,
      "ௌ": 1985,
      "்": 1986,
      "௧": 1987,
      "௨": 1988,
      "௩": 1989,
      "௪": 1990,
      "௫": 1991,
      "௬": 1992,
      "௭": 1993,
      "௮": 1994,
      "௯": 1995,
      "ం": 1996,
      "ః": 1997,
      "అ": 1998,
      "ఆ": 1999,
      "ఇ": 2000,
      "ఈ": 2001,
      "ఉ": 2002,
      "ఊ": 2003,
      "ఋ": 2004,
      "ఌ": 2005,
      "ఎ": 2006,
      "ఏ": 2007,
      "ఐ": 2008,
      "ఒ": 2009,
      "ఓ": 2010,
      "ఔ": 2011,
      "క": 2012,
      "ఖ": 2013,
      "గ": 2014,
      "ఘ": 2015,
      "ఙ": 2016,
      "చ": 2017,
      "ఛ": 2018,
      "జ": 2019,
      "ఝ": 2020,
      "ఞ": 2021,
      "ట": 2022,
      "ఠ": 2023,
      "డ": 2024,
      "ఢ": 2025,
      "ణ": 2026,
      "త": 2027,
      "థ": 2028,
      "ద": 2029,
      "ధ": 2030,
      "న": 2031,
      "ప": 2032,
      "ఫ": 2033,
      "బ": 2034,
      "భ": 2035,
      "మ": 2036,
      "య": 2037,
      "ర": 2038,
      "ఱ": 2039,
      "ల": 2040,
      "ళ": 2041,
      "ఴ": 2042,
      "వ": 2043,
      "శ": 2044,
      "ష": 2045,
      "స": 2046,
      "హ": 2047,
      "఼": 2048,
      "ా": 2049,
      "ి": 2050,
      "ీ": 2051,
      "ు": 2052,
      "ూ": 2053,
      "ృ": 2054,
      "ౄ": 2055,
      "ె": 2056,
      "ే": 2057,
      "ై": 2058,
      "ొ": 2059,
      "ో": 2060,
      "ౌ": 2061,
      "్": 2062,
      "ౠ": 2063,
      "ౡ": 2064,
      "ౢ": 2065,
      "ౣ": 2066,
      "౦": 2067,
      "౧": 2068,
      "౨": 2069,
      "౩": 2070,
      "౪": 2071,
      "౫": 2072,
      "౬": 2073,
      "౭": 2074,
      "౮": 2075,
      "౯": 2076,
      "ಂ": 2077,
      "ಃ": 2078,
      "ಅ": 2079,
      "ಆ": 2080,
      "ಇ": 2081,
      "ಈ": 2082,
      "ಉ": 2083,
      "ಊ": 2084,
      "ಋ": 2085,
      "ಌ": 2086,
      "ಎ": 2087,
      "ಏ": 2088,
      "ಐ": 2089,
      "ಒ": 2090,
      "ಓ": 2091,
      "ಔ": 2092,
      "ಕ": 2093,
      "ಖ": 2094,
      "ಗ": 2095,
      "ಘ": 2096,
      "ಙ": 2097,
      "ಚ": 2098,
      "ಛ": 2099,
      "ಜ": 2100,
      "ಝ": 2101,
      "ಞ": 2102,
      "ಟ": 2103,
      "ಠ": 2104,
      "ಡ": 2105,
      "ಢ": 2106,
      "ಣ": 2107,
      "ತ": 2108,
      "ಥ": 2109,
      "ದ": 2110,
      "ಧ": 2111,
      "ನ": 2112,
      "ಪ": 2113,
      "ಫ": 2114,
      "ಬ": 2115,
      "ಭ": 2116,
      "ಮ": 2117,
      "ಯ": 2118,
      "ರ": 2119,
      "ಱ": 2120,
      "ಲ": 2121,
      "ಳ": 2122,
      "ವ": 2123,
      "ಶ": 2124,
      "ಷ": 2125,
      "ಸ": 2126,
      "ಹ": 2127,
      "಼": 2128,
      "ಾ": 2129,
      "ಿ": 2130,
      "ೀ": 2131,
      "ು": 2132,
      "ೂ": 2133,
      "ೃ": 2134,
      "ೄ": 2135,
      "ೆ": 2136,
      "ೇ": 2137,
      "ೈ": 2138,
      "ೊ": 2139,
      "ೋ": 2140,
      "ೌ": 2141,
      "್": 2142,
      "ೞ": 2143,
      "ೠ": 2144,
      "ೡ": 2145,
      "ೢ": 2146,
      "ೣ": 2147,
      "೦": 2148,
      "೧": 2149,
      "೨": 2150,
      "೩": 2151,
      "೪": 2152,
      "೫": 2153,
      "೬": 2154,
      "೭": 2155,
      "೮": 2156,
      "೯": 2157,
      "ം": 2158,
      "ഃ": 2159,
      "അ": 2160,
      "ആ": 2161,
      "ഇ": 2162,
      "ഈ": 2163,
      "ഉ": 2164,
      "ഊ": 2165,
      "ഋ": 2166,
      "ഌ": 2167,
      "എ": 2168,
      "ഏ": 2169,
      "ഐ": 2170,
      "ഒ": 2171,
      "ഓ": 2172,
      "ഔ": 2173,
      "ക": 2174,
      "ഖ": 2175,
      "ഗ": 2176,
      "ഘ": 2177,
      "ങ": 2178,
      "ച": 2179,
      "ഛ": 2180,
      "ജ": 2181,
      "ഝ": 2182,
      "ഞ": 2183,
      "ട": 2184,
      "ഠ": 2185,
      "ഡ": 2186,
      "ഢ": 2187,
      "ണ": 2188,
      "ത": 2189,
      "ഥ": 2190,
      "ദ": 2191,
      "ധ": 2192,
      "ന": 2193,
      "ഩ": 2194,
      "പ": 2195,
      "ഫ": 2196,
      "ബ": 2197,
      "ഭ": 2198,
      "മ": 2199,
      "യ": 2200,
      "ര": 2201,
      "റ": 2202,
      "ല": 2203,
      "ള": 2204,
      "ഴ": 2205,
      "വ": 2206,
      "ശ": 2207,
      "ഷ": 2208,
      "സ": 2209,
      "ഹ": 2210,
      "ഺ": 2211,
      "ാ": 2212,
      "ി": 2213,
      "ീ": 2214,
      "ു": 2215,
      "ൂ": 2216,
      "ൃ": 2217,
      "ൄ": 2218,
      "െ": 2219,
      "േ": 2220,
      "ൈ": 2221,
      "ൊ": 2222,
      "ോ": 2223,
      "്": 2224,
      "ൗ": 2225,
      "ൠ": 2226,
      "ൡ": 2227,
      "ൢ": 2228,
      "ൣ": 2229,
      "൦": 2230,
      "൧": 2231,
      "൨": 2232,
      "൩": 2233,
      "൪": 2234,
      "൫": 2235,
      "൬": 2236,
      "൭": 2237,
      "൮": 2238,
      "൯": 2239,
      "ർ": 2240,
      "ං": 2241,
      "ඃ": 2242,
      "අ": 2243,
      "ආ": 2244,
      "ඇ": 2245,
      "ඈ": 2246,
      "ඉ": 2247,
      "ඊ": 2248,
      "උ": 2249,
      "ඌ": 2250,
      "ඍ": 2251,
      "ඎ": 2252,
      "ඏ": 2253,
      "ඐ": 2254,
      "එ": 2255,
      "ඒ": 2256,
      "ඓ": 2257,
      "ඔ": 2258,
      "ඕ": 2259,
      "ඖ": 2260,
      "ක": 2261,
      "ඛ": 2262,
      "ග": 2263,
      "ඝ": 2264,
      "ඞ": 2265,
      "ච": 2266,
      "ඡ": 2267,
      "ජ": 2268,
      "ඣ": 2269,
      "ඤ": 2270,
      "ට": 2271,
      "ඨ": 2272,
      "ඩ": 2273,
      "ඪ": 2274,
      "ණ": 2275,
      "ත": 2276,
      "ථ": 2277,
      "ද": 2278,
      "ධ": 2279,
      "න": 2280,
      "ප": 2281,
      "ඵ": 2282,
      "බ": 2283,
      "භ": 2284,
      "ම": 2285,
      "ය": 2286,
      "ර": 2287,
      "ල": 2288,
      "ව": 2289,
      "ශ": 2290,
      "ෂ": 2291,
      "ස": 2292,
      "හ": 2293,
      "ළ": 2294,
      "්": 2295,
      "ා": 2296,
      "ැ": 2297,
      "ෑ": 2298,
      "ි": 2299,
      "ී": 2300,
      "ු": 2301,
      "ූ": 2302,
      "ෘ": 2303,
      "ෙ": 2304,
      "ේ": 2305,
      "ෛ": 2306,
      "ො": 2307,
      "ෝ": 2308,
      "ෞ": 2309,
      "ෟ": 2310,
      "෦": 2311,
      "෧": 2312,
      "෨": 2313,
      "෩": 2314,
      "෪": 2315,
      "෫": 2316,
      "෬": 2317,
      "෭": 2318,
      "෮": 2319,
      "෯": 2320,
      "ෲ": 2321,
      "ෳ": 2322,
      "ก": 2323,
      "ข": 2324,
      "ฃ": 2325,
      "ค": 2326,
      "ฅ": 2327,
      "ฆ": 2328,
      "ง": 2329,
      "จ": 2330,
      "ฉ": 2331,
      "ช": 2332,
      "ซ": 2333,
      "ฌ": 2334,
      "ญ": 2335,
      "ฎ": 2336,
      "ฏ": 2337,
      "ฐ": 2338,
      "ฑ": 2339,
      "ฒ": 2340,
      "ณ": 2341,
      "ด": 2342,
      "ต": 2343,
      "ถ": 2344,
      "ท": 2345,
      "ธ": 2346,
      "น": 2347,
      "บ": 2348,
      "ป": 2349,
      "ผ": 2350,
      "ฝ": 2351,
      "พ": 2352,
      "ฟ": 2353,
      "ภ": 2354,
      "ม": 2355,
      "ย": 2356,
      "ร": 2357,
      "ฤ": 2358,
      "ล": 2359,
      "ฦ": 2360,
      "ว": 2361,
      "ศ": 2362,
      "ษ": 2363,
      "ส": 2364,
      "ห": 2365,
      "ฬ": 2366,
      "อ": 2367,
      "ฮ": 2368,
      "ฯ": 2369,
      "ะ": 2370,
      "ั": 2371,
      "า": 2372,
      "ำ": 2373,
      "ิ": 2374,
      "ี": 2375,
      "ึ": 2376,
      "ื": 2377,
      "ุ": 2378,
      "ู": 2379,
      "ฺ": 2380,
      "฿": 2381,
      "เ": 2382,
      "แ": 2383,
      "โ": 2384,
      "ใ": 2385,
      "ไ": 2386,
      "ๅ": 2387,
      "็": 2388,
      "่": 2389,
      "้": 2390,
      "์": 2391,
      "ํ": 2392,
      "๐": 2393,
      "๑": 2394,
      "๒": 2395,
      "๓": 2396,
      "๔": 2397,
      "๕": 2398,
      "๖": 2399,
      "๗": 2400,
      "๘": 2401,
      "๙": 2402,
      "ກ": 2403,
      "ຂ": 2404,
      "ຄ": 2405,
      "ຆ": 2406,
      "ງ": 2407,
      "ຈ": 2408,
      "ຉ": 2409,
      "ຊ": 2410,
      "ຌ": 2411,
      "ຍ": 2412,
      "ຎ": 2413,
      "ຏ": 2414,
      "ຐ": 2415,
      "ຑ": 2416,
      "ຒ": 2417,
      "ຓ": 2418,
      "ດ": 2419,
      "ຕ": 2420,
      "ຖ": 2421,
      "ທ": 2422,
      "ຘ": 2423,
      "ນ": 2424,
      "ບ": 2425,
      "ປ": 2426,
      "ຜ": 2427,
      "ຝ": 2428,
      "ພ": 2429,
      "ຟ": 2430,
      "ຠ": 2431,
      "ມ": 2432,
      "ຣ": 2433,
      "ລ": 2434,
      "ວ": 2435,
      "ຨ": 2436,
      "ຩ": 2437,
      "ສ": 2438,
      "ຫ": 2439,
      "ຬ": 2440,
      "ອ": 2441,
      "ຯ": 2442,
      "ະ": 2443,
      "າ": 2444,
      "ິ": 2445,
      "ີ": 2446,
      "ຸ": 2447,
      "ູ": 2448,
      "ົ": 2449,
      "ເ": 2450,
      "ແ": 2451,
      "ໂ": 2452,
      "ໃ": 2453,
      "ໄ": 2454,
      "໐": 2455,
      "໑": 2456,
      "໒": 2457,
      "໓": 2458,
      "໔": 2459,
      "໕": 2460,
      "໖": 2461,
      "໗": 2462,
      "໘": 2463,
      "໙": 2464,
      "་": 2465,
      "༠": 2466,
      "༡": 2467,
      "༢": 2468,
      "༣": 2469,
      "༤": 2470,
      "༥": 2471,
      "༦": 2472,
      "༧": 2473,
      "༨": 2474,
      "༩": 2475,
      "ཀ": 2476,
      "ཁ": 2477,
      "ག": 2478,
      "ང": 2479,
      "ཅ": 2480,
      "ཆ": 2481,
      "ཇ": 2482,
      "ཉ": 2483,
      "ཊ": 2484,
      "ཋ": 2485,
      "ཌ": 2486,
      "ཎ": 2487,
      "ཏ": 2488,
      "ཐ": 2489,
      "ད": 2490,
      "ན": 2491,
      "པ": 2492,
      "ཕ": 2493,
      "བ": 2494,
      "མ": 2495,
      "ཛ": 2496,
      "ཝ": 2497,
      "ཡ": 2498,
      "ར": 2499,
      "ལ": 2500,
      "ཤ": 2501,
      "ཥ": 2502,
      "ས": 2503,
      "ཧ": 2504,
      "ཨ": 2505,
      "ཬ": 2506,
      "ཱ": 2507,
      "ི": 2508,
      "ུ": 2509,
      "ཷ": 2510,
      "ེ": 2511,
      "ཻ": 2512,
      "ོ": 2513,
      "ཽ": 2514,
      "ཾ": 2515,
      "ཿ": 2516,
      "ྀ": 2517,
      "྄": 2518,
      "ྲ": 2519,
      "ླ": 2520,
      "ྵ": 2521,
      "ྷ": 2522,
      "က": 2523,
      "ခ": 2524,
      "ဂ": 2525,
      "ဃ": 2526,
      "င": 2527,
      "စ": 2528,
      "ဆ": 2529,
      "ဇ": 2530,
      "ဈ": 2531,
      "ဉ": 2532,
      "ည": 2533,
      "ဋ": 2534,
      "ဌ": 2535,
      "ဍ": 2536,
      "ဎ": 2537,
      "ဏ": 2538,
      "တ": 2539,
      "ထ": 2540,
      "ဒ": 2541,
      "ဓ": 2542,
      "န": 2543,
      "ပ": 2544,
      "ဖ": 2545,
      "ဗ": 2546,
      "ဘ": 2547,
      "မ": 2548,
      "ယ": 2549,
      "ရ": 2550,
      "လ": 2551,
      "ဝ": 2552,
      "သ": 2553,
      "ဟ": 2554,
      "ဠ": 2555,
      "အ": 2556,
      "ာ": 2557,
      "ိ": 2558,
      "ီ": 2559,
      "ု": 2560,
      "ေ": 2561,
      "ဲ": 2562,
      "ံ": 2563,
      "့": 2564,
      "း": 2565,
      "္": 2566,
      "်": 2567,
      "ျ": 2568,
      "ြ": 2569,
      "ွ": 2570,
      "ှ": 2571,
      "၀": 2572,
      "၁": 2573,
      "၂": 2574,
      "၃": 2575,
      "၄": 2576,
      "၅": 2577,
      "၆": 2578,
      "၇": 2579,
      "၈": 2580,
      "၉": 2581,
      "။": 2582,
      "႐": 2583,
      "႑": 2584,
      "႒": 2585,
      "႓": 2586,
      "႔": 2587,
      "႕": 2588,
      "႖": 2589,
      "႗": 2590,
      "႘": 2591,
      "႙": 2592,
      "Ⴀ": 2593,
      "Ⴁ": 2594,
      "Ⴂ": 2595,
      "Ⴃ": 2596,
      "Ⴄ": 2597,
      "Ⴅ": 2598,
      "Ⴆ": 2599,
      "Ⴇ": 2600,
      "Ⴈ": 2601,
      "Ⴉ": 2602,
      "Ⴊ": 2603,
      "Ⴋ": 2604,
      "Ⴌ": 2605,
      "Ⴍ": 2606,
      "Ⴎ": 2607,
      "Ⴏ": 2608,
      "Ⴐ": 2609,
      "Ⴑ": 2610,
      "Ⴒ": 2611,
      "Ⴓ": 2612,
      "Ⴔ": 2613,
      "Ⴕ": 2614,
      "Ⴖ": 2615,
      "Ⴗ": 2616,
      "Ⴘ": 2617,
      "Ⴙ": 2618,
      "Ⴚ": 2619,
      "Ⴛ": 2620,
      "Ⴜ": 2621,
      "Ⴝ": 2622,
      "Ⴞ": 2623,
      "Ⴟ": 2624,
      "Ⴠ": 2625,
      "Ⴡ": 2626,
      "Ⴢ": 2627,
      "Ⴣ": 2628,
      "Ⴤ": 2629,
      "Ⴥ": 2630,
      "ა": 2631,
      "ბ": 2632,
      "გ": 2633,
      "დ": 2634,
      "ე": 2635,
      "ვ": 2636,
      "ზ": 2637,
      "თ": 2638,
      "ი": 2639,
      "კ": 2640,
      "ლ": 2641,
      "მ": 2642,
      "ნ": 2643,
      "ო": 2644,
      "პ": 2645,
      "ჟ": 2646,
      "რ": 2647,
      "ს": 2648,
      "ტ": 2649,
      "უ": 2650,
      "ფ": 2651,
      "ქ": 2652,
      "ღ": 2653,
      "ყ": 2654,
      "შ": 2655,
      "ჩ": 2656,
      "ც": 2657,
      "ძ": 2658,
      "წ": 2659,
      "ჭ": 2660,
      "ხ": 2661,
      "ჯ": 2662,
      "ჰ": 2663,
      "ჱ": 2664,
      "ჲ": 2665,
      "ჳ": 2666,
      "ჴ": 2667,
      "ჵ": 2668,
      "ჶ": 2669,
      "ჷ": 2670,
      "ჸ": 2671,
      "ჹ": 2672,
      "ჺ": 2673,
      "ჼ": 2674,
      "ჽ": 2675,
      "ჾ": 2676,
      "ჿ": 2677,
      "ሀ": 2678,
      "ሁ": 2679,
      "ሂ": 2680,
      "ሃ": 2681,
      "ሄ": 2682,
      "ህ": 2683,
      "ሆ": 2684,
      "ለ": 2685,
      "ሉ": 2686,
      "ሊ": 2687,
      "ላ": 2688,
      "ሌ": 2689,
      "ል": 2690,
      "ሎ": 2691,
      "ሏ": 2692,
      "ሐ": 2693,
      "ሑ": 2694,
      "ሒ": 2695,
      "ሓ": 2696,
      "ሔ": 2697,
      "ሕ": 2698,
      "ሖ": 2699,
      "ሗ": 2700,
      "መ": 2701,
      "ሙ": 2702,
      "ሚ": 2703,
      "ማ": 2704,
      "ሜ": 2705,
      "ም": 2706,
      "ሞ": 2707,
      "ሟ": 2708,
      "ሠ": 2709,
      "ሡ": 2710,
      "ሢ": 2711,
      "ሣ": 2712,
      "ሤ": 2713,
      "ሥ": 2714,
      "ሦ": 2715,
      "ሧ": 2716,
      "ረ": 2717,
      "ሩ": 2718,
      "ሪ": 2719,
      "ራ": 2720,
      "ሬ": 2721,
      "ር": 2722,
      "ሮ": 2723,
      "ሯ": 2724,
      "ሰ": 2725,
      "ሱ": 2726,
      "ሲ": 2727,
      "ሳ": 2728,
      "ሴ": 2729,
      "ስ": 2730,
      "ሶ": 2731,
      "ሷ": 2732,
      "ሸ": 2733,
      "ሹ": 2734,
      "ሺ": 2735,
      "ሻ": 2736,
      "ሼ": 2737,
      "ሽ": 2738,
      "ሾ": 2739,
      "ሿ": 2740,
      "ቀ": 2741,
      "ቁ": 2742,
      "ቂ": 2743,
      "ቃ": 2744,
      "ቄ": 2745,
      "ቅ": 2746,
      "ቆ": 2747,
      "ቈ": 2748,
      "ቊ": 2749,
      "ቋ": 2750,
      "ቌ": 2751,
      "ቍ": 2752,
      "ቐ": 2753,
      "ቑ": 2754,
      "ቒ": 2755,
      "ቓ": 2756,
      "ቔ": 2757,
      "ቕ": 2758,
      "ቖ": 2759,
      "ቘ": 2760,
      "ቚ": 2761,
      "ቛ": 2762,
      "ቜ": 2763,
      "ቝ": 2764,
      "በ": 2765,
      "ቡ": 2766,
      "ቢ": 2767,
      "ባ": 2768,
      "ቤ": 2769,
      "ብ": 2770,
      "ቦ": 2771,
      "ቧ": 2772,
      "ቨ": 2773,
      "ቩ": 2774,
      "ቪ": 2775,
      "ቫ": 2776,
      "ቬ": 2777,
      "ቭ": 2778,
      "ቮ": 2779,
      "ቯ": 2780,
      "ተ": 2781,
      "ቱ": 2782,
      "ቲ": 2783,
      "ታ": 2784,
      "ቴ": 2785,
      "ት": 2786,
      "ቶ": 2787,
      "ቷ": 2788,
      "ቸ": 2789,
      "ቹ": 2790,
      "ቺ": 2791,
      "ቻ": 2792,
      "ቼ": 2793,
      "ች": 2794,
      "ቾ": 2795,
      "ቿ": 2796,
      "ኀ": 2797,
      "ኁ": 2798,
      "ኂ": 2799,
      "ኃ": 2800,
      "ኄ": 2801,
      "ኅ": 2802,
      "ኆ": 2803,
      "ኈ": 2804,
      "ኊ": 2805,
      "ኋ": 2806,
      "ኌ": 2807,
      "ኍ": 2808,
      "ነ": 2809,
      "ኑ": 2810,
      "ኒ": 2811,
      "ና": 2812,
      "ኔ": 2813,
      "ን": 2814,
      "ኖ": 2815,
      "ኗ": 2816,
      "ኘ": 2817,
      "ኙ": 2818,
      "ኚ": 2819,
      "ኛ": 2820,
      "ኜ": 2821,
      "ኝ": 2822,
      "ኞ": 2823,
      "ኟ": 2824,
      "አ": 2825,
      "ኡ": 2826,
      "ኢ": 2827,
      "ኣ": 2828,
      "ኤ": 2829,
      "እ": 2830,
      "ኦ": 2831,
      "ኧ": 2832,
      "ከ": 2833,
      "ኩ": 2834,
      "ኪ": 2835,
      "ካ": 2836,
      "ኬ": 2837,
      "ክ": 2838,
      "ኮ": 2839,
      "ኰ": 2840,
      "ኲ": 2841,
      "ኳ": 2842,
      "ኴ": 2843,
      "ኵ": 2844,
      "ኸ": 2845,
      "ኹ": 2846,
      "ኺ": 2847,
      "ኻ": 2848,
      "ኼ": 2849,
      "ኽ": 2850,
      "ኾ": 2851,
      "ዀ": 2852,
      "ዂ": 2853,
      "ዃ": 2854,
      "ዄ": 2855,
      "ዅ": 2856,
      "ወ": 2857,
      "ዉ": 2858,
      "ዊ": 2859,
      "ዋ": 2860,
      "ዌ": 2861,
      "ው": 2862,
      "ዎ": 2863,
      "ዐ": 2864,
      "ዑ": 2865,
      "ዒ": 2866,
      "ዓ": 2867,
      "ዔ": 2868,
      "ዕ": 2869,
      "ዖ": 2870,
      "ዘ": 2871,
      "ዙ": 2872,
      "ዚ": 2873,
      "ዛ": 2874,
      "ዜ": 2875,
      "ዝ": 2876,
      "ዞ": 2877,
      "ዟ": 2878,
      "ዠ": 2879,
      "ዡ": 2880,
      "ዢ": 2881,
      "ዣ": 2882,
      "ዤ": 2883,
      "ዥ": 2884,
      "ዦ": 2885,
      "ዧ": 2886,
      "የ": 2887,
      "ዩ": 2888,
      "ዪ": 2889,
      "ያ": 2890,
      "ዬ": 2891,
      "ይ": 2892,
      "ዮ": 2893,
      "ደ": 2894,
      "ዱ": 2895,
      "ዲ": 2896,
      "ዳ": 2897,
      "ዴ": 2898,
      "ድ": 2899,
      "ዶ": 2900,
      "ዷ": 2901,
      "ጀ": 2902,
      "ጁ": 2903,
      "ጂ": 2904,
      "ጃ": 2905,
      "ጄ": 2906,
      "ጅ": 2907,
      "ጆ": 2908,
      "ጇ": 2909,
      "ገ": 2910,
      "ጉ": 2911,
      "ጊ": 2912,
      "ጋ": 2913,
      "ጌ": 2914,
      "ግ": 2915,
      "ጎ": 2916,
      "ጐ": 2917,
      "ጒ": 2918,
      "ጓ": 2919,
      "ጔ": 2920,
      "ጕ": 2921,
      "ጘ": 2922,
      "ጙ": 2923,
      "ጚ": 2924,
      "ጛ": 2925,
      "ጜ": 2926,
      "ጝ": 2927,
      "ጞ": 2928,
      "ጟ": 2929,
      "ጠ": 2930,
      "ጡ": 2931,
      "ጢ": 2932,
      "ጣ": 2933,
      "ጤ": 2934,
      "ጥ": 2935,
      "ጦ": 2936,
      "ጧ": 2937,
      "ጨ": 2938,
      "ጩ": 2939,
      "ጪ": 2940,
      "ጫ": 2941,
      "ጬ": 2942,
      "ጭ": 2943,
      "ጮ": 2944,
      "ጯ": 2945,
      "ጰ": 2946,
      "ጱ": 2947,
      "ጲ": 2948,
      "ጳ": 2949,
      "ጴ": 2950,
      "ጵ": 2951,
      "ጶ": 2952,
      "ጷ": 2953,
      "ጸ": 2954,
      "ጹ": 2955,
      "ጺ": 2956,
      "ጻ": 2957,
      "ጼ": 2958,
      "ጽ": 2959,
      "ጾ": 2960,
      "ጿ": 2961,
      "ፀ": 2962,
      "ፁ": 2963,
      "ፂ": 2964,
      "ፃ": 2965,
      "ፄ": 2966,
      "ፅ": 2967,
      "ፆ": 2968,
      "ፈ": 2969,
      "ፉ": 2970,
      "ፊ": 2971,
      "ፋ": 2972,
      "ፌ": 2973,
      "ፍ": 2974,
      "ፎ": 2975,
      "ፏ": 2976,
      "ፐ": 2977,
      "ፑ": 2978,
      "ፒ": 2979,
      "ፓ": 2980,
      "ፔ": 2981,
      "ፕ": 2982,
      "ፖ": 2983,
      "ፗ": 2984,
      "ፘ": 2985,
      "ፙ": 2986,
      "ፚ": 2987,
      "፠": 2988,
      "፡": 2989,
      "።": 2990,
      "፣": 2991,
      "፤": 2992,
      "፥": 2993,
      "፦": 2994,
      "፧": 2995,
      "፨": 2996,
      "፩": 2997,
      "፪": 2998,
      "፫": 2999,
      "፬": 3000,
      "፭": 3001,
      "፮": 3002,
      "፯": 3003,
      "፰": 3004,
      "፱": 3005,
      "፲": 3006,
      "፳": 3007,
      "፴": 3008,
      "፵": 3009,
      "፶": 3010,
      "፷": 3011,
      "፸": 3012,
      "፹": 3013,
      "፺": 3014,
      "፻": 3015,
      "፼": 3016,
      "᎐": 3017,
      "᎑": 3018,
      "᎒": 3019,
      "᎓": 3020,
      "᎔": 3021,
      "᎕": 3022,
      "᎖": 3023,
      "᎗": 3024,
      "᎘": 3025,
      "᎙": 3026,
      "Ꭰ": 3027,
      "ᐱ": 3028,
      "ᐳ": 3029,
      "ᐸ": 3030,
      "ᑎ": 3031,
      "ᑐ": 3032,
      "ᑕ": 3033,
      "ᒾ": 3034,
      " ": 3035,
      "ᚁ": 3036,
      "ᚂ": 3037,
      "ᚃ": 3038,
      "ᚄ": 3039,
      "ᚅ": 3040,
      "ᚆ": 3041,
      "ᚇ": 3042,
      "ᚈ": 3043,
      "ᚉ": 3044,
      "ᚊ": 3045,
      "ᚋ": 3046,
      "ᚌ": 3047,
      "ᚍ": 3048,
      "ᚎ": 3049,
      "ᚏ": 3050,
      "ᚐ": 3051,
      "ᚑ": 3052,
      "ᚒ": 3053,
      "ᚓ": 3054,
      "ᚔ": 3055,
      "ᚕ": 3056,
      "ᚖ": 3057,
      "ᚗ": 3058,
      "ᚘ": 3059,
      "ᚙ": 3060,
      "ᚚ": 3061,
      "᚛": 3062,
      "᚜": 3063,
      "ᚠ": 3064,
      "ᚢ": 3065,
      "ᚦ": 3066,
      "ᚨ": 3067,
      "ᚩ": 3068,
      "ᚯ": 3069,
      "ᚱ": 3070,
      "ᚲ": 3071,
      "ᚳ": 3072,
      "ᚴ": 3073,
      "ᚷ": 3074,
      "ᚹ": 3075,
      "ᚺ": 3076,
      "ᚻ": 3077,
      "ᚾ": 3078,
      "ᛁ": 3079,
      "ᛃ": 3080,
      "ᛇ": 3081,
      "ᛈ": 3082,
      "ᛉ": 3083,
      "ᛊ": 3084,
      "ᛋ": 3085,
      "ᛏ": 3086,
      "ᛒ": 3087,
      "ᛖ": 3088,
      "ᛗ": 3089,
      "ᛚ": 3090,
      "ᛜ": 3091,
      "ᛞ": 3092,
      "ᛟ": 3093,
      "ᜠ": 3094,
      "ᜡ": 3095,
      "ᜢ": 3096,
      "ᜣ": 3097,
      "ᜤ": 3098,
      "ᜥ": 3099,
      "ᜦ": 3100,
      "ᜧ": 3101,
      "ᜨ": 3102,
      "ᜩ": 3103,
      "ᜪ": 3104,
      "ᜫ": 3105,
      "ᜬ": 3106,
      "ᜭ": 3107,
      "ᜮ": 3108,
      "ᜯ": 3109,
      "ᜰ": 3110,
      "ᜱ": 3111,
      "ᜲ": 3112,
      "ᜳ": 3113,
      "᜴": 3114,
      "ᝀ": 3115,
      "ᝁ": 3116,
      "ᝂ": 3117,
      "ᝃ": 3118,
      "ᝄ": 3119,
      "ᝅ": 3120,
      "ᝆ": 3121,
      "ᝇ": 3122,
      "ᝈ": 3123,
      "ᝉ": 3124,
      "ᝊ": 3125,
      "ᝋ": 3126,
      "ᝌ": 3127,
      "ᝍ": 3128,
      "ᝎ": 3129,
      "ᝏ": 3130,
      "ᝐ": 3131,
      "ᝑ": 3132,
      "ᝒ": 3133,
      "ᝓ": 3134,
      "ក": 3135,
      "អ": 3136,
      "ឥ": 3137,
      "ឦ": 3138,
      "ឧ": 3139,
      "ឩ": 3140,
      "ឫ": 3141,
      "ឬ": 3142,
      "ឭ": 3143,
      "ឮ": 3144,
      "ឯ": 3145,
      "ឰ": 3146,
      "ឱ": 3147,
      "ឳ": 3148,
      "ា": 3149,
      "ិ": 3150,
      "ី": 3151,
      "ុ": 3152,
      "ូ": 3153,
      "ៀ": 3154,
      "េ": 3155,
      "ៃ": 3156,
      "ោ": 3157,
      "ៅ": 3158,
      "ំ": 3159,
      "ះ": 3160,
      "៍": 3161,
      "៑": 3162,
      "្": 3163,
      "០": 3164,
      "១": 3165,
      "២": 3166,
      "៣": 3167,
      "៤": 3168,
      "៥": 3169,
      "៦": 3170,
      "៧": 3171,
      "៨": 3172,
      "៩": 3173,
      "᠁": 3174,
      "᠃": 3175,
      "᠊": 3176,
      "᠋": 3177,
      "᠌": 3178,
      "᠍": 3179,
      "᠎": 3180,
      "᠐": 3181,
      "᠑": 3182,
      "᠒": 3183,
      "᠓": 3184,
      "᠔": 3185,
      "᠕": 3186,
      "᠖": 3187,
      "᠗": 3188,
      "᠘": 3189,
      "᠙": 3190,
      "ᠠ": 3191,
      "ᠡ": 3192,
      "ᠢ": 3193,
      "ᠣ": 3194,
      "ᠤ": 3195,
      "ᠥ": 3196,
      "ᠦ": 3197,
      "ᠧ": 3198,
      "ᠨ": 3199,
      "ᠩ": 3200,
      "ᠪ": 3201,
      "ᠫ": 3202,
      "ᠬ": 3203,
      "ᠭ": 3204,
      "ᠮ": 3205,
      "ᠯ": 3206,
      "ᠰ": 3207,
      "ᠲ": 3208,
      "ᠳ": 3209,
      "ᠴ": 3210,
      "ᠵ": 3211,
      "ᠶ": 3212,
      "ᠷ": 3213,
      "ᠺ": 3214,
      "ᠽ": 3215,
      "ᤀ": 3216,
      "ᤁ": 3217,
      "ᤂ": 3218,
      "ᤃ": 3219,
      "ᤄ": 3220,
      "ᤅ": 3221,
      "ᤆ": 3222,
      "ᤇ": 3223,
      "ᤈ": 3224,
      "ᤉ": 3225,
      "ᤊ": 3226,
      "ᤋ": 3227,
      "ᤌ": 3228,
      "ᤍ": 3229,
      "ᤎ": 3230,
      "ᤏ": 3231,
      "ᤐ": 3232,
      "ᤑ": 3233,
      "ᤒ": 3234,
      "ᤓ": 3235,
      "ᤔ": 3236,
      "ᤕ": 3237,
      "ᤖ": 3238,
      "ᤗ": 3239,
      "ᤘ": 3240,
      "ᤙ": 3241,
      "ᤚ": 3242,
      "ᤛ": 3243,
      "ᤜ": 3244,
      "ᤠ": 3245,
      "ᤡ": 3246,
      "ᤢ": 3247,
      "ᤣ": 3248,
      "ᤤ": 3249,
      "ᤥ": 3250,
      "ᤦ": 3251,
      "ᤧ": 3252,
      "ᤨ": 3253,
      "ᤲ": 3254,
      "᤺": 3255,
      "᤻": 3256,
      "᥆": 3257,
      "᥇": 3258,
      "᥈": 3259,
      "᥉": 3260,
      "᥊": 3261,
      "᥋": 3262,
      "᥌": 3263,
      "᥍": 3264,
      "᥎": 3265,
      "᥏": 3266,
      "ᦀ": 3267,
      "ᦂ": 3268,
      "ᦃ": 3269,
      "ᦅ": 3270,
      "ᦆ": 3271,
      "ᦇ": 3272,
      "ᦈ": 3273,
      "ᦉ": 3274,
      "ᦊ": 3275,
      "ᦋ": 3276,
      "ᦌ": 3277,
      "ᦍ": 3278,
      "ᦎ": 3279,
      "ᦏ": 3280,
      "ᦑ": 3281,
      "ᦒ": 3282,
      "ᦓ": 3283,
      "ᦔ": 3284,
      "ᦕ": 3285,
      "ᦗ": 3286,
      "ᦘ": 3287,
      "ᦙ": 3288,
      "ᦚ": 3289,
      "ᦝ": 3290,
      "ᦞ": 3291,
      "ᦟ": 3292,
      "ᦠ": 3293,
      "ᦡ": 3294,
      "ᦢ": 3295,
      "ᦣ": 3296,
      "ᦤ": 3297,
      "ᦥ": 3298,
      "ᦰ": 3299,
      "ᦱ": 3300,
      "ᦲ": 3301,
      "ᦳ": 3302,
      "ᦴ": 3303,
      "ᦵ": 3304,
      "ᦶ": 3305,
      "ᦷ": 3306,
      "ᦸ": 3307,
      "ᦺ": 3308,
      "ᧁ": 3309,
      "ᧅ": 3310,
      "᧐": 3311,
      "᧑": 3312,
      "᧒": 3313,
      "᧓": 3314,
      "᧔": 3315,
      "᧕": 3316,
      "᧖": 3317,
      "᧗": 3318,
      "᧘": 3319,
      "᧙": 3320,
      "ᨠ": 3321,
      "ᨡ": 3322,
      "ᨢ": 3323,
      "ᨣ": 3324,
      "ᨤ": 3325,
      "ᨥ": 3326,
      "ᨦ": 3327,
      "ᨧ": 3328,
      "ᨨ": 3329,
      "ᨩ": 3330,
      "ᨪ": 3331,
      "ᨫ": 3332,
      "ᨬ": 3333,
      "ᨭ": 3334,
      "ᨮ": 3335,
      "ᨯ": 3336,
      "ᨰ": 3337,
      "ᨱ": 3338,
      "ᨲ": 3339,
      "ᨳ": 3340,
      "ᨴ": 3341,
      "ᨵ": 3342,
      "ᨶ": 3343,
      "ᨷ": 3344,
      "ᨸ": 3345,
      "ᨹ": 3346,
      "ᨺ": 3347,
      "ᨻ": 3348,
      "ᨼ": 3349,
      "ᨽ": 3350,
      "ᨾ": 3351,
      "ᨿ": 3352,
      "ᩀ": 3353,
      "ᩁ": 3354,
      "ᩂ": 3355,
      "ᩃ": 3356,
      "ᩅ": 3357,
      "ᩆ": 3358,
      "ᩇ": 3359,
      "ᩈ": 3360,
      "ᩉ": 3361,
      "ᩊ": 3362,
      "ᩋ": 3363,
      "ᩌ": 3364,
      "ᩍ": 3365,
      "ᩎ": 3366,
      "ᩏ": 3367,
      "ᩐ": 3368,
      "ᩑ": 3369,
      "ᩒ": 3370,
      "ᩡ": 3371,
      "ᩢ": 3372,
      "ᩣ": 3373,
      "ᩤ": 3374,
      "ᩥ": 3375,
      "ᩦ": 3376,
      "ᩩ": 3377,
      "ᩪ": 3378,
      "ᩫ": 3379,
      "ᩬ": 3380,
      "ᩮ": 3381,
      "ᩯ": 3382,
      "ᩰ": 3383,
      "ᩱ": 3384,
      "ᩳ": 3385,
      "ᩴ": 3386,
      "᩺": 3387,
      "᩼": 3388,
      "᪀": 3389,
      "᪁": 3390,
      "᪂": 3391,
      "᪃": 3392,
      "᪄": 3393,
      "᪅": 3394,
      "᪆": 3395,
      "᪇": 3396,
      "᪈": 3397,
      "᪉": 3398,
      "᪐": 3399,
      "᪑": 3400,
      "᪒": 3401,
      "᪓": 3402,
      "᪔": 3403,
      "᪕": 3404,
      "᪖": 3405,
      "᪗": 3406,
      "᪘": 3407,
      "᪙": 3408,
      "᫈": 3409,
      "ᫍ": 3410,
      "ᫎ": 3411,
      "᭄": 3412,
      "᭐": 3413,
      "᭑": 3414,
      "᭒": 3415,
      "᭓": 3416,
      "᭔": 3417,
      "᭕": 3418,
      "᭖": 3419,
      "᭗": 3420,
      "᭘": 3421,
      "᭙": 3422,
      "᮪": 3423,
      "᮰": 3424,
      "᮱": 3425,
      "᮲": 3426,
      "᮳": 3427,
      "᮴": 3428,
      "᮵": 3429,
      "᮶": 3430,
      "᮷": 3431,
      "᮸": 3432,
      "᮹": 3433,
      "᯲": 3434,
      "᯳": 3435,
      "ᰀ": 3436,
      "ᰂ": 3437,
      "ᰃ": 3438,
      "ᰅ": 3439,
      "ᰆ": 3440,
      "ᰇ": 3441,
      "ᰈ": 3442,
      "ᰉ": 3443,
      "ᰊ": 3444,
      "ᰋ": 3445,
      "ᰌ": 3446,
      "ᰍ": 3447,
      "ᰎ": 3448,
      "ᰐ": 3449,
      "ᰓ": 3450,
      "ᰕ": 3451,
      "ᰚ": 3452,
      "ᰛ": 3453,
      "ᰜ": 3454,
      "ᰝ": 3455,
      "ᰟ": 3456,
      "ᰠ": 3457,
      "ᰡ": 3458,
      "ᰣ": 3459,
      "ᰦ": 3460,
      "ᰧ": 3461,
      "ᰨ": 3462,
      "ᰩ": 3463,
      "ᰪ": 3464,
      "ᰫ": 3465,
      "ᰬ": 3466,
      "ᰴ": 3467,
      "ᰶ": 3468,
      "᰷": 3469,
      "᱀": 3470,
      "᱁": 3471,
      "᱂": 3472,
      "᱃": 3473,
      "᱄": 3474,
      "᱅": 3475,
      "᱆": 3476,
      "᱇": 3477,
      "᱈": 3478,
      "᱉": 3479,
      "ᱍ": 3480,
      "ᱎ": 3481,
      "ᱏ": 3482,
      "Ᲊ": 3483,
      "ᲊ": 3484,
      "ᴀ": 3485,
      "ᴃ": 3486,
      "ᴅ": 3487,
      "ᴇ": 3488,
      "ᴏ": 3489,
      "ᴯ": 3490,
      "ᵈ": 3491,
      "ᵉ": 3492,
      "ᵊ": 3493,
      "ᵐ": 3494,
      "ᵑ": 3495,
      "ᵒ": 3496,
      "ᵓ": 3497,
      "ᵬ": 3498,
      "ᵭ": 3499,
      "ᵮ": 3500,
      "ᵯ": 3501,
      "ᵰ": 3502,
      "ᵱ": 3503,
      "ᵲ": 3504,
      "ᵳ": 3505,
      "ᵴ": 3506,
      "ᵵ": 3507,
      "ᵶ": 3508,
      "ᵷ": 3509,
      "ᵹ": 3510,
      "ᵻ": 3511,
      "ᵽ": 3512,
      "ᶀ": 3513,
      "ᶁ": 3514,
      "ᶂ": 3515,
      "ᶃ": 3516,
      "ᶄ": 3517,
      "ᶅ": 3518,
      "ᶆ": 3519,
      "ᶇ": 3520,
      "ᶈ": 3521,
      "ᶏ": 3522,
      "ᶑ": 3523,
      "ᶒ": 3524,
      "ᶓ": 3525,
      "ᶖ": 3526,
      "ᶜ": 3527,
      "ᶝ": 3528,
      "ᶡ": 3529,
      "ᶢ": 3530,
      "ᶤ": 3531,
      "ᶨ": 3532,
      "ᶩ": 3533,
      "ᶬ": 3534,
      "ᶭ": 3535,
      "ᶮ": 3536,
      "ᶯ": 3537,
      "ᷣ": 3538,
      "Ḁ": 3539,
      "ḁ": 3540,
      "ḃ": 3541,
      "Ḅ": 3542,
      "ḅ": 3543,
      "Ḇ": 3544,
      "ḇ": 3545,
      "Ḉ": 3546,
      "ḉ": 3547,
      "Ḋ": 3548,
      "ḋ": 3549,
      "Ḍ": 3550,
      "ḍ": 3551,
      "Ḏ": 3552,
      "ḏ": 3553,
      "Ḑ": 3554,
      "ḑ": 3555,
      "Ḓ": 3556,
      "ḓ": 3557,
      "Ḕ": 3558,
      "ḕ": 3559,
      "Ḗ": 3560,
      "ḗ": 3561,
      "Ḙ": 3562,
      "ḙ": 3563,
      "Ḛ": 3564,
      "ḛ": 3565,
      "Ḝ": 3566,
      "ḝ": 3567,
      "Ḟ": 3568,
      "ḟ": 3569,
      "Ḡ": 3570,
      "ḡ": 3571,
      "Ḣ": 3572,
      "ḣ": 3573,
      "Ḥ": 3574,
      "ḥ": 3575,
      "Ḧ": 3576,
      "ḧ": 3577,
      "Ḩ": 3578,
      "ḩ": 3579,
      "Ḫ": 3580,
      "ḫ": 3581,
      "Ḭ": 3582,
      "ḭ": 3583,
      "Ḯ": 3584,
      "ḯ": 3585,
      "Ḱ": 3586,
      "ḱ": 3587,
      "Ḳ": 3588,
      "ḳ": 3589,
      "Ḵ": 3590,
      "ḵ": 3591,
      "Ḷ": 3592,
      "ḷ": 3593,
      "Ḹ": 3594,
      "ḹ": 3595,
      "Ḻ": 3596,
      "ḻ": 3597,
      "Ḽ": 3598,
      "ḽ": 3599,
      "Ḿ": 3600,
      "ḿ": 3601,
      "Ṁ": 3602,
      "ṁ": 3603,
      "Ṃ": 3604,
      "ṃ": 3605,
      "Ṅ": 3606,
      "ṅ": 3607,
      "Ṇ": 3608,
      "ṇ": 3609,
      "Ṉ": 3610,
      "ṉ": 3611,
      "Ṋ": 3612,
      "ṋ": 3613,
      "ṍ": 3614,
      "ṏ": 3615,
      "Ṑ": 3616,
      "ṑ": 3617,
      "Ṓ": 3618,
      "ṓ": 3619,
      "Ṕ": 3620,
      "ṕ": 3621,
      "Ṗ": 3622,
      "ṗ": 3623,
      "Ṙ": 3624,
      "ṙ": 3625,
      "Ṛ": 3626,
      "ṛ": 3627,
      "Ṝ": 3628,
      "ṝ": 3629,
      "Ṟ": 3630,
      "ṟ": 3631,
      "Ṡ": 3632,
      "ṡ": 3633,
      "Ṣ": 3634,
      "ṣ": 3635,
      "Ṫ": 3636,
      "ṫ": 3637,
      "Ṭ": 3638,
      "ṭ": 3639,
      "Ṯ": 3640,
      "ṯ": 3641,
      "Ṱ": 3642,
      "ṱ": 3643,
      "ṹ": 3644,
      "Ṻ": 3645,
      "ṻ": 3646,
      "Ṽ": 3647,
      "ṽ": 3648,
      "ṿ": 3649,
      "Ẁ": 3650,
      "ẁ": 3651,
      "Ẃ": 3652,
      "ẃ": 3653,
      "Ẅ": 3654,
      "ẅ": 3655,
      "Ẇ": 3656,
      "ẇ": 3657,
      "Ẉ": 3658,
      "ẉ": 3659,
      "Ẋ": 3660,
      "ẋ": 3661,
      "Ẏ": 3662,
      "ẏ": 3663,
      "Ẓ": 3664,
      "ẓ": 3665,
      "ẕ": 3666,
      "ẖ": 3667,
      "ẗ": 3668,
      "ẘ": 3669,
      "ẙ": 3670,
      "ẚ": 3671,
      "ẝ": 3672,
      "ẞ": 3673,
      "ẟ": 3674,
      "Ạ": 3675,
      "ạ": 3676,
      "Ả": 3677,
      "ả": 3678,
      "Ấ": 3679,
      "ấ": 3680,
      "Ầ": 3681,
      "ầ": 3682,
      "Ẩ": 3683,
      "ẩ": 3684,
      "Ẫ": 3685,
      "ẫ": 3686,
      "Ậ": 3687,
      "ậ": 3688,
      "Ắ": 3689,
      "ắ": 3690,
      "Ằ": 3691,
      "ằ": 3692,
      "Ẳ": 3693,
      "ẳ": 3694,
      "Ẵ": 3695,
      "ẵ": 3696,
      "Ặ": 3697,
      "ặ": 3698,
      "Ẹ": 3699,
      "ẹ": 3700,
      "Ẻ": 3701,
      "ẻ": 3702,
      "Ẽ": 3703,
      "ẽ": 3704,
      "Ế": 3705,
      "ế": 3706,
      "Ề": 3707,
      "ề": 3708,
      "Ể": 3709,
      "ể": 3710,
      "Ễ": 3711,
      "ễ": 3712,
      "Ệ": 3713,
      "ệ": 3714,
      "Ỉ": 3715,
      "ỉ": 3716,
      "Ị": 3717,
      "ị": 3718,
      "Ọ": 3719,
      "ọ": 3720,
      "Ỏ": 3721,
      "ỏ": 3722,
      "Ố": 3723,
      "ố": 3724,
      "Ồ": 3725,
      "ồ": 3726,
      "Ổ": 3727,
      "ổ": 3728,
      "Ỗ": 3729,
      "ỗ": 3730,
      "Ộ": 3731,
      "ộ": 3732,
      "Ớ": 3733,
      "ớ": 3734,
      "Ờ": 3735,
      "ờ": 3736,
      "Ở": 3737,
      "ở": 3738,
      "Ỡ": 3739,
      "ỡ": 3740,
      "Ợ": 3741,
      "ợ": 3742,
      "Ụ": 3743,
      "ụ": 3744,
      "Ủ": 3745,
      "ủ": 3746,
      "Ứ": 3747,
      "ứ": 3748,
      "Ừ": 3749,
      "ừ": 3750,
      "Ử": 3751,
      "ử": 3752,
      "Ữ": 3753,
      "ữ": 3754,
      "Ự": 3755,
      "ự": 3756,
      "Ỳ": 3757,
      "ỳ": 3758,
      "Ỵ": 3759,
      "ỵ": 3760,
      "Ỷ": 3761,
      "ỷ": 3762,
      "Ỹ": 3763,
      "ỹ": 3764,
      "ỻ": 3765,
      "Ỿ": 3766,
      "ỿ": 3767,
      "ἀ": 3768,
      "ἁ": 3769,
      "ἂ": 3770,
      "ἃ": 3771,
      "ἄ": 3772,
      "ἅ": 3773,
      "ἆ": 3774,
      "ἇ": 3775,
      "Ἀ": 3776,
      "Ἁ": 3777,
      "Ἂ": 3778,
      "Ἃ": 3779,
      "Ἄ": 3780,
      "Ἅ": 3781,
      "Ἆ": 3782,
      "Ἇ": 3783,
      "ἐ": 3784,
      "ἑ": 3785,
      "ἒ": 3786,
      "ἓ": 3787,
      "ἔ": 3788,
      "ἕ": 3789,
      "Ἐ": 3790,
      "Ἑ": 3791,
      "Ἒ": 3792,
      "Ἓ": 3793,
      "Ἔ": 3794,
      "Ἕ": 3795,
      "ἠ": 3796,
      "ἡ": 3797,
      "ἢ": 3798,
      "ἣ": 3799,
      "ἤ": 3800,
      "ἥ": 3801,
      "ἦ": 3802,
      "ἧ": 3803,
      "Ἠ": 3804,
      "Ἡ": 3805,
      "Ἢ": 3806,
      "Ἣ": 3807,
      "Ἤ": 3808,
      "Ἥ": 3809,
      "Ἦ": 3810,
      "Ἧ": 3811,
      "ἰ": 3812,
      "ἱ": 3813,
      "ἲ": 3814,
      "ἳ": 3815,
      "ἴ": 3816,
      "ἵ": 3817,
      "ἶ": 3818,
      "ἷ": 3819,
      "Ἰ": 3820,
      "Ἱ": 3821,
      "Ἲ": 3822,
      "Ἳ": 3823,
      "Ἴ": 3824,
      "Ἵ": 3825,
      "Ἶ": 3826,
      "Ἷ": 3827,
      "ὀ": 3828,
      "ὁ": 3829,
      "ὂ": 3830,
      "ὃ": 3831,
      "ὄ": 3832,
      "ὅ": 3833,
      "Ὀ": 3834,
      "Ὁ": 3835,
      "Ὂ": 3836,
      "Ὃ": 3837,
      "Ὄ": 3838,
      "Ὅ": 3839,
      "ὐ": 3840,
      "ὑ": 3841,
      "ὒ": 3842,
      "ὓ": 3843,
      "ὔ": 3844,
      "ὕ": 3845,
      "ὖ": 3846,
      "ὗ": 3847,
      "Ὑ": 3848,
      "Ὓ": 3849,
      "Ὕ": 3850,
      "Ὗ": 3851,
      "ὠ": 3852,
      "ὡ": 3853,
      "ὢ": 3854,
      "ὣ": 3855,
      "ὤ": 3856,
      "ὥ": 3857,
      "ὦ": 3858,
      "ὧ": 3859,
      "Ὠ": 3860,
      "Ὡ": 3861,
      "Ὢ": 3862,
      "Ὣ": 3863,
      "Ὤ": 3864,
      "Ὥ": 3865,
      "Ὦ": 3866,
      "Ὧ": 3867,
      "ὰ": 3868,
      "ὲ": 3869,
      "ὴ": 3870,
      "ὶ": 3871,
      "ὸ": 3872,
      "ὺ": 3873,
      "ὼ": 3874,
      "ᾀ": 3875,
      "ᾁ": 3876,
      "ᾂ": 3877,
      "ᾃ": 3878,
      "ᾄ": 3879,
      "ᾅ": 3880,
      "ᾆ": 3881,
      "ᾇ": 3882,
      "ᾈ": 3883,
      "ᾉ": 3884,
      "ᾊ": 3885,
      "ᾋ": 3886,
      "ᾌ": 3887,
      "ᾍ": 3888,
      "ᾎ": 3889,
      "ᾏ": 3890,
      "ᾐ": 3891,
      "ᾑ": 3892,
      "ᾒ": 3893,
      "ᾓ": 3894,
      "ᾔ": 3895,
      "ᾕ": 3896,
      "ᾖ": 3897,
      "ᾗ": 3898,
      "ᾘ": 3899,
      "ᾙ": 3900,
      "ᾚ": 3901,
      "ᾛ": 3902,
      "ᾜ": 3903,
      "ᾝ": 3904,
      "ᾞ": 3905,
      "ᾟ": 3906,
      "ᾠ": 3907,
      "ᾡ": 3908,
      "ᾢ": 3909,
      "ᾣ": 3910,
      "ᾤ": 3911,
      "ᾥ": 3912,
      "ᾦ": 3913,
      "ᾧ": 3914,
      "ᾨ": 3915,
      "ᾩ": 3916,
      "ᾪ": 3917,
      "ᾫ": 3918,
      "ᾬ": 3919,
      "ᾭ": 3920,
      "ᾮ": 3921,
      "ᾯ": 3922,
      "ᾰ": 3923,
      "ᾱ": 3924,
      "ᾲ": 3925,
      "ᾳ": 3926,
      "ᾴ": 3927,
      "ᾶ": 3928,
      "ᾷ": 3929,
      "Ᾰ": 3930,
      "Ᾱ": 3931,
      "Ὰ": 3932,
      "ᾼ": 3933,
      "᾿": 3934,
      "ῂ": 3935,
      "ῃ": 3936,
      "ῄ": 3937,
      "ῆ": 3938,
      "ῇ": 3939,
      "Ὲ": 3940,
      "Ὴ": 3941,
      "ῌ": 3942,
      "῎": 3943,
      "ῐ": 3944,
      "ῑ": 3945,
      "ῒ": 3946,
      "ῖ": 3947,
      "ῗ": 3948,
      "Ῐ": 3949,
      "Ῑ": 3950,
      "Ὶ": 3951,
      "῞": 3952,
      "ῠ": 3953,
      "ῡ": 3954,
      "ῢ": 3955,
      "ῤ": 3956,
      "ῥ": 3957,
      "ῦ": 3958,
      "ῧ": 3959,
      "Ῠ": 3960,
      "Ῡ": 3961,
      "Ὺ": 3962,
      "Ῥ": 3963,
      "ῲ": 3964,
      "ῳ": 3965,
      "ῴ": 3966,
      "ῶ": 3967,
      "ῷ": 3968,
      "Ὸ": 3969,
      "Ὼ": 3970,
      "ῼ": 3971,
      "῾": 3972,
      " ": 3973,
      " ": 3974,
      " ": 3975,
      " ": 3976,
      "​": 3977,
      "‌": 3978,
      "‍": 3979,
      "‎": 3980,
      "‏": 3981,
      "‐": 3982,
      "‑": 3983,
      "‒": 3984,
      "–": 3985,
      "—": 3986,
      "―": 3987,
      "‖": 3988,
      "‘": 3989,
      "’": 3990,
      "‚": 3991,
      "‛": 3992,
      "“": 3993,
      "”": 3994,
      "„": 3995,
      "‟": 3996,
      "†": 3997,
      "‡": 3998,
      "•": 3999,
      "․": 4000,
      "‥": 4001,
      "…": 4002,
      "‧": 4003,
      "‪": 4004,
      "‫": 4005,
      "‬": 4006,
      "‭": 4007,
      " ": 4008,
      "‰": 4009,
      "‱": 4010,
      "′": 4011,
      "″": 4012,
      "‵": 4013,
      "‹": 4014,
      "›": 4015,
      "‽": 4016,
      "‿": 4017,
      "⁂": 4018,
      "⁄": 4019,
      "⁇": 4020,
      "⁈": 4021,
      "⁉": 4022,
      "⁊": 4023,
      "⁏": 4024,
      "⁑": 4025,
      "⁓": 4026,
      "⁙": 4027,
      "⁚": 4028,
      "⁠": 4029,
      "⁣": 4030,
      "⁨": 4031,
      "⁩": 4032,
      "⁪": 4033,
      "⁬": 4034,
      "ⁿ": 4035,
      "₁": 4036,
      "₂": 4037,
      "₃": 4038,
      "₠": 4039,
      "₡": 4040,
      "₢": 4041,
      "₣": 4042,
      "₥": 4043,
      "₦": 4044,
      "₩": 4045,
      "₪": 4046,
      "₫": 4047,
      "€": 4048,
      "₭": 4049,
      "₮": 4050,
      "₯": 4051,
      "₱": 4052,
      "₴": 4053,
      "₵": 4054,
      "₸": 4055,
      "₹": 4056,
      "₽": 4057,
      "₿": 4058,
      "⃁": 4059,
      "⃝": 4060,
      "⃣": 4061,
      "ℌ": 4062,
      "ℏ": 4063,
      "ℑ": 4064,
      "ℒ": 4065,
      "ℓ": 4066,
      "№": 4067,
      "℗": 4068,
      "℘": 4069,
      "ℛ": 4070,
      "ℜ": 4071,
      "℟": 4072,
      "™": 4073,
      "℧": 4074,
      "ℨ": 4075,
      "ℭ": 4076,
      "℮": 4077,
      "Ⅎ": 4078,
      "ℳ": 4079,
      "ℵ": 4080,
      "℺": 4081,
      "ⅆ": 4082,
      "ⅎ": 4083,
      "⅓": 4084,
      "⅛": 4085,
      "ↀ": 4086,
      "Ↄ": 4087,
      "ↄ": 4088,
      "←": 4089,
      "↑": 4090,
      "→": 4091,
      "↓": 4092,
      "↔": 4093,
      "↵": 4094,
      "⇌": 4095,
      "⇒": 4096,
      "⇕": 4097,
      "∂": 4098,
      "∃": 4099,
      "∅": 4100,
      "∆": 4101,
      "∈": 4102,
      "∏": 4103,
      "∑": 4104,
      "−": 4105,
      "√": 4106,
      "∛": 4107,
      "∜": 4108,
      "∝": 4109,
      "∞": 4110,
      "∟": 4111,
      "∣": 4112,
      "∧": 4113,
      "∩": 4114,
      "∪": 4115,
      "∫": 4116,
      "∬": 4117,
      "∭": 4118,
      "∮": 4119,
      "∴": 4120,
      "∷": 4121,
      "∼": 4122,
      "∿": 4123,
      "≃": 4124,
      "≅": 4125,
      "≈": 4126,
      "≋": 4127,
      "≙": 4128,
      "≜": 4129,
      "≠": 4130,
      "≡": 4131,
      "≤": 4132,
      "≥": 4133,
      "≦": 4134,
      "≧": 4135,
      "≨": 4136,
      "≩": 4137,
      "≪": 4138,
      "≫": 4139,
      "≮": 4140,
      "≯": 4141,
      "≰": 4142,
      "≱": 4143,
      "≲": 4144,
      "≳": 4145,
      "≴": 4146,
      "≵": 4147,
      "≻": 4148,
      "≽": 4149,
      "⊂": 4150,
      "⊃": 4151,
      "⊏": 4152,
      "⋅": 4153,
      "⋖": 4154,
      "⋗": 4155,
      "⋘": 4156,
      "⋙": 4157,
      "⋜": 4158,
      "⋝": 4159,
      "⋦": 4160,
      "⋧": 4161,
      "⋮": 4162,
      "⋯": 4163,
      "⋰": 4164,
      "⋱": 4165,
      "⌀": 4166,
      "⌂": 4167,
      "⌥": 4168,
      "⌧": 4169,
      "⍃": 4170,
      "⍄": 4171,
      "⍩": 4172,
      "⍰": 4173,
      "⍳": 4174,
      "⎓": 4175,
      "␢": 4176,
      "①": 4177,
      "②": 4178,
      "ⓠ": 4179,
      "ⓣ": 4180,
      "ⓨ": 4181,
      "─": 4182,
      "│": 4183,
      "└": 4184,
      "├": 4185,
      "╳": 4186,
      "▁": 4187,
      "■": 4188,
      "▪": 4189,
      "▲": 4190,
      "△": 4191,
      "◉": 4192,
      "○": 4193,
      "◌": 4194,
      "◎": 4195,
      "●": 4196,
      "◦": 4197,
      "◾": 4198,
      "★": 4199,
      "☆": 4200,
      "☉": 4201,
      "☐": 4202,
      "☒": 4203,
      "☓": 4204,
      "☙": 4205,
      "☠": 4206,
      "☥": 4207,
      "☧": 4208,
      "☹": 4209,
      "☺": 4210,
      "☻": 4211,
      "♀": 4212,
      "♂": 4213,
      "♇": 4214,
      "♕": 4215,
      "♛": 4216,
      "♠": 4217,
      "♣": 4218,
      "♥": 4219,
      "♦": 4220,
      "♭": 4221,
      "✓": 4222,
      "✔": 4223,
      "✕": 4224,
      "✖": 4225,
      "✗": 4226,
      "✘": 4227,
      "❌": 4228,
      "❎": 4229,
      "⟨": 4230,
      "⟩": 4231,
      "⟵": 4232,
      "⟶": 4233,
      "⠁": 4234,
      "⠂": 4235,
      "⠃": 4236,
      "⠄": 4237,
      "⠅": 4238,
      "⠇": 4239,
      "⠈": 4240,
      "⠉": 4241,
      "⠊": 4242,
      "⠋": 4243,
      "⠌": 4244,
      "⠍": 4245,
      "⠎": 4246,
      "⠐": 4247,
      "⠑": 4248,
      "⠒": 4249,
      "⠓": 4250,
      "⠔": 4251,
      "⠕": 4252,
      "⠖": 4253,
      "⠗": 4254,
      "⠙": 4255,
      "⠚": 4256,
      "⠜": 4257,
      "⠝": 4258,
      "⠞": 4259,
      "⠟": 4260,
      "⠠": 4261,
      "⠡": 4262,
      "⠢": 4263,
      "⠣": 4264,
      "⠤": 4265,
      "⠥": 4266,
      "⠦": 4267,
      "⠧": 4268,
      "⠨": 4269,
      "⠩": 4270,
      "⠪": 4271,
      "⠫": 4272,
      "⠭": 4273,
      "⠮": 4274,
      "⠯": 4275,
      "⠰": 4276,
      "⠱": 4277,
      "⠲": 4278,
      "⠳": 4279,
      "⠴": 4280,
      "⠵": 4281,
      "⠶": 4282,
      "⠷": 4283,
      "⠹": 4284,
      "⠺": 4285,
      "⠽": 4286,
      "⠾": 4287,
      "⠿": 4288,
      "⥶": 4289,
      "⥷": 4290,
      "⥸": 4291,
      "⦓": 4292,
      "⦔": 4293,
      "⦕": 4294,
      "⦖": 4295,
      "⧀": 4296,
      "⧁": 4297,
      "⧢": 4298,
      "⨉": 4299,
      "⨯": 4300,
      "⩹": 4301,
      "⩺": 4302,
      "⩻": 4303,
      "⩼": 4304,
      "⩽": 4305,
      "⩾": 4306,
      "⩿": 4307,
      "⪀": 4308,
      "⪁": 4309,
      "⪂": 4310,
      "⪃": 4311,
      "⪄": 4312,
      "⪅": 4313,
      "⪆": 4314,
      "⪇": 4315,
      "⪈": 4316,
      "⪉": 4317,
      "⪊": 4318,
      "⪍": 4319,
      "⪎": 4320,
      "⪕": 4321,
      "⪖": 4322,
      "⪗": 4323,
      "⪘": 4324,
      "⪙": 4325,
      "⪚": 4326,
      "⪛": 4327,
      "⪜": 4328,
      "⪝": 4329,
      "⪞": 4330,
      "⪟": 4331,
      "⪠": 4332,
      "⪡": 4333,
      "⪢": 4334,
      "⪣": 4335,
      "⪦": 4336,
      "⪧": 4337,
      "⪨": 4338,
      "⪩": 4339,
      "⫷": 4340,
      "⫸": 4341,
      "⫹": 4342,
      "⫺": 4343,
      "Ⰶ": 4344,
      "Ⰹ": 4345,
      "Ⰺ": 4346,
      "Ⰻ": 4347,
      "Ⱂ": 4348,
      "Ⱃ": 4349,
      "Ⱆ": 4350,
      "Ⱇ": 4351,
      "Ⱋ": 4352,
      "Ⱌ": 4353,
      "Ⱍ": 4354,
      "Ⱎ": 4355,
      "Ⱑ": 4356,
      "Ⱓ": 4357,
      "Ⱔ": 4358,
      "Ⱗ": 4359,
      "Ⱘ": 4360,
      "Ⱙ": 4361,
      "Ⱚ": 4362,
      "Ⱛ": 4363,
      "ⰰ": 4364,
      "ⰳ": 4365,
      "ⰻ": 4366,
      "ⰾ": 4367,
      "ⱁ": 4368,
      "ⱄ": 4369,
      "ⱆ": 4370,
      "ⱌ": 4371,
      "ⱏ": 4372,
      "Ⱡ": 4373,
      "ⱡ": 4374,
      "Ᵽ": 4375,
      "Ɽ": 4376,
      "ⱥ": 4377,
      "Ⱨ": 4378,
      "ⱨ": 4379,
      "Ⱪ": 4380,
      "ⱪ": 4381,
      "Ⱬ": 4382,
      "ⱬ": 4383,
      "Ɱ": 4384,
      "Ⱳ": 4385,
      "ⱳ": 4386,
      "Ⱶ": 4387,
      "ⱶ": 4388,
      "ⱸ": 4389,
      "ⱹ": 4390,
      "Ɀ": 4391,
      "Ⲁ": 4392,
      "ⲁ": 4393,
      "Ⲃ": 4394,
      "ⲃ": 4395,
      "Ⲅ": 4396,
      "ⲅ": 4397,
      "Ⲇ": 4398,
      "ⲇ": 4399,
      "Ⲉ": 4400,
      "ⲉ": 4401,
      "Ⲋ": 4402,
      "ⲋ": 4403,
      "Ⲍ": 4404,
      "ⲍ": 4405,
      "Ⲏ": 4406,
      "ⲏ": 4407,
      "Ⲑ": 4408,
      "ⲑ": 4409,
      "Ⲓ": 4410,
      "ⲓ": 4411,
      "Ⲕ": 4412,
      "ⲕ": 4413,
      "Ⲗ": 4414,
      "ⲗ": 4415,
      "Ⲙ": 4416,
      "ⲙ": 4417,
      "Ⲛ": 4418,
      "ⲛ": 4419,
      "Ⲝ": 4420,
      "ⲝ": 4421,
      "Ⲟ": 4422,
      "ⲟ": 4423,
      "Ⲡ": 4424,
      "ⲡ": 4425,
      "Ⲣ": 4426,
      "ⲣ": 4427,
      "Ⲥ": 4428,
      "ⲥ": 4429,
      "Ⲧ": 4430,
      "ⲧ": 4431,
      "ⲩ": 4432,
      "Ⲫ": 4433,
      "ⲫ": 4434,
      "Ⲭ": 4435,
      "ⲭ": 4436,
      "ⲯ": 4437,
      "Ⲱ": 4438,
      "ⲱ": 4439,
      "ⳉ": 4440,
      "Ⳝ": 4441,
      "Ⳟ": 4442,
      "ⳟ": 4443,
      "Ⳡ": 4444,
      "ⳡ": 4445,
      "ⳣ": 4446,
      "ⴍ": 4447,
      "ⴓ": 4448,
      "ⴣ": 4449,
      "ⴰ": 4450,
      "ⴱ": 4451,
      "ⴳ": 4452,
      "ⴵ": 4453,
      "ⴶ": 4454,
      "ⴷ": 4455,
      "ⴸ": 4456,
      "ⴹ": 4457,
      "ⴻ": 4458,
      "ⴼ": 4459,
      "ⴽ": 4460,
      "ⴾ": 4461,
      "ⵀ": 4462,
      "ⵂ": 4463,
      "ⵃ": 4464,
      "ⵄ": 4465,
      "ⵅ": 4466,
      "ⵆ": 4467,
      "ⵇ": 4468,
      "ⵈ": 4469,
      "ⵉ": 4470,
      "ⵊ": 4471,
      "ⵋ": 4472,
      "ⵌ": 4473,
      "ⵍ": 4474,
      "ⵎ": 4475,
      "ⵏ": 4476,
      "ⵓ": 4477,
      "ⵔ": 4478,
      "ⵕ": 4479,
      "ⵖ": 4480,
      "ⵗ": 4481,
      "ⵙ": 4482,
      "ⵚ": 4483,
      "ⵛ": 4484,
      "ⵜ": 4485,
      "ⵟ": 4486,
      "ⵠ": 4487,
      "ⵡ": 4488,
      "ⵢ": 4489,
      "ⵣ": 4490,
      "ⵥ": 4491,
      "ⵯ": 4492,
      "ⶓ": 4493,
      "ⶔ": 4494,
      "ⶕ": 4495,
      "ⶖ": 4496,
      "⸗": 4497,
      "⸘": 4498,
      "⸢": 4499,
      "⸣": 4500,
      "⸮": 4501,
      "⸲": 4502,
      "⸵": 4503,
      "⸺": 4504,
      "⹁": 4505,
      "⹔": 4506,
      "　": 4507,
      "、": 4508,
      "。": 4509,
      "〃": 4510,
      "々": 4511,
      "〈": 4512,
      "〉": 4513,
      "《": 4514,
      "》": 4515,
      "「": 4516,
      "」": 4517,
      "〜": 4518,
      "あ": 4519,
      "い": 4520,
      "う": 4521,
      "え": 4522,
      "お": 4523,
      "か": 4524,
      "が": 4525,
      "き": 4526,
      "ぎ": 4527,
      "く": 4528,
      "ぐ": 4529,
      "け": 4530,
      "げ": 4531,
      "こ": 4532,
      "ご": 4533,
      "さ": 4534,
      "ざ": 4535,
      "し": 4536,
      "じ": 4537,
      "す": 4538,
      "ず": 4539,
      "せ": 4540,
      "ぜ": 4541,
      "そ": 4542,
      "ぞ": 4543,
      "た": 4544,
      "だ": 4545,
      "ち": 4546,
      "ぢ": 4547,
      "っ": 4548,
      "つ": 4549,
      "づ": 4550,
      "て": 4551,
      "で": 4552,
      "と": 4553,
      "ど": 4554,
      "な": 4555,
      "に": 4556,
      "ぬ": 4557,
      "ね": 4558,
      "の": 4559,
      "は": 4560,
      "ば": 4561,
      "ぱ": 4562,
      "ひ": 4563,
      "び": 4564,
      "ぴ": 4565,
      "ふ": 4566,
      "ぶ": 4567,
      "ぷ": 4568,
      "へ": 4569,
      "べ": 4570,
      "ぺ": 4571,
      "ほ": 4572,
      "ぼ": 4573,
      "ぽ": 4574,
      "ま": 4575,
      "み": 4576,
      "む": 4577,
      "め": 4578,
      "も": 4579,
      "ゃ": 4580,
      "や": 4581,
      "ゅ": 4582,
      "ゆ": 4583,
      "ょ": 4584,
      "よ": 4585,
      "ら": 4586,
      "り": 4587,
      "る": 4588,
      "れ": 4589,
      "ろ": 4590,
      "わ": 4591,
      "ゐ": 4592,
      "ゑ": 4593,
      "を": 4594,
      "ん": 4595,
      "゚": 4596,
      "ァ": 4597,
      "ア": 4598,
      "ィ": 4599,
      "イ": 4600,
      "ゥ": 4601,
      "ウ": 4602,
      "ェ": 4603,
      "エ": 4604,
      "ォ": 4605,
      "オ": 4606,
      "カ": 4607,
      "ガ": 4608,
      "キ": 4609,
      "ギ": 4610,
      "ク": 4611,
      "グ": 4612,
      "ケ": 4613,
      "ゲ": 4614,
      "コ": 4615,
      "ゴ": 4616,
      "サ": 4617,
      "ザ": 4618,
      "シ": 4619,
      "ジ": 4620,
      "ス": 4621,
      "ズ": 4622,
      "セ": 4623,
      "ゼ": 4624,
      "ソ": 4625,
      "ゾ": 4626,
      "タ": 4627,
      "ダ": 4628,
      "チ": 4629,
      "ヂ": 4630,
      "ッ": 4631,
      "ツ": 4632,
      "ヅ": 4633,
      "テ": 4634,
      "デ": 4635,
      "ト": 4636,
      "ド": 4637,
      "ナ": 4638,
      "ニ": 4639,
      "ヌ": 4640,
      "ネ": 4641,
      "ノ": 4642,
      "ハ": 4643,
      "バ": 4644,
      "パ": 4645,
      "ヒ": 4646,
      "ビ": 4647,
      "ピ": 4648,
      "フ": 4649,
      "ブ": 4650,
      "プ": 4651,
      "ヘ": 4652,
      "ベ": 4653,
      "ペ": 4654,
      "ホ": 4655,
      "ボ": 4656,
      "ポ": 4657,
      "マ": 4658,
      "ミ": 4659,
      "ム": 4660,
      "メ": 4661,
      "モ": 4662,
      "ャ": 4663,
      "ヤ": 4664,
      "ュ": 4665,
      "ユ": 4666,
      "ョ": 4667,
      "ヨ": 4668,
      "ラ": 4669,
      "リ": 4670,
      "ル": 4671,
      "レ": 4672,
      "ロ": 4673,
      "ヮ": 4674,
      "ワ": 4675,
      "ン": 4676,
      "ヴ": 4677,
      "・": 4678,
      "ー": 4679,
      "ㄅ": 4680,
      "ㄆ": 4681,
      "ㄇ": 4682,
      "ㄈ": 4683,
      "ㄉ": 4684,
      "ㄊ": 4685,
      "ㄋ": 4686,
      "ㄌ": 4687,
      "ㄍ": 4688,
      "ㄎ": 4689,
      "ㄏ": 4690,
      "ㄐ": 4691,
      "ㄑ": 4692,
      "ㄒ": 4693,
      "ㄓ": 4694,
      "ㄔ": 4695,
      "ㄕ": 4696,
      "ㄖ": 4697,
      "ㄗ": 4698,
      "ㄘ": 4699,
      "ㄙ": 4700,
      "ㄚ": 4701,
      "ㄛ": 4702,
      "ㄜ": 4703,
      "ㄝ": 4704,
      "ㄞ": 4705,
      "ㄟ": 4706,
      "ㄠ": 4707,
      "ㄡ": 4708,
      "ㄢ": 4709,
      "ㄣ": 4710,
      "ㄤ": 4711,
      "ㄥ": 4712,
      "ㄦ": 4713,
      "ㄧ": 4714,
      "ㄨ": 4715,
      "ㄩ": 4716,
      "ㄫ": 4717,
      "ㄭ": 4718,
      "ㄱ": 4719,
      "ㄲ": 4720,
      "ㄴ": 4721,
      "ㄷ": 4722,
      "ㄸ": 4723,
      "ㄹ": 4724,
      "ㅁ": 4725,
      "ㅂ": 4726,
      "ㅃ": 4727,
      "ㅅ": 4728,
      "ㅆ": 4729,
      "ㅇ": 4730,
      "ㅈ": 4731,
      "ㅉ": 4732,
      "ㅊ": 4733,
      "ㅋ": 4734,
      "ㅌ": 4735,
      "ㅍ": 4736,
      "ㅎ": 4737,
      "ㅏ": 4738,
      "ㅐ": 4739,
      "ㅑ": 4740,
      "ㅒ": 4741,
      "ㅓ": 4742,
      "ㅔ": 4743,
      "ㅕ": 4744,
      "ㅖ": 4745,
      "ㅗ": 4746,
      "ㅘ": 4747,
      "ㅙ": 4748,
      "ㅚ": 4749,
      "ㅛ": 4750,
      "ㅜ": 4751,
      "ㅝ": 4752,
      "ㅞ": 4753,
      "ㅟ": 4754,
      "ㅠ": 4755,
      "ㅡ": 4756,
      "ㅢ": 4757,
      "ㅣ": 4758,
      "ㅤ": 4759,
      "ㆠ": 4760,
      "ㆡ": 4761,
      "ㆢ": 4762,
      "ㆣ": 4763,
      "ㆤ": 4764,
      "ㆥ": 4765,
      "ㆦ": 4766,
      "ㆧ": 4767,
      "ㆩ": 4768,
      "ㆪ": 4769,
      "ㆫ": 4770,
      "ㆬ": 4771,
      "ㆭ": 4772,
      "ㆴ": 4773,
      "ㆵ": 4774,
      "ㆶ": 4775,
      "ㆷ": 4776,
      "一": 4777,
      "万": 4778,
      "三": 4779,
      "上": 4780,
      "不": 4781,
      "与": 4782,
      "世": 4783,
      "严": 4784,
      "个": 4785,
      "中": 4786,
      "丸": 4787,
      "为": 4788,
      "主": 4789,
      "乃": 4790,
      "之": 4791,
      "乐": 4792,
      "乙": 4793,
      "九": 4794,
      "乾": 4795,
      "予": 4796,
      "争": 4797,
      "事": 4798,
      "二": 4799,
      "于": 4800,
      "五": 4801,
      "些": 4802,
      "交": 4803,
      "亦": 4804,
      "京": 4805,
      "亮": 4806,
      "人": 4807,
      "仄": 4808,
      "仍": 4809,
      "他": 4810,
      "仝": 4811,
      "以": 4812,
      "们": 4813,
      "仰": 4814,
      "件": 4815,
      "份": 4816,
      "伊": 4817,
      "伐": 4818,
      "优": 4819,
      "伙": 4820,
      "会": 4821,
      "伪": 4822,
      "伯": 4823,
      "伽": 4824,
      "但": 4825,
      "余": 4826,
      "佛": 4827,
      "作": 4828,
      "你": 4829,
      "使": 4830,
      "來": 4831,
      "侍": 4832,
      "俔": 4833,
      "信": 4834,
      "俩": 4835,
      "修": 4836,
      "個": 4837,
      "們": 4838,
      "倫": 4839,
      "偶": 4840,
      "偽": 4841,
      "傍": 4842,
      "像": 4843,
      "儿": 4844,
      "元": 4845,
      "光": 4846,
      "克": 4847,
      "兒": 4848,
      "党": 4849,
      "入": 4850,
      "兩": 4851,
      "公": 4852,
      "六": 4853,
      "其": 4854,
      "典": 4855,
      "冀": 4856,
      "冊": 4857,
      "册": 4858,
      "决": 4859,
      "况": 4860,
      "凡": 4861,
      "凯": 4862,
      "凱": 4863,
      "出": 4864,
      "分": 4865,
      "切": 4866,
      "刘": 4867,
      "刚": 4868,
      "初": 4869,
      "判": 4870,
      "刮": 4871,
      "制": 4872,
      "刻": 4873,
      "剌": 4874,
      "前": 4875,
      "剛": 4876,
      "劇": 4877,
      "劉": 4878,
      "力": 4879,
      "功": 4880,
      "加": 4881,
      "勒": 4882,
      "勤": 4883,
      "勱": 4884,
      "化": 4885,
      "北": 4886,
      "十": 4887,
      "千": 4888,
      "南": 4889,
      "卷": 4890,
      "历": 4891,
      "厥": 4892,
      "去": 4893,
      "友": 4894,
      "口": 4895,
      "古": 4896,
      "可": 4897,
      "史": 4898,
      "号": 4899,
      "司": 4900,
      "合": 4901,
      "吗": 4902,
      "吞": 4903,
      "启": 4904,
      "吴": 4905,
      "吹": 4906,
      "呀": 4907,
      "呂": 4908,
      "呼": 4909,
      "命": 4910,
      "咄": 4911,
      "和": 4912,
      "咕": 4913,
      "咪": 4914,
      "哈": 4915,
      "員": 4916,
      "哥": 4917,
      "哦": 4918,
      "問": 4919,
      "善": 4920,
      "喜": 4921,
      "営": 4922,
      "嘉": 4923,
      "嘗": 4924,
      "嚴": 4925,
      "四": 4926,
      "回": 4927,
      "因": 4928,
      "団": 4929,
      "困": 4930,
      "固": 4931,
      "国": 4932,
      "國": 4933,
      "圏": 4934,
      "圓": 4935,
      "圢": 4936,
      "在": 4937,
      "地": 4938,
      "场": 4939,
      "均": 4940,
      "块": 4941,
      "坚": 4942,
      "坛": 4943,
      "垢": 4944,
      "城": 4945,
      "堯": 4946,
      "報": 4947,
      "塊": 4948,
      "塔": 4949,
      "填": 4950,
      "境": 4951,
      "壁": 4952,
      "壇": 4953,
      "处": 4954,
      "复": 4955,
      "外": 4956,
      "多": 4957,
      "夤": 4958,
      "大": 4959,
      "天": 4960,
      "太": 4961,
      "夫": 4962,
      "头": 4963,
      "奥": 4964,
      "奧": 4965,
      "女": 4966,
      "奴": 4967,
      "姆": 4968,
      "姓": 4969,
      "委": 4970,
      "娃": 4971,
      "娇": 4972,
      "婆": 4973,
      "子": 4974,
      "孕": 4975,
      "孤": 4976,
      "学": 4977,
      "孫": 4978,
      "學": 4979,
      "宇": 4980,
      "安": 4981,
      "宏": 4982,
      "宗": 4983,
      "官": 4984,
      "定": 4985,
      "宜": 4986,
      "宝": 4987,
      "実": 4988,
      "家": 4989,
      "宽": 4990,
      "寫": 4991,
      "寬": 4992,
      "寰": 4993,
      "寶": 4994,
      "將": 4995,
      "尉": 4996,
      "導": 4997,
      "小": 4998,
      "尔": 4999,
      "尖": 5000,
      "尸": 5001,
      "尼": 5002,
      "局": 5003,
      "属": 5004,
      "屠": 5005,
      "屬": 5006,
      "岁": 5007,
      "岳": 5008,
      "岸": 5009,
      "島": 5010,
      "嵌": 5011,
      "嵐": 5012,
      "州": 5013,
      "左": 5014,
      "巫": 5015,
      "差": 5016,
      "巴": 5017,
      "市": 5018,
      "布": 5019,
      "希": 5020,
      "帖": 5021,
      "師": 5022,
      "干": 5023,
      "平": 5024,
      "年": 5025,
      "幹": 5026,
      "庁": 5027,
      "应": 5028,
      "府": 5029,
      "废": 5030,
      "廢": 5031,
      "式": 5032,
      "弘": 5033,
      "張": 5034,
      "強": 5035,
      "归": 5036,
      "录": 5037,
      "影": 5038,
      "彷": 5039,
      "彼": 5040,
      "得": 5041,
      "徳": 5042,
      "德": 5043,
      "忌": 5044,
      "忘": 5045,
      "忠": 5046,
      "怖": 5047,
      "怛": 5048,
      "思": 5049,
      "急": 5050,
      "性": 5051,
      "总": 5052,
      "恐": 5053,
      "恩": 5054,
      "恶": 5055,
      "悒": 5056,
      "悫": 5057,
      "情": 5058,
      "惡": 5059,
      "想": 5060,
      "意": 5061,
      "愛": 5062,
      "愷": 5063,
      "應": 5064,
      "戏": 5065,
      "成": 5066,
      "我": 5067,
      "战": 5068,
      "戦": 5069,
      "戰": 5070,
      "戲": 5071,
      "戶": 5072,
      "户": 5073,
      "戸": 5074,
      "手": 5075,
      "承": 5076,
      "技": 5077,
      "折": 5078,
      "护": 5079,
      "拂": 5080,
      "拉": 5081,
      "拜": 5082,
      "拨": 5083,
      "括": 5084,
      "拽": 5085,
      "指": 5086,
      "挑": 5087,
      "振": 5088,
      "捐": 5089,
      "据": 5090,
      "提": 5091,
      "揭": 5092,
      "摩": 5093,
      "摺": 5094,
      "撒": 5095,
      "撥": 5096,
      "攻": 5097,
      "敌": 5098,
      "教": 5099,
      "散": 5100,
      "敦": 5101,
      "敬": 5102,
      "敵": 5103,
      "文": 5104,
      "斤": 5105,
      "斯": 5106,
      "方": 5107,
      "施": 5108,
      "旋": 5109,
      "无": 5110,
      "日": 5111,
      "旨": 5112,
      "昂": 5113,
      "昆": 5114,
      "昌": 5115,
      "明": 5116,
      "星": 5117,
      "昭": 5118,
      "是": 5119,
      "時": 5120,
      "暴": 5121,
      "曆": 5122,
      "曜": 5123,
      "更": 5124,
      "曷": 5125,
      "書": 5126,
      "曽": 5127,
      "曾": 5128,
      "有": 5129,
      "朏": 5130,
      "望": 5131,
      "朝": 5132,
      "期": 5133,
      "木": 5134,
      "本": 5135,
      "札": 5136,
      "李": 5137,
      "杜": 5138,
      "条": 5139,
      "来": 5140,
      "杨": 5141,
      "東": 5142,
      "林": 5143,
      "柏": 5144,
      "柔": 5145,
      "查": 5146,
      "柳": 5147,
      "柴": 5148,
      "标": 5149,
      "校": 5150,
      "株": 5151,
      "根": 5152,
      "格": 5153,
      "桔": 5154,
      "棋": 5155,
      "楚": 5156,
      "業": 5157,
      "榆": 5158,
      "榕": 5159,
      "槹": 5160,
      "樂": 5161,
      "檀": 5162,
      "次": 5163,
      "武": 5164,
      "歪": 5165,
      "歲": 5166,
      "歸": 5167,
      "段": 5168,
      "毗": 5169,
      "毛": 5170,
      "氏": 5171,
      "民": 5172,
      "気": 5173,
      "水": 5174,
      "永": 5175,
      "求": 5176,
      "汗": 5177,
      "江": 5178,
      "污": 5179,
      "汫": 5180,
      "決": 5181,
      "沂": 5182,
      "沈": 5183,
      "河": 5184,
      "況": 5185,
      "法": 5186,
      "波": 5187,
      "泥": 5188,
      "注": 5189,
      "洗": 5190,
      "活": 5191,
      "流": 5192,
      "浜": 5193,
      "海": 5194,
      "淨": 5195,
      "淮": 5196,
      "混": 5197,
      "湖": 5198,
      "源": 5199,
      "滋": 5200,
      "潮": 5201,
      "澤": 5202,
      "濕": 5203,
      "濟": 5204,
      "点": 5205,
      "為": 5206,
      "烏": 5207,
      "热": 5208,
      "無": 5209,
      "煌": 5210,
      "煎": 5211,
      "照": 5212,
      "煲": 5213,
      "熱": 5214,
      "爐": 5215,
      "爱": 5216,
      "爸": 5217,
      "片": 5218,
      "牛": 5219,
      "特": 5220,
      "独": 5221,
      "玄": 5222,
      "玉": 5223,
      "王": 5224,
      "玫": 5225,
      "球": 5226,
      "理": 5227,
      "瓦": 5228,
      "瓶": 5229,
      "生": 5230,
      "用": 5231,
      "田": 5232,
      "由": 5233,
      "画": 5234,
      "界": 5235,
      "略": 5236,
      "疾": 5237,
      "癌": 5238,
      "百": 5239,
      "的": 5240,
      "皮": 5241,
      "盆": 5242,
      "盘": 5243,
      "盛": 5244,
      "盤": 5245,
      "盧": 5246,
      "目": 5247,
      "直": 5248,
      "看": 5249,
      "県": 5250,
      "眞": 5251,
      "真": 5252,
      "眠": 5253,
      "眼": 5254,
      "着": 5255,
      "睛": 5256,
      "督": 5257,
      "瞧": 5258,
      "石": 5259,
      "砂": 5260,
      "破": 5261,
      "硕": 5262,
      "碎": 5263,
      "碑": 5264,
      "碰": 5265,
      "礼": 5266,
      "社": 5267,
      "祖": 5268,
      "神": 5269,
      "祭": 5270,
      "禄": 5271,
      "福": 5272,
      "禮": 5273,
      "禺": 5274,
      "科": 5275,
      "秘": 5276,
      "究": 5277,
      "穷": 5278,
      "空": 5279,
      "突": 5280,
      "窮": 5281,
      "窯": 5282,
      "立": 5283,
      "竟": 5284,
      "章": 5285,
      "笑": 5286,
      "符": 5287,
      "第": 5288,
      "算": 5289,
      "米": 5290,
      "粒": 5291,
      "精": 5292,
      "約": 5293,
      "納": 5294,
      "素": 5295,
      "索": 5296,
      "経": 5297,
      "給": 5298,
      "絵": 5299,
      "經": 5300,
      "綜": 5301,
      "線": 5302,
      "練": 5303,
      "縛": 5304,
      "约": 5305,
      "纳": 5306,
      "纸": 5307,
      "练": 5308,
      "经": 5309,
      "结": 5310,
      "罗": 5311,
      "羅": 5312,
      "羊": 5313,
      "美": 5314,
      "義": 5315,
      "羽": 5316,
      "翁": 5317,
      "老": 5318,
      "者": 5319,
      "耆": 5320,
      "耐": 5321,
      "耶": 5322,
      "耿": 5323,
      "聖": 5324,
      "聚": 5325,
      "聯": 5326,
      "肖": 5327,
      "育": 5328,
      "胡": 5329,
      "胤": 5330,
      "脚": 5331,
      "脳": 5332,
      "腳": 5333,
      "膠": 5334,
      "與": 5335,
      "船": 5336,
      "良": 5337,
      "芥": 5338,
      "芽": 5339,
      "若": 5340,
      "苦": 5341,
      "茄": 5342,
      "茎": 5343,
      "茶": 5344,
      "荣": 5345,
      "菜": 5346,
      "華": 5347,
      "菻": 5348,
      "萬": 5349,
      "落": 5350,
      "著": 5351,
      "葛": 5352,
      "蒲": 5353,
      "蓋": 5354,
      "蕭": 5355,
      "蕻": 5356,
      "薩": 5357,
      "藏": 5358,
      "藤": 5359,
      "蘭": 5360,
      "虔": 5361,
      "號": 5362,
      "蛋": 5363,
      "蛮": 5364,
      "蝉": 5365,
      "蠕": 5366,
      "血": 5367,
      "行": 5368,
      "術": 5369,
      "衣": 5370,
      "衫": 5371,
      "衷": 5372,
      "裁": 5373,
      "裝": 5374,
      "西": 5375,
      "要": 5376,
      "觐": 5377,
      "解": 5378,
      "言": 5379,
      "記": 5380,
      "訟": 5381,
      "設": 5382,
      "詩": 5383,
      "誉": 5384,
      "語": 5385,
      "說": 5386,
      "説": 5387,
      "調": 5388,
      "論": 5389,
      "講": 5390,
      "護": 5391,
      "记": 5392,
      "论": 5393,
      "讼": 5394,
      "证": 5395,
      "诠": 5396,
      "象": 5397,
      "賀": 5398,
      "质": 5399,
      "贾": 5400,
      "赛": 5401,
      "走": 5402,
      "超": 5403,
      "趙": 5404,
      "足": 5405,
      "路": 5406,
      "践": 5407,
      "車": 5408,
      "軍": 5409,
      "輝": 5410,
      "輶": 5411,
      "车": 5412,
      "达": 5413,
      "这": 5414,
      "述": 5415,
      "逆": 5416,
      "途": 5417,
      "這": 5418,
      "過": 5419,
      "遐": 5420,
      "道": 5421,
      "達": 5422,
      "邊": 5423,
      "郎": 5424,
      "部": 5425,
      "都": 5426,
      "鄯": 5427,
      "酸": 5428,
      "釀": 5429,
      "采": 5430,
      "释": 5431,
      "里": 5432,
      "重": 5433,
      "金": 5434,
      "釘": 5435,
      "錦": 5436,
      "録": 5437,
      "鑒": 5438,
      "钉": 5439,
      "铁": 5440,
      "铮": 5441,
      "锦": 5442,
      "長": 5443,
      "門": 5444,
      "開": 5445,
      "闇": 5446,
      "闘": 5447,
      "问": 5448,
      "阳": 5449,
      "阿": 5450,
      "陀": 5451,
      "降": 5452,
      "陳": 5453,
      "陵": 5454,
      "陽": 5455,
      "隻": 5456,
      "雅": 5457,
      "雜": 5458,
      "雪": 5459,
      "霍": 5460,
      "青": 5461,
      "靖": 5462,
      "靜": 5463,
      "非": 5464,
      "韓": 5465,
      "音": 5466,
      "順": 5467,
      "頭": 5468,
      "額": 5469,
      "類": 5470,
      "風": 5471,
      "飛": 5472,
      "飞": 5473,
      "食": 5474,
      "香": 5475,
      "馬": 5476,
      "駙": 5477,
      "马": 5478,
      "高": 5479,
      "鸡": 5480,
      "鹽": 5481,
      "麻": 5482,
      "齋": 5483,
      "龔": 5484,
      "Ꙇ": 5485,
      "Ꙉ": 5486,
      "ꙉ": 5487,
      "Ꙋ": 5488,
      "ꙋ": 5489,
      "Ꙍ": 5490,
      "ꙍ": 5491,
      "Ꙏ": 5492,
      "Ꙑ": 5493,
      "ꙑ": 5494,
      "Ꙗ": 5495,
      "ꙗ": 5496,
      "Ꙟ": 5497,
      "ꙟ": 5498,
      "Ꙡ": 5499,
      "ꙡ": 5500,
      "ꙫ": 5501,
      "꙰": 5502,
      "꙱": 5503,
      "꙲": 5504,
      "꙼": 5505,
      "Ꚗ": 5506,
      "ꚗ": 5507,
      "ꚝ": 5508,
      "Ꜣ": 5509,
      "ꜣ": 5510,
      "Ꜥ": 5511,
      "ꜥ": 5512,
      "Ꜧ": 5513,
      "ꜧ": 5514,
      "Ꜿ": 5515,
      "ꜿ": 5516,
      "Ꝁ": 5517,
      "ꝁ": 5518,
      "Ꝃ": 5519,
      "ꝃ": 5520,
      "Ꝅ": 5521,
      "ꝅ": 5522,
      "Ꝉ": 5523,
      "ꝉ": 5524,
      "Ꝋ": 5525,
      "ꝋ": 5526,
      "ꝏ": 5527,
      "Ꝑ": 5528,
      "ꝑ": 5529,
      "Ꝓ": 5530,
      "ꝓ": 5531,
      "Ꝕ": 5532,
      "ꝕ": 5533,
      "Ꝗ": 5534,
      "ꝗ": 5535,
      "Ꝙ": 5536,
      "ꝙ": 5537,
      "Ꝛ": 5538,
      "ꝛ": 5539,
      "ꝝ": 5540,
      "ꝫ": 5541,
      "ꝭ": 5542,
      "ꝯ": 5543,
      "ꝵ": 5544,
      "ꝶ": 5545,
      "Ꝺ": 5546,
      "ꝺ": 5547,
      "Ꝼ": 5548,
      "ꝼ": 5549,
      "Ᵹ": 5550,
      "Ꝿ": 5551,
      "ꝿ": 5552,
      "Ꞁ": 5553,
      "ꞁ": 5554,
      "Ꞃ": 5555,
      "ꞃ": 5556,
      "Ꞇ": 5557,
      "ꞇ": 5558,
      "Ɥ": 5559,
      "Ꞑ": 5560,
      "ꞑ": 5561,
      "Ꞓ": 5562,
      "ꞓ": 5563,
      "ꞔ": 5564,
      "ꞕ": 5565,
      "Ꞗ": 5566,
      "ꞗ": 5567,
      "Ꞙ": 5568,
      "ꞙ": 5569,
      "Ꞡ": 5570,
      "ꞡ": 5571,
      "Ꞣ": 5572,
      "ꞣ": 5573,
      "Ꞥ": 5574,
      "ꞥ": 5575,
      "Ꞧ": 5576,
      "ꞧ": 5577,
      "Ɜ": 5578,
      "Ɪ": 5579,
      "ꞯ": 5580,
      "Ʞ": 5581,
      "Ʇ": 5582,
      "Ꞽ": 5583,
      "ꞽ": 5584,
      "Ꟃ": 5585,
      "ꟃ": 5586,
      "Ꞔ": 5587,
      "Ꟈ": 5588,
      "ꟈ": 5589,
      "Ꟑ": 5590,
      "ꟑ": 5591,
      "ꟲ": 5592,
      "ꟳ": 5593,
      "ꟴ": 5594,
      "Ꟶ": 5595,
      "ꟶ": 5596,
      "ꟷ": 5597,
      "ꟸ": 5598,
      "ꟻ": 5599,
      "ꟼ": 5600,
      "ꟽ": 5601,
      "ꟾ": 5602,
      "ꟿ": 5603,
      "꠆": 5604,
      "꣐": 5605,
      "꣑": 5606,
      "꣒": 5607,
      "꣓": 5608,
      "꣔": 5609,
      "꣕": 5610,
      "꣖": 5611,
      "꣗": 5612,
      "꣘": 5613,
      "꣙": 5614,
      "꥓": 5615,
      "ꦁ": 5616,
      "ꦉ": 5617,
      "ꦊ": 5618,
      "ꦋ": 5619,
      "ꦏ": 5620,
      "ꦒ": 5621,
      "ꦓ": 5622,
      "ꦔ": 5623,
      "ꦗ": 5624,
      "ꦚ": 5625,
      "ꦝ": 5626,
      "ꦟ": 5627,
      "ꦤ": 5628,
      "ꦥ": 5629,
      "ꦩ": 5630,
      "ꦫ": 5631,
      "ꦭ": 5632,
      "ꦮ": 5633,
      "ꦱ": 5634,
      "ꦲ": 5635,
      "꦳": 5636,
      "ꦴ": 5637,
      "ꦶ": 5638,
      "ꦸ": 5639,
      "ꦼ": 5640,
      "ꦾ": 5641,
      "ꦿ": 5642,
      "꧀": 5643,
      "꧐": 5644,
      "꧑": 5645,
      "꧒": 5646,
      "꧓": 5647,
      "꧔": 5648,
      "꧕": 5649,
      "꧖": 5650,
      "꧗": 5651,
      "꧘": 5652,
      "꧙": 5653,
      "ꨀ": 5654,
      "ꨁ": 5655,
      "ꨂ": 5656,
      "ꨃ": 5657,
      "ꨄ": 5658,
      "ꨅ": 5659,
      "ꨆ": 5660,
      "ꨇ": 5661,
      "ꨈ": 5662,
      "ꨉ": 5663,
      "ꨋ": 5664,
      "ꨌ": 5665,
      "ꨍ": 5666,
      "ꨎ": 5667,
      "ꨏ": 5668,
      "ꨑ": 5669,
      "ꨓ": 5670,
      "ꨔ": 5671,
      "ꨕ": 5672,
      "ꨖ": 5673,
      "ꨘ": 5674,
      "ꨚ": 5675,
      "ꨜ": 5676,
      "ꨝ": 5677,
      "ꨞ": 5678,
      "ꨠ": 5679,
      "ꨢ": 5680,
      "ꨣ": 5681,
      "ꨤ": 5682,
      "ꨥ": 5683,
      "ꨦ": 5684,
      "ꨧ": 5685,
      "ꨨ": 5686,
      "ꨩ": 5687,
      "ꨪ": 5688,
      "ꨫ": 5689,
      "ꨭ": 5690,
      "ꨮ": 5691,
      "ꨯ": 5692,
      "ꨰ": 5693,
      "ꨱ": 5694,
      "ꨴ": 5695,
      "ꨵ": 5696,
      "ꩀ": 5697,
      "ꩌ": 5698,
      "ꩍ": 5699,
      "꩐": 5700,
      "꩑": 5701,
      "꩒": 5702,
      "꩓": 5703,
      "꩔": 5704,
      "꩕": 5705,
      "꩖": 5706,
      "꩗": 5707,
      "꩘": 5708,
      "꩙": 5709,
      "ꬵ": 5710,
      "ꬶ": 5711,
      "ꭓ": 5712,
      "ꭨ": 5713,
      "ꯀ": 5714,
      "ꯁ": 5715,
      "ꯂ": 5716,
      "ꯃ": 5717,
      "ꯄ": 5718,
      "ꯅ": 5719,
      "ꯆ": 5720,
      "ꯈ": 5721,
      "ꯉ": 5722,
      "ꯊ": 5723,
      "ꯋ": 5724,
      "ꯌ": 5725,
      "ꯍ": 5726,
      "ꯎ": 5727,
      "ꯏ": 5728,
      "ꯐ": 5729,
      "ꯑ": 5730,
      "ꯒ": 5731,
      "ꯓ": 5732,
      "ꯔ": 5733,
      "ꯕ": 5734,
      "ꯖ": 5735,
      "ꯗ": 5736,
      "ꯘ": 5737,
      "ꯙ": 5738,
      "ꯚ": 5739,
      "ꯛ": 5740,
      "ꯜ": 5741,
      "ꯝ": 5742,
      "ꯞ": 5743,
      "ꯟ": 5744,
      "ꯠ": 5745,
      "ꯡ": 5746,
      "ꯢ": 5747,
      "ꯣ": 5748,
      "ꯤ": 5749,
      "ꯥ": 5750,
      "ꯦ": 5751,
      "ꯧ": 5752,
      "ꯨ": 5753,
      "ꯩ": 5754,
      "ꯪ": 5755,
      "꯰": 5756,
      "꯱": 5757,
      "꯲": 5758,
      "꯳": 5759,
      "꯴": 5760,
      "꯵": 5761,
      "꯶": 5762,
      "꯷": 5763,
      "꯸": 5764,
      "꯹": 5765,
      "가": 5766,
      "갓": 5767,
      "건": 5768,
      "것": 5769,
      "게": 5770,
      "고": 5771,
      "교": 5772,
      "국": 5773,
      "굴": 5774,
      "굿": 5775,
      "글": 5776,
      "기": 5777,
      "길": 5778,
      "꾸": 5779,
      "끼": 5780,
      "나": 5781,
      "냐": 5782,
      "느": 5783,
      "는": 5784,
      "니": 5785,
      "다": 5786,
      "대": 5787,
      "도": 5788,
      "독": 5789,
      "들": 5790,
      "땅": 5791,
      "떻": 5792,
      "라": 5793,
      "란": 5794,
      "람": 5795,
      "례": 5796,
      "로": 5797,
      "르": 5798,
      "름": 5799,
      "리": 5800,
      "만": 5801,
      "모": 5802,
      "문": 5803,
      "물": 5804,
      "민": 5805,
      "바": 5806,
      "번": 5807,
      "베": 5808,
      "별": 5809,
      "본": 5810,
      "사": 5811,
      "산": 5812,
      "선": 5813,
      "성": 5814,
      "세": 5815,
      "셍": 5816,
      "수": 5817,
      "술": 5818,
      "스": 5819,
      "시": 5820,
      "아": 5821,
      "않": 5822,
      "야": 5823,
      "양": 5824,
      "어": 5825,
      "에": 5826,
      "엘": 5827,
      "역": 5828,
      "왜": 5829,
      "요": 5830,
      "우": 5831,
      "유": 5832,
      "은": 5833,
      "음": 5834,
      "의": 5835,
      "이": 5836,
      "일": 5837,
      "입": 5838,
      "적": 5839,
      "정": 5840,
      "제": 5841,
      "조": 5842,
      "주": 5843,
      "준": 5844,
      "중": 5845,
      "쥐": 5846,
      "지": 5847,
      "차": 5848,
      "청": 5849,
      "쳇": 5850,
      "치": 5851,
      "카": 5852,
      "퀴": 5853,
      "키": 5854,
      "타": 5855,
      "태": 5856,
      "특": 5857,
      "파": 5858,
      "판": 5859,
      "필": 5860,
      "하": 5861,
      "학": 5862,
      "한": 5863,
      "헌": 5864,
      "현": 5865,
      "훈": 5866,
      "희": 5867,
      "ﬀ": 5868,
      "ﬁ": 5869,
      "ﬞ": 5870,
      "ﬡ": 5871,
      "ﬢ": 5872,
      "ﬣ": 5873,
      "ﬤ": 5874,
      "ﬥ": 5875,
      "ﬦ": 5876,
      "ﬧ": 5877,
      "ﬨ": 5878,
      "ﭑ": 5879,
      "ﭖ": 5880,
      "ﭞ": 5881,
      "ﭠ": 5882,
      "ﭺ": 5883,
      "ﭼ": 5884,
      "ﮊ": 5885,
      "ﮏ": 5886,
      "ﮑ": 5887,
      "ﮒ": 5888,
      "ﮔ": 5889,
      "ﮞ": 5890,
      "ﮟ": 5891,
      "ﯓ": 5892,
      "ﯗ": 5893,
      "ﳊ": 5894,
      "ﳌ": 5895,
      "﴾": 5896,
      "﴿": 5897,
      "ﷲ": 5898,
      "ﷺ": 5899,
      "ﷻ": 5900,
      "﷼": 5901,
      "️": 5902,
      "︙": 5903,
      "︠": 5904,
      "︡": 5905,
      "︦": 5906,
      "︮": 5907,
      "︯": 5908,
      "﹅": 5909,
      "﹆": 5910,
      "﹤": 5911,
      "﹥": 5912,
      "ﹾ": 5913,
      "ﺀ": 5914,
      "ﺁ": 5915,
      "ﺃ": 5916,
      "ﺄ": 5917,
      "ﺅ": 5918,
      "ﺆ": 5919,
      "ﺍ": 5920,
      "ﺎ": 5921,
      "ﺏ": 5922,
      "ﺑ": 5923,
      "ﺒ": 5924,
      "ﺔ": 5925,
      "ﺕ": 5926,
      "ﺖ": 5927,
      "ﺗ": 5928,
      "ﺘ": 5929,
      "ﺙ": 5930,
      "ﺜ": 5931,
      "ﺝ": 5932,
      "ﺞ": 5933,
      "ﺟ": 5934,
      "ﺠ": 5935,
      "ﺡ": 5936,
      "ﺢ": 5937,
      "ﺣ": 5938,
      "ﺤ": 5939,
      "ﺥ": 5940,
      "ﺨ": 5941,
      "ﺩ": 5942,
      "ﺪ": 5943,
      "ﺫ": 5944,
      "ﺬ": 5945,
      "ﺭ": 5946,
      "ﺮ": 5947,
      "ﺯ": 5948,
      "ﺰ": 5949,
      "ﺱ": 5950,
      "ﺲ": 5951,
      "ﺳ": 5952,
      "ﺴ": 5953,
      "ﺵ": 5954,
      "ﺷ": 5955,
      "ﺸ": 5956,
      "ﺹ": 5957,
      "ﺺ": 5958,
      "ﺻ": 5959,
      "ﺼ": 5960,
      "ﺽ": 5961,
      "ﻁ": 5962,
      "ﻂ": 5963,
      "ﻃ": 5964,
      "ﻄ": 5965,
      "ﻅ": 5966,
      "ﻈ": 5967,
      "ﻉ": 5968,
      "ﻊ": 5969,
      "ﻋ": 5970,
      "ﻌ": 5971,
      "ﻍ": 5972,
      "ﻎ": 5973,
      "ﻏ": 5974,
      "ﻐ": 5975,
      "ﻑ": 5976,
      "ﻒ": 5977,
      "ﻓ": 5978,
      "ﻔ": 5979,
      "ﻕ": 5980,
      "ﻗ": 5981,
      "ﻘ": 5982,
      "ﻙ": 5983,
      "ﻛ": 5984,
      "ﻝ": 5985,
      "ﻞ": 5986,
      "ﻟ": 5987,
      "ﻠ": 5988,
      "ﻡ": 5989,
      "ﻢ": 5990,
      "ﻣ": 5991,
      "ﻤ": 5992,
      "ﻥ": 5993,
      "ﻦ": 5994,
      "ﻧ": 5995,
      "ﻨ": 5996,
      "ﻩ": 5997,
      "ﻪ": 5998,
      "ﻫ": 5999,
      "ﻬ": 6000,
      "ﻭ": 6001,
      "ﻮ": 6002,
      "ﻰ": 6003,
      "ﻱ": 6004,
      "ﻲ": 6005,
      "ﻳ": 6006,
      "ﻴ": 6007,
      "ﻷ": 6008,
      "ﻻ": 6009,
      "ﻼ": 6010,
      "﻿": 6011,
      "（": 6012,
      "）": 6013,
      "，": 6014,
      "／": 6015,
      "１": 6016,
      "２": 6017,
      "３": 6018,
      "；": 6019,
      "＜": 6020,
      "＞": 6021,
      "𐀀": 6022,
      "𐀍": 6023,
      "𐀞": 6024,
      "𐀨": 6025,
      "𐀮": 6026,
      "𐀯": 6027,
      "𐆙": 6028,
      "𐇐": 6029,
      "𐇑": 6030,
      "𐇒": 6031,
      "𐇓": 6032,
      "𐇔": 6033,
      "𐇕": 6034,
      "𐇖": 6035,
      "𐇗": 6036,
      "𐇘": 6037,
      "𐇙": 6038,
      "𐇚": 6039,
      "𐇛": 6040,
      "𐇜": 6041,
      "𐇝": 6042,
      "𐇞": 6043,
      "𐇟": 6044,
      "𐇠": 6045,
      "𐇡": 6046,
      "𐇢": 6047,
      "𐇣": 6048,
      "𐇤": 6049,
      "𐇥": 6050,
      "𐇦": 6051,
      "𐇧": 6052,
      "𐇨": 6053,
      "𐇩": 6054,
      "𐇪": 6055,
      "𐇫": 6056,
      "𐇬": 6057,
      "𐇭": 6058,
      "𐇮": 6059,
      "𐇯": 6060,
      "𐇰": 6061,
      "𐇱": 6062,
      "𐇲": 6063,
      "𐇳": 6064,
      "𐇴": 6065,
      "𐇵": 6066,
      "𐇶": 6067,
      "𐇷": 6068,
      "𐇸": 6069,
      "𐇹": 6070,
      "𐇺": 6071,
      "𐇻": 6072,
      "𐇼": 6073,
      "𐊆": 6074,
      "𐊎": 6075,
      "𐊐": 6076,
      "𐊕": 6077,
      "𐊖": 6078,
      "𐊗": 6079,
      "𐌀": 6080,
      "𐌁": 6081,
      "𐌂": 6082,
      "𐌃": 6083,
      "𐌄": 6084,
      "𐌅": 6085,
      "𐌆": 6086,
      "𐌇": 6087,
      "𐌈": 6088,
      "𐌉": 6089,
      "𐌊": 6090,
      "𐌋": 6091,
      "𐌌": 6092,
      "𐌍": 6093,
      "𐌎": 6094,
      "𐌏": 6095,
      "𐌐": 6096,
      "𐌑": 6097,
      "𐌒": 6098,
      "𐌓": 6099,
      "𐌔": 6100,
      "𐌕": 6101,
      "𐌖": 6102,
      "𐌗": 6103,
      "𐌘": 6104,
      "𐌙": 6105,
      "𐌚": 6106,
      "𐌟": 6107,
      "𐌠": 6108,
      "𐌡": 6109,
      "𐌢": 6110,
      "𐌣": 6111,
      "𐌱": 6112,
      "𐌻": 6113,
      "𐌾": 6114,
      "𐌿": 6115,
      "𐍀": 6116,
      "𐍁": 6117,
      "𐍂": 6118,
      "𐍈": 6119,
      "𐍓": 6120,
      "𐎀": 6121,
      "𐎁": 6122,
      "𐎂": 6123,
      "𐎃": 6124,
      "𐎄": 6125,
      "𐎅": 6126,
      "𐎆": 6127,
      "𐎇": 6128,
      "𐎈": 6129,
      "𐎉": 6130,
      "𐎊": 6131,
      "𐎋": 6132,
      "𐎌": 6133,
      "𐎍": 6134,
      "𐎎": 6135,
      "𐎏": 6136,
      "𐎐": 6137,
      "𐎑": 6138,
      "𐎒": 6139,
      "𐎓": 6140,
      "𐎔": 6141,
      "𐎕": 6142,
      "𐎖": 6143,
      "𐎗": 6144,
      "𐎘": 6145,
      "𐎙": 6146,
      "𐎚": 6147,
      "𐎛": 6148,
      "𐎜": 6149,
      "𐎝": 6150,
      "𐎠": 6151,
      "𐎡": 6152,
      "𐎢": 6153,
      "𐎣": 6154,
      "𐎤": 6155,
      "𐎥": 6156,
      "𐎦": 6157,
      "𐎧": 6158,
      "𐎨": 6159,
      "𐎫": 6160,
      "𐎭": 6161,
      "𐎯": 6162,
      "𐎰": 6163,
      "𐎱": 6164,
      "𐎲": 6165,
      "𐎳": 6166,
      "𐎴": 6167,
      "𐎶": 6168,
      "𐎷": 6169,
      "𐎹": 6170,
      "𐎺": 6171,
      "𐎻": 6172,
      "𐎼": 6173,
      "𐎿": 6174,
      "𐏀": 6175,
      "𐏁": 6176,
      "𐏂": 6177,
      "𐏃": 6178,
      "𐏋": 6179,
      "𐏐": 6180,
      "𐑐": 6181,
      "𐑑": 6182,
      "𐑒": 6183,
      "𐑕": 6184,
      "𐑛": 6185,
      "𐑟": 6186,
      "𐑤": 6187,
      "𐑨": 6188,
      "𐑩": 6189,
      "𐑫": 6190,
      "𐑮": 6191,
      "𐑯": 6192,
      "𐑰": 6193,
      "𐒁": 6194,
      "𐒂": 6195,
      "𐒃": 6196,
      "𐒄": 6197,
      "𐒅": 6198,
      "𐒆": 6199,
      "𐒇": 6200,
      "𐒈": 6201,
      "𐒉": 6202,
      "𐒋": 6203,
      "𐒌": 6204,
      "𐒍": 6205,
      "𐒎": 6206,
      "𐒏": 6207,
      "𐒐": 6208,
      "𐒑": 6209,
      "𐒒": 6210,
      "𐒓": 6211,
      "𐒕": 6212,
      "𐒖": 6213,
      "𐒗": 6214,
      "𐒘": 6215,
      "𐒙": 6216,
      "𐒚": 6217,
      "𐒛": 6218,
      "𐒜": 6219,
      "𐒝": 6220,
      "𐒠": 6221,
      "𐒡": 6222,
      "𐒢": 6223,
      "𐒣": 6224,
      "𐒤": 6225,
      "𐒥": 6226,
      "𐒦": 6227,
      "𐒧": 6228,
      "𐒨": 6229,
      "𐒩": 6230,
      "𐘀": 6231,
      "𐘁": 6232,
      "𐘂": 6233,
      "𐘃": 6234,
      "𐘄": 6235,
      "𐘅": 6236,
      "𐘆": 6237,
      "𐘇": 6238,
      "𐘈": 6239,
      "𐘉": 6240,
      "𐘊": 6241,
      "𐘋": 6242,
      "𐘌": 6243,
      "𐘍": 6244,
      "𐘎": 6245,
      "𐘏": 6246,
      "𐘐": 6247,
      "𐘑": 6248,
      "𐘒": 6249,
      "𐘓": 6250,
      "𐘔": 6251,
      "𐘕": 6252,
      "𐘖": 6253,
      "𐘗": 6254,
      "𐘘": 6255,
      "𐘙": 6256,
      "𐘚": 6257,
      "𐘜": 6258,
      "𐘝": 6259,
      "𐘞": 6260,
      "𐘠": 6261,
      "𐘡": 6262,
      "𐘢": 6263,
      "𐘣": 6264,
      "𐘤": 6265,
      "𐘥": 6266,
      "𐘦": 6267,
      "𐘧": 6268,
      "𐘩": 6269,
      "𐘫": 6270,
      "𐘬": 6271,
      "𐘭": 6272,
      "𐘮": 6273,
      "𐘯": 6274,
      "𐘰": 6275,
      "𐘱": 6276,
      "𐘲": 6277,
      "𐘳": 6278,
      "𐘴": 6279,
      "𐘵": 6280,
      "𐘷": 6281,
      "𐘸": 6282,
      "𐘹": 6283,
      "𐘺": 6284,
      "𐘻": 6285,
      "𐘼": 6286,
      "𐘽": 6287,
      "𐘾": 6288,
      "𐘿": 6289,
      "𐙀": 6290,
      "𐙁": 6291,
      "𐙂": 6292,
      "𐙄": 6293,
      "𐙆": 6294,
      "𐙇": 6295,
      "𐙉": 6296,
      "𐙊": 6297,
      "𐙋": 6298,
      "𐙍": 6299,
      "𐙎": 6300,
      "𐙏": 6301,
      "𐙔": 6302,
      "𐙖": 6303,
      "𐙗": 6304,
      "𐚠": 6305,
      "𐚡": 6306,
      "𐚢": 6307,
      "𐚣": 6308,
      "𐚤": 6309,
      "𐚥": 6310,
      "𐚦": 6311,
      "𐚧": 6312,
      "𐚨": 6313,
      "𐚩": 6314,
      "𐚪": 6315,
      "𐚫": 6316,
      "𐚬": 6317,
      "𐚭": 6318,
      "𐚮": 6319,
      "𐚯": 6320,
      "𐚰": 6321,
      "𐚱": 6322,
      "𐚲": 6323,
      "𐞄": 6324,
      "𐞅": 6325,
      "𐞋": 6326,
      "𐞌": 6327,
      "𐞍": 6328,
      "𐞔": 6329,
      "𐞕": 6330,
      "𐞖": 6331,
      "𐞛": 6332,
      "𐞜": 6333,
      "𐞝": 6334,
      "𐞠": 6335,
      "𐞥": 6336,
      "𐞦": 6337,
      "𐞧": 6338,
      "𐞨": 6339,
      "𐞩": 6340,
      "𐞪": 6341,
      "𐞯": 6342,
      "𐞲": 6343,
      "𐠞": 6344,
      "𐠩": 6345,
      "𐡀": 6346,
      "𐡁": 6347,
      "𐡂": 6348,
      "𐡃": 6349,
      "𐡄": 6350,
      "𐡅": 6351,
      "𐡆": 6352,
      "𐡇": 6353,
      "𐡈": 6354,
      "𐡉": 6355,
      "𐡊": 6356,
      "𐡋": 6357,
      "𐡌": 6358,
      "𐡍": 6359,
      "𐡎": 6360,
      "𐡏": 6361,
      "𐡐": 6362,
      "𐡑": 6363,
      "𐡒": 6364,
      "𐡓": 6365,
      "𐡔": 6366,
      "𐡕": 6367,
      "𐡡": 6368,
      "𐡦": 6369,
      "𐡩": 6370,
      "𐡪": 6371,
      "𐡫": 6372,
      "𐡬": 6373,
      "𐡰": 6374,
      "𐤀": 6375,
      "𐤁": 6376,
      "𐤂": 6377,
      "𐤃": 6378,
      "𐤄": 6379,
      "𐤅": 6380,
      "𐤆": 6381,
      "𐤇": 6382,
      "𐤈": 6383,
      "𐤉": 6384,
      "𐤊": 6385,
      "𐤋": 6386,
      "𐤌": 6387,
      "𐤍": 6388,
      "𐤎": 6389,
      "𐤏": 6390,
      "𐤐": 6391,
      "𐤑": 6392,
      "𐤒": 6393,
      "𐤓": 6394,
      "𐤔": 6395,
      "𐤕": 6396,
      "𐤖": 6397,
      "𐤘": 6398,
      "𐤙": 6399,
      "𐤟": 6400,
      "𐤠": 6401,
      "𐤤": 6402,
      "𐤥": 6403,
      "𐤩": 6404,
      "𐤮": 6405,
      "𐤯": 6406,
      "𐦀": 6407,
      "𐦂": 6408,
      "𐦉": 6409,
      "𐦊": 6410,
      "𐦐": 6411,
      "𐦠": 6412,
      "𐦡": 6413,
      "𐦢": 6414,
      "𐦣": 6415,
      "𐦤": 6416,
      "𐦥": 6417,
      "𐦦": 6418,
      "𐦧": 6419,
      "𐦨": 6420,
      "𐦩": 6421,
      "𐦪": 6422,
      "𐦫": 6423,
      "𐦬": 6424,
      "𐦮": 6425,
      "𐦰": 6426,
      "𐦱": 6427,
      "𐦲": 6428,
      "𐦵": 6429,
      "𐨀": 6430,
      "𐨅": 6431,
      "𐨐": 6432,
      "𐨑": 6433,
      "𐨒": 6434,
      "𐨓": 6435,
      "𐨗": 6436,
      "𐨟": 6437,
      "𐨠": 6438,
      "𐨢": 6439,
      "𐨣": 6440,
      "𐨤": 6441,
      "𐨦": 6442,
      "𐨨": 6443,
      "𐨩": 6444,
      "𐨪": 6445,
      "𐨫": 6446,
      "𐨬": 6447,
      "𐨭": 6448,
      "𐨮": 6449,
      "𐨯": 6450,
      "𐨱": 6451,
      "𐩠": 6452,
      "𐩡": 6453,
      "𐩢": 6454,
      "𐩣": 6455,
      "𐩤": 6456,
      "𐩥": 6457,
      "𐩦": 6458,
      "𐩧": 6459,
      "𐩨": 6460,
      "𐩩": 6461,
      "𐩪": 6462,
      "𐩫": 6463,
      "𐩬": 6464,
      "𐩭": 6465,
      "𐩮": 6466,
      "𐩯": 6467,
      "𐩰": 6468,
      "𐩱": 6469,
      "𐩲": 6470,
      "𐩳": 6471,
      "𐩴": 6472,
      "𐩵": 6473,
      "𐩶": 6474,
      "𐩷": 6475,
      "𐩸": 6476,
      "𐩹": 6477,
      "𐩺": 6478,
      "𐩻": 6479,
      "𐩼": 6480,
      "𐩽": 6481,
      "𐪀": 6482,
      "𐪁": 6483,
      "𐪂": 6484,
      "𐪃": 6485,
      "𐪆": 6486,
      "𐪇": 6487,
      "𐪈": 6488,
      "𐪉": 6489,
      "𐪊": 6490,
      "𐪋": 6491,
      "𐪌": 6492,
      "𐪍": 6493,
      "𐪎": 6494,
      "𐪏": 6495,
      "𐪐": 6496,
      "𐪑": 6497,
      "𐪒": 6498,
      "𐪓": 6499,
      "𐪔": 6500,
      "𐪕": 6501,
      "𐪗": 6502,
      "𐪘": 6503,
      "𐪙": 6504,
      "𐪚": 6505,
      "𐪛": 6506,
      "𐪜": 6507,
      "𐭀": 6508,
      "𐭁": 6509,
      "𐭂": 6510,
      "𐭃": 6511,
      "𐭄": 6512,
      "𐭅": 6513,
      "𐭆": 6514,
      "𐭇": 6515,
      "𐭈": 6516,
      "𐭉": 6517,
      "𐭊": 6518,
      "𐭋": 6519,
      "𐭌": 6520,
      "𐭍": 6521,
      "𐭎": 6522,
      "𐭏": 6523,
      "𐭐": 6524,
      "𐭑": 6525,
      "𐭒": 6526,
      "𐭓": 6527,
      "𐭔": 6528,
      "𐭕": 6529,
      "𐭠": 6530,
      "𐭣": 6531,
      "𐭥": 6532,
      "𐭧": 6533,
      "𐭩": 6534,
      "𐭫": 6535,
      "𐭬": 6536,
      "𐭭": 6537,
      "𐭯": 6538,
      "𐭰": 6539,
      "𐭱": 6540,
      "𐭲": 6541,
      "𐰀": 6542,
      "𐰁": 6543,
      "𐰃": 6544,
      "𐰄": 6545,
      "𐰅": 6546,
      "𐰆": 6547,
      "𐰇": 6548,
      "𐰈": 6549,
      "𐰉": 6550,
      "𐰋": 6551,
      "𐰍": 6552,
      "𐰏": 6553,
      "𐰒": 6554,
      "𐰓": 6555,
      "𐰕": 6556,
      "𐰖": 6557,
      "𐰘": 6558,
      "𐰚": 6559,
      "𐰜": 6560,
      "𐰞": 6561,
      "𐰠": 6562,
      "𐰢": 6563,
      "𐰣": 6564,
      "𐰤": 6565,
      "𐰧": 6566,
      "𐰭": 6567,
      "𐰯": 6568,
      "𐰱": 6569,
      "𐰲": 6570,
      "𐰳": 6571,
      "𐰴": 6572,
      "𐰶": 6573,
      "𐰸": 6574,
      "𐰺": 6575,
      "𐰼": 6576,
      "𐰽": 6577,
      "𐰾": 6578,
      "𐱁": 6579,
      "𐱂": 6580,
      "𐱃": 6581,
      "𐱄": 6582,
      "𐱅": 6583,
      "𐱇": 6584,
      "𐴀": 6585,
      "𐴁": 6586,
      "𐴂": 6587,
      "𐴃": 6588,
      "𐴄": 6589,
      "𐴅": 6590,
      "𐴆": 6591,
      "𐴇": 6592,
      "𐴈": 6593,
      "𐴉": 6594,
      "𐴊": 6595,
      "𐴋": 6596,
      "𐴌": 6597,
      "𐴍": 6598,
      "𐴎": 6599,
      "𐴏": 6600,
      "𐴐": 6601,
      "𐴑": 6602,
      "𐴒": 6603,
      "𐴓": 6604,
      "𐴔": 6605,
      "𐴕": 6606,
      "𐴖": 6607,
      "𐴗": 6608,
      "𐴘": 6609,
      "𐴙": 6610,
      "𐴚": 6611,
      "𐴛": 6612,
      "𐴜": 6613,
      "𐴝": 6614,
      "𐴞": 6615,
      "𐴟": 6616,
      "𐴠": 6617,
      "𐴡": 6618,
      "𐴢": 6619,
      "𐴣": 6620,
      "𐴤": 6621,
      "𐴥": 6622,
      "𐴦": 6623,
      "𐴧": 6624,
      "𐴰": 6625,
      "𐴱": 6626,
      "𐴲": 6627,
      "𐴳": 6628,
      "𐴴": 6629,
      "𐴵": 6630,
      "𐴶": 6631,
      "𐴷": 6632,
      "𐴸": 6633,
      "𐴹": 6634,
      "𐽴": 6635,
      "𑀁": 6636,
      "𑀂": 6637,
      "𑀅": 6638,
      "𑀆": 6639,
      "𑀇": 6640,
      "𑀈": 6641,
      "𑀉": 6642,
      "𑀊": 6643,
      "𑀋": 6644,
      "𑀌": 6645,
      "𑀍": 6646,
      "𑀎": 6647,
      "𑀏": 6648,
      "𑀐": 6649,
      "𑀑": 6650,
      "𑀒": 6651,
      "𑀓": 6652,
      "𑀔": 6653,
      "𑀕": 6654,
      "𑀖": 6655,
      "𑀗": 6656,
      "𑀘": 6657,
      "𑀙": 6658,
      "𑀚": 6659,
      "𑀛": 6660,
      "𑀜": 6661,
      "𑀝": 6662,
      "𑀞": 6663,
      "𑀟": 6664,
      "𑀠": 6665,
      "𑀡": 6666,
      "𑀢": 6667,
      "𑀣": 6668,
      "𑀤": 6669,
      "𑀥": 6670,
      "𑀦": 6671,
      "𑀧": 6672,
      "𑀨": 6673,
      "𑀩": 6674,
      "𑀪": 6675,
      "𑀫": 6676,
      "𑀬": 6677,
      "𑀭": 6678,
      "𑀮": 6679,
      "𑀯": 6680,
      "𑀰": 6681,
      "𑀱": 6682,
      "𑀲": 6683,
      "𑀳": 6684,
      "𑀴": 6685,
      "𑀸": 6686,
      "𑀺": 6687,
      "𑀻": 6688,
      "𑀼": 6689,
      "𑀽": 6690,
      "𑀾": 6691,
      "𑀿": 6692,
      "𑁀": 6693,
      "𑁁": 6694,
      "𑁂": 6695,
      "𑁃": 6696,
      "𑁄": 6697,
      "𑁅": 6698,
      "𑁆": 6699,
      "𑁒": 6700,
      "𑁓": 6701,
      "𑁔": 6702,
      "𑁕": 6703,
      "𑁖": 6704,
      "𑁗": 6705,
      "𑁘": 6706,
      "𑁙": 6707,
      "𑁚": 6708,
      "𑁦": 6709,
      "𑁧": 6710,
      "𑁨": 6711,
      "𑁩": 6712,
      "𑁪": 6713,
      "𑁫": 6714,
      "𑁬": 6715,
      "𑁭": 6716,
      "𑁮": 6717,
      "𑁯": 6718,
      "𑂁": 6719,
      "𑂂": 6720,
      "𑂃": 6721,
      "𑂄": 6722,
      "𑂅": 6723,
      "𑂆": 6724,
      "𑂇": 6725,
      "𑂈": 6726,
      "𑂉": 6727,
      "𑂊": 6728,
      "𑂋": 6729,
      "𑂌": 6730,
      "𑂍": 6731,
      "𑂎": 6732,
      "𑂏": 6733,
      "𑂐": 6734,
      "𑂑": 6735,
      "𑂒": 6736,
      "𑂓": 6737,
      "𑂔": 6738,
      "𑂕": 6739,
      "𑂖": 6740,
      "𑂗": 6741,
      "𑂘": 6742,
      "𑂙": 6743,
      "𑂛": 6744,
      "𑂝": 6745,
      "𑂞": 6746,
      "𑂟": 6747,
      "𑂠": 6748,
      "𑂡": 6749,
      "𑂢": 6750,
      "𑂣": 6751,
      "𑂤": 6752,
      "𑂥": 6753,
      "𑂦": 6754,
      "𑂧": 6755,
      "𑂨": 6756,
      "𑂩": 6757,
      "𑂪": 6758,
      "𑂫": 6759,
      "𑂬": 6760,
      "𑂭": 6761,
      "𑂮": 6762,
      "𑂯": 6763,
      "𑂰": 6764,
      "𑂱": 6765,
      "𑂲": 6766,
      "𑂳": 6767,
      "𑂴": 6768,
      "𑂵": 6769,
      "𑂶": 6770,
      "𑂷": 6771,
      "𑂸": 6772,
      "𑂹": 6773,
      "𑄁": 6774,
      "𑄂": 6775,
      "𑄃": 6776,
      "𑄄": 6777,
      "𑄅": 6778,
      "𑄆": 6779,
      "𑄇": 6780,
      "𑄈": 6781,
      "𑄉": 6782,
      "𑄊": 6783,
      "𑄋": 6784,
      "𑄌": 6785,
      "𑄍": 6786,
      "𑄎": 6787,
      "𑄏": 6788,
      "𑄐": 6789,
      "𑄑": 6790,
      "𑄒": 6791,
      "𑄓": 6792,
      "𑄔": 6793,
      "𑄕": 6794,
      "𑄖": 6795,
      "𑄗": 6796,
      "𑄘": 6797,
      "𑄙": 6798,
      "𑄚": 6799,
      "𑄛": 6800,
      "𑄜": 6801,
      "𑄝": 6802,
      "𑄞": 6803,
      "𑄟": 6804,
      "𑄠": 6805,
      "𑄡": 6806,
      "𑄢": 6807,
      "𑄣": 6808,
      "𑄤": 6809,
      "𑄥": 6810,
      "𑄦": 6811,
      "𑄧": 6812,
      "𑄨": 6813,
      "𑄩": 6814,
      "𑄪": 6815,
      "𑄫": 6816,
      "𑄬": 6817,
      "𑄮": 6818,
      "𑄯": 6819,
      "𑄰": 6820,
      "𑄴": 6821,
      "𑄶": 6822,
      "𑄷": 6823,
      "𑄸": 6824,
      "𑄹": 6825,
      "𑄺": 6826,
      "𑄻": 6827,
      "𑄼": 6828,
      "𑄽": 6829,
      "𑄾": 6830,
      "𑄿": 6831,
      "𑅄": 6832,
      "𑅅": 6833,
      "𑆑": 6834,
      "𑆒": 6835,
      "𑆓": 6836,
      "𑆔": 6837,
      "𑆕": 6838,
      "𑆖": 6839,
      "𑆗": 6840,
      "𑆘": 6841,
      "𑆙": 6842,
      "𑆚": 6843,
      "𑆛": 6844,
      "𑆜": 6845,
      "𑆝": 6846,
      "𑆞": 6847,
      "𑆟": 6848,
      "𑆠": 6849,
      "𑆡": 6850,
      "𑆢": 6851,
      "𑆣": 6852,
      "𑆤": 6853,
      "𑆥": 6854,
      "𑆦": 6855,
      "𑆧": 6856,
      "𑆨": 6857,
      "𑆩": 6858,
      "𑆪": 6859,
      "𑆫": 6860,
      "𑆬": 6861,
      "𑆭": 6862,
      "𑆮": 6863,
      "𑆯": 6864,
      "𑆰": 6865,
      "𑆱": 6866,
      "𑆲": 6867,
      "𑇀": 6868,
      "𑇊": 6869,
      "𑇐": 6870,
      "𑇑": 6871,
      "𑇒": 6872,
      "𑇓": 6873,
      "𑇔": 6874,
      "𑇕": 6875,
      "𑇖": 6876,
      "𑇗": 6877,
      "𑇘": 6878,
      "𑇙": 6879,
      "𑇡": 6880,
      "𑇢": 6881,
      "𑇣": 6882,
      "𑇤": 6883,
      "𑇥": 6884,
      "𑇦": 6885,
      "𑇧": 6886,
      "𑇨": 6887,
      "𑇩": 6888,
      "𑋰": 6889,
      "𑋱": 6890,
      "𑋲": 6891,
      "𑋳": 6892,
      "𑋴": 6893,
      "𑋵": 6894,
      "𑋶": 6895,
      "𑋷": 6896,
      "𑋸": 6897,
      "𑋹": 6898,
      "𑎒": 6899,
      "𑎓": 6900,
      "𑎔": 6901,
      "𑎕": 6902,
      "𑎖": 6903,
      "𑎗": 6904,
      "𑎘": 6905,
      "𑎙": 6906,
      "𑎚": 6907,
      "𑎛": 6908,
      "𑎜": 6909,
      "𑎝": 6910,
      "𑎞": 6911,
      "𑎟": 6912,
      "𑎠": 6913,
      "𑎡": 6914,
      "𑎢": 6915,
      "𑎣": 6916,
      "𑎤": 6917,
      "𑎥": 6918,
      "𑎦": 6919,
      "𑎧": 6920,
      "𑎨": 6921,
      "𑎩": 6922,
      "𑎪": 6923,
      "𑎫": 6924,
      "𑎬": 6925,
      "𑎭": 6926,
      "𑎮": 6927,
      "𑎯": 6928,
      "𑎰": 6929,
      "𑎱": 6930,
      "𑎲": 6931,
      "𑎳": 6932,
      "𑎴": 6933,
      "𑎵": 6934,
      "𑏊": 6935,
      "𑐀": 6936,
      "𑐁": 6937,
      "𑐂": 6938,
      "𑐃": 6939,
      "𑐄": 6940,
      "𑐅": 6941,
      "𑐆": 6942,
      "𑐇": 6943,
      "𑐈": 6944,
      "𑐉": 6945,
      "𑐊": 6946,
      "𑐋": 6947,
      "𑐌": 6948,
      "𑐍": 6949,
      "𑐎": 6950,
      "𑐏": 6951,
      "𑐐": 6952,
      "𑐑": 6953,
      "𑐒": 6954,
      "𑐔": 6955,
      "𑐕": 6956,
      "𑐖": 6957,
      "𑐗": 6958,
      "𑐘": 6959,
      "𑐚": 6960,
      "𑐛": 6961,
      "𑐜": 6962,
      "𑐝": 6963,
      "𑐞": 6964,
      "𑐟": 6965,
      "𑐠": 6966,
      "𑐡": 6967,
      "𑐢": 6968,
      "𑐣": 6969,
      "𑐥": 6970,
      "𑐦": 6971,
      "𑐧": 6972,
      "𑐨": 6973,
      "𑐩": 6974,
      "𑐫": 6975,
      "𑐬": 6976,
      "𑐮": 6977,
      "𑐰": 6978,
      "𑐱": 6979,
      "𑐲": 6980,
      "𑐳": 6981,
      "𑐴": 6982,
      "𑐵": 6983,
      "𑐶": 6984,
      "𑐷": 6985,
      "𑐸": 6986,
      "𑐹": 6987,
      "𑐺": 6988,
      "𑐻": 6989,
      "𑐼": 6990,
      "𑐽": 6991,
      "𑐾": 6992,
      "𑐿": 6993,
      "𑑀": 6994,
      "𑑁": 6995,
      "𑑂": 6996,
      "𑑄": 6997,
      "𑑅": 6998,
      "𑑆": 6999,
      "𑑐": 7000,
      "𑑑": 7001,
      "𑑒": 7002,
      "𑑓": 7003,
      "𑑔": 7004,
      "𑑕": 7005,
      "𑑖": 7006,
      "𑑗": 7007,
      "𑑘": 7008,
      "𑑙": 7009,
      "𑒁": 7010,
      "𑒂": 7011,
      "𑒃": 7012,
      "𑒄": 7013,
      "𑒅": 7014,
      "𑒆": 7015,
      "𑒇": 7016,
      "𑒈": 7017,
      "𑒉": 7018,
      "𑒊": 7019,
      "𑒋": 7020,
      "𑒌": 7021,
      "𑒍": 7022,
      "𑒎": 7023,
      "𑒏": 7024,
      "𑒐": 7025,
      "𑒑": 7026,
      "𑒒": 7027,
      "𑒓": 7028,
      "𑒔": 7029,
      "𑒕": 7030,
      "𑒖": 7031,
      "𑒗": 7032,
      "𑒘": 7033,
      "𑒙": 7034,
      "𑒚": 7035,
      "𑒛": 7036,
      "𑒜": 7037,
      "𑒝": 7038,
      "𑒞": 7039,
      "𑒟": 7040,
      "𑒠": 7041,
      "𑒡": 7042,
      "𑒢": 7043,
      "𑒣": 7044,
      "𑒤": 7045,
      "𑒥": 7046,
      "𑒦": 7047,
      "𑒧": 7048,
      "𑒨": 7049,
      "𑒩": 7050,
      "𑒪": 7051,
      "𑒬": 7052,
      "𑒭": 7053,
      "𑒮": 7054,
      "𑒯": 7055,
      "𑒰": 7056,
      "𑒱": 7057,
      "𑒲": 7058,
      "𑒳": 7059,
      "𑒴": 7060,
      "𑒵": 7061,
      "𑒶": 7062,
      "𑒷": 7063,
      "𑒸": 7064,
      "𑒹": 7065,
      "𑒺": 7066,
      "𑒻": 7067,
      "𑒼": 7068,
      "𑒽": 7069,
      "𑒾": 7070,
      "𑓀": 7071,
      "𑓁": 7072,
      "𑓂": 7073,
      "𑓐": 7074,
      "𑓑": 7075,
      "𑓒": 7076,
      "𑓓": 7077,
      "𑓔": 7078,
      "𑓕": 7079,
      "𑓖": 7080,
      "𑓗": 7081,
      "𑓘": 7082,
      "𑓙": 7083,
      "𑙐": 7084,
      "𑙑": 7085,
      "𑙒": 7086,
      "𑙓": 7087,
      "𑙔": 7088,
      "𑙕": 7089,
      "𑙖": 7090,
      "𑙗": 7091,
      "𑙘": 7092,
      "𑙙": 7093,
      "𑛀": 7094,
      "𑛁": 7095,
      "𑛂": 7096,
      "𑛃": 7097,
      "𑛄": 7098,
      "𑛅": 7099,
      "𑛆": 7100,
      "𑛇": 7101,
      "𑛈": 7102,
      "𑛉": 7103,
      "𑜰": 7104,
      "𑜱": 7105,
      "𑜲": 7106,
      "𑜳": 7107,
      "𑜴": 7108,
      "𑜵": 7109,
      "𑜶": 7110,
      "𑜷": 7111,
      "𑜸": 7112,
      "𑜹": 7113,
      "𑥑": 7114,
      "𑥒": 7115,
      "𑥓": 7116,
      "𑥔": 7117,
      "𑥕": 7118,
      "𑥖": 7119,
      "𑥗": 7120,
      "𑥘": 7121,
      "𑥙": 7122,
      "𑽁": 7123,
      "𒀀": 7124,
      "𒀊": 7125,
      "𒀖": 7126,
      "𒀜": 7127,
      "𒀭": 7128,
      "𒀵": 7129,
      "𒀸": 7130,
      "𒁀": 7131,
      "𒁉": 7132,
      "𒁕": 7133,
      "𒁹": 7134,
      "𒁺": 7135,
      "𒂍": 7136,
      "𒂗": 7137,
      "𒂠": 7138,
      "𒂵": 7139,
      "𒃰": 7140,
      "𒃲": 7141,
      "𒃶": 7142,
      "𒃻": 7143,
      "𒄑": 7144,
      "𒄒": 7145,
      "𒄘": 7146,
      "𒄞": 7147,
      "𒄠": 7148,
      "𒄣": 7149,
      "𒄩": 7150,
      "𒄯": 7151,
      "𒄲": 7152,
      "𒄷": 7153,
      "𒄿": 7154,
      "𒅀": 7155,
      "𒅅": 7156,
      "𒅆": 7157,
      "𒅕": 7158,
      "𒅗": 7159,
      "𒅘": 7160,
      "𒅴": 7161,
      "𒅻": 7162,
      "𒆜": 7163,
      "𒆠": 7164,
      "𒆤": 7165,
      "𒆧": 7166,
      "𒆳": 7167,
      "𒆷": 7168,
      "𒇲": 7169,
      "𒇴": 7170,
      "𒇷": 7171,
      "𒇻": 7172,
      "𒇽": 7173,
      "𒈗": 7174,
      "𒈛": 7175,
      "𒈠": 7176,
      "𒈣": 7177,
      "𒈥": 7178,
      "𒈨": 7179,
      "𒈩": 7180,
      "𒈪": 7181,
      "𒈬": 7182,
      "𒈹": 7183,
      "𒈾": 7184,
      "𒉀": 7185,
      "𒉈": 7186,
      "𒉋": 7187,
      "𒉌": 7188,
      "𒉡": 7189,
      "𒉣": 7190,
      "𒉺": 7191,
      "𒊏": 7192,
      "𒊑": 7193,
      "𒊒": 7194,
      "𒊓": 7195,
      "𒊭": 7196,
      "𒊮": 7197,
      "𒊹": 7198,
      "𒊺": 7199,
      "𒋗": 7200,
      "𒋙": 7201,
      "𒋛": 7202,
      "𒋡": 7203,
      "𒋢": 7204,
      "𒋥": 7205,
      "𒋩": 7206,
      "𒋫": 7207,
      "𒋺": 7208,
      "𒋻": 7209,
      "𒋼": 7210,
      "𒋾": 7211,
      "𒌅": 7212,
      "𒌈": 7213,
      "𒌉": 7214,
      "𒌋": 7215,
      "𒌍": 7216,
      "𒌑": 7217,
      "𒌓": 7218,
      "𒌝": 7219,
      "𒌦": 7220,
      "𒌨": 7221,
      "𒌷": 7222,
      "𒍑": 7223,
      "𒍗": 7224,
      "𒍝": 7225,
      "𒍪": 7226,
      "𒐐": 7227,
      "𒐕": 7228,
      "𒐼": 7229,
      "𓀀": 7230,
      "𓀂": 7231,
      "𓀐": 7232,
      "𓀔": 7233,
      "𓀭": 7234,
      "𓁐": 7235,
      "𓁶": 7236,
      "𓁷": 7237,
      "𓁹": 7238,
      "𓂋": 7239,
      "𓂓": 7240,
      "𓂜": 7241,
      "𓂝": 7242,
      "𓂧": 7243,
      "𓃀": 7244,
      "𓃒": 7245,
      "𓃞": 7246,
      "𓃡": 7247,
      "𓃢": 7248,
      "𓃣": 7249,
      "𓃧": 7250,
      "𓃭": 7251,
      "𓃰": 7252,
      "𓃾": 7253,
      "𓄂": 7254,
      "𓄈": 7255,
      "𓄓": 7256,
      "𓄟": 7257,
      "𓄡": 7258,
      "𓄣": 7259,
      "𓄤": 7260,
      "𓄿": 7261,
      "𓅂": 7262,
      "𓅃": 7263,
      "𓅒": 7264,
      "𓅓": 7265,
      "𓅡": 7266,
      "𓅭": 7267,
      "𓅱": 7268,
      "𓅽": 7269,
      "𓆈": 7270,
      "𓆉": 7271,
      "𓆊": 7272,
      "𓆋": 7273,
      "𓆌": 7274,
      "𓆎": 7275,
      "𓆏": 7276,
      "𓆐": 7277,
      "𓆑": 7278,
      "𓆓": 7279,
      "𓆕": 7280,
      "𓆗": 7281,
      "𓆘": 7282,
      "𓆙": 7283,
      "𓆚": 7284,
      "𓆤": 7285,
      "𓆭": 7286,
      "𓆱": 7287,
      "𓆷": 7288,
      "𓆼": 7289,
      "𓇋": 7290,
      "𓇌": 7291,
      "𓇓": 7292,
      "𓇔": 7293,
      "𓇛": 7294,
      "𓇜": 7295,
      "𓇯": 7296,
      "𓇰": 7297,
      "𓇱": 7298,
      "𓇲": 7299,
      "𓇳": 7300,
      "𓇴": 7301,
      "𓇵": 7302,
      "𓇶": 7303,
      "𓇷": 7304,
      "𓇸": 7305,
      "𓇹": 7306,
      "𓇺": 7307,
      "𓇻": 7308,
      "𓇼": 7309,
      "𓇽": 7310,
      "𓇾": 7311,
      "𓇿": 7312,
      "𓈀": 7313,
      "𓈃": 7314,
      "𓈄": 7315,
      "𓈅": 7316,
      "𓈆": 7317,
      "𓈇": 7318,
      "𓈈": 7319,
      "𓈉": 7320,
      "𓈊": 7321,
      "𓈋": 7322,
      "𓈌": 7323,
      "𓈍": 7324,
      "𓈎": 7325,
      "𓈏": 7326,
      "𓈐": 7327,
      "𓈑": 7328,
      "𓈒": 7329,
      "𓈔": 7330,
      "𓈖": 7331,
      "𓈗": 7332,
      "𓈘": 7333,
      "𓈙": 7334,
      "𓈛": 7335,
      "𓈜": 7336,
      "𓈝": 7337,
      "𓈞": 7338,
      "𓈟": 7339,
      "𓈠": 7340,
      "𓈡": 7341,
      "𓈢": 7342,
      "𓈣": 7343,
      "𓈤": 7344,
      "𓈥": 7345,
      "𓈦": 7346,
      "𓈧": 7347,
      "𓈨": 7348,
      "𓈩": 7349,
      "𓈪": 7350,
      "𓈫": 7351,
      "𓈬": 7352,
      "𓈭": 7353,
      "𓈮": 7354,
      "𓈯": 7355,
      "𓈰": 7356,
      "𓈱": 7357,
      "𓈲": 7358,
      "𓈳": 7359,
      "𓈴": 7360,
      "𓈵": 7361,
      "𓈶": 7362,
      "𓈷": 7363,
      "𓈸": 7364,
      "𓈹": 7365,
      "𓈺": 7366,
      "𓈻": 7367,
      "𓈼": 7368,
      "𓈽": 7369,
      "𓈾": 7370,
      "𓈿": 7371,
      "𓉀": 7372,
      "𓉁": 7373,
      "𓉂": 7374,
      "𓉃": 7375,
      "𓉄": 7376,
      "𓉅": 7377,
      "𓉆": 7378,
      "𓉇": 7379,
      "𓉈": 7380,
      "𓉉": 7381,
      "𓉊": 7382,
      "𓉋": 7383,
      "𓉌": 7384,
      "𓉍": 7385,
      "𓉎": 7386,
      "𓉏": 7387,
      "𓉐": 7388,
      "𓉑": 7389,
      "𓉔": 7390,
      "𓉗": 7391,
      "𓉴": 7392,
      "𓉺": 7393,
      "𓊃": 7394,
      "𓊖": 7395,
      "𓊨": 7396,
      "𓊪": 7397,
      "𓊹": 7398,
      "𓊽": 7399,
      "𓋉": 7400,
      "𓋊": 7401,
      "𓋑": 7402,
      "𓋞": 7403,
      "𓋧": 7404,
      "𓋨": 7405,
      "𓋴": 7406,
      "𓋹": 7407,
      "𓋺": 7408,
      "𓋾": 7409,
      "𓌅": 7410,
      "𓌓": 7411,
      "𓌙": 7412,
      "𓌥": 7413,
      "𓌳": 7414,
      "𓍃": 7415,
      "𓍋": 7416,
      "𓍑": 7417,
      "𓍒": 7418,
      "𓍘": 7419,
      "𓍢": 7420,
      "𓍯": 7421,
      "𓍿": 7422,
      "𓎛": 7423,
      "𓎟": 7424,
      "𓎡": 7425,
      "𓎢": 7426,
      "𓎤": 7427,
      "𓎶": 7428,
      "𓎸": 7429,
      "𓎼": 7430,
      "𓏇": 7431,
      "𓏌": 7432,
      "𓏏": 7433,
      "𓏛": 7434,
      "𓏠": 7435,
      "𓏤": 7436,
      "𓏥": 7437,
      "𓏪": 7438,
      "𓏭": 7439,
      "𓏴": 7440,
      "𓏶": 7441,
      "𓏺": 7442,
      "𓏼": 7443,
      "𓐍": 7444,
      "𓐝": 7445,
      "𓐠": 7446,
      "𓐰": 7447,
      "𖫒": 7448,
      "𖫔": 7449,
      "𖫣": 7450,
      "𖫧": 7451,
      "𖫨": 7452,
      "𖫰": 7453,
      "𖫱": 7454,
      "𖫳": 7455,
      "𝄆": 7456,
      "𝄇": 7457,
      "𝆦": 7458,
      "𝆧": 7459,
      "𝑒": 7460,
      "𝑙": 7461,
      "𝑚": 7462,
      "𝑥": 7463,
      "𝒪": 7464,
      "𝒫": 7465,
      "𝓁": 7466,
      "𝓃": 7467,
      "𝓅": 7468,
      "𝓈": 7469,
      "𝓍": 7470,
      "𝓸": 7471,
      "𝔄": 7472,
      "𝔅": 7473,
      "𝔇": 7474,
      "𝔈": 7475,
      "𝔉": 7476,
      "𝔊": 7477,
      "𝔍": 7478,
      "𝔎": 7479,
      "𝔏": 7480,
      "𝔐": 7481,
      "𝔑": 7482,
      "𝔒": 7483,
      "𝔓": 7484,
      "𝔔": 7485,
      "𝔖": 7486,
      "𝔗": 7487,
      "𝔘": 7488,
      "𝔙": 7489,
      "𝔚": 7490,
      "𝔛": 7491,
      "𝔜": 7492,
      "𝔞": 7493,
      "𝔟": 7494,
      "𝔠": 7495,
      "𝔡": 7496,
      "𝔢": 7497,
      "𝔣": 7498,
      "𝔤": 7499,
      "𝔥": 7500,
      "𝔦": 7501,
      "𝔧": 7502,
      "𝔨": 7503,
      "𝔩": 7504,
      "𝔪": 7505,
      "𝔫": 7506,
      "𝔬": 7507,
      "𝔭": 7508,
      "𝔮": 7509,
      "𝔯": 7510,
      "𝔰": 7511,
      "𝔱": 7512,
      "𝔲": 7513,
      "𝔳": 7514,
      "𝔴": 7515,
      "𝔵": 7516,
      "𝔶": 7517,
      "𝔷": 7518,
      "𝕬": 7519,
      "𝕭": 7520,
      "𝕮": 7521,
      "𝕯": 7522,
      "𝕰": 7523,
      "𝕱": 7524,
      "𝕲": 7525,
      "𝕳": 7526,
      "𝕴": 7527,
      "𝕵": 7528,
      "𝕶": 7529,
      "𝕷": 7530,
      "𝕸": 7531,
      "𝕹": 7532,
      "𝕺": 7533,
      "𝕻": 7534,
      "𝕼": 7535,
      "𝕽": 7536,
      "𝕾": 7537,
      "𝕿": 7538,
      "𝖀": 7539,
      "𝖁": 7540,
      "𝖂": 7541,
      "𝖃": 7542,
      "𝖄": 7543,
      "𝖅": 7544,
      "𝖆": 7545,
      "𝖇": 7546,
      "𝖈": 7547,
      "𝖉": 7548,
      "𝖊": 7549,
      "𝖋": 7550,
      "𝖌": 7551,
      "𝖍": 7552,
      "𝖎": 7553,
      "𝖏": 7554,
      "𝖐": 7555,
      "𝖑": 7556,
      "𝖒": 7557,
      "𝖓": 7558,
      "𝖔": 7559,
      "𝖕": 7560,
      "𝖖": 7561,
      "𝖗": 7562,
      "𝖘": 7563,
      "𝖙": 7564,
      "𝖚": 7565,
      "𝖛": 7566,
      "𝖜": 7567,
      "𝖝": 7568,
      "𝖞": 7569,
      "𝖟": 7570,
      "𝛿": 7571,
      "𝜑": 7572,
      "𝼁": 7573,
      "𝼂": 7574,
      "𝼄": 7575,
      "𝼆": 7576,
      "𝼇": 7577,
      "𝼉": 7578,
      "𝼍": 7579,
      "𝼏": 7580,
      "𝼐": 7581,
      "𝼔": 7582,
      "𝼕": 7583,
      "𝼖": 7584,
      "𝼝": 7585,
      "𝼦": 7586,
      "𝼪": 7587,
      "𞤆": 7588,
      "𞤤": 7589,
      "𞤭": 7590,
      "𞤵": 7591,
      "𞥆": 7592,
      "🇦": 7593,
      "🇩": 7594,
      "🇪": 7595,
      "🇫": 7596,
      "🇭": 7597,
      "🇵": 7598,
      "🇸": 7599,
      "🇿": 7600,
      "🌾": 7601,
      "🏃": 7602,
      "🏴": 7603,
      "🏻": 7604,
      "🏿": 7605,
      "👦": 7606,
      "👨": 7607,
      "👩": 7608,
      "📺": 7609,
      "📻": 7610,
      "🔻": 7611,
      "🗙": 7612,
      "🗴": 7613,
      "🙲": 7614,
      "🜇": 7615,
      "🜈": 7616,
      "🝛": 7617,
      "🝫": 7618,
      "🝬": 7619,
      "🞨": 7620,
      "🞩": 7621,
      "🞪": 7622,
      "🞫": 7623,
      "🞬": 7624,
      "🞭": 7625,
      "🞮": 7626,
      "🦰": 7627,
      "🨁": 7628,
      "𡗶": 7629,
      "𫜵": 7630,
      "𱺵": 7631,
      "▁ا": 7632,
      "▁ال": 7633,
      "▁t": 7634,
      "he": 7635,
      "▁a": 7636,
      "in": 7637,
      "▁the": 7638,
      "er": 7639,
      "▁o": 7640,
      "ed": 7641,
      "on": 7642,
      "▁م": 7643,
      "an": 7644,
      "re": 7645,
      "at": 7646,
      "▁و": 7647,
      "en": 7648,
      "▁w": 7649,
      "▁of": 7650,
      "is": 7651,
      "▁s": 7652,
      "it": 7653,
      "al": 7654,
      "or": 7655,
      "ar": 7656,
      "es": 7657,
      "nd": 7658,
      "▁in": 7659,
      "▁c": 7660,
      "ال": 7661,
      "▁f": 7662,
      "▁ف": 7663,
      "▁b": 7664,
      "as": 7665,
      "▁and": 7666,
      "▁ب": 7667,
      "▁p": 7668,
      "▁ع": 7669,
      "ية": 7670,
      "ing": 7671,
      "ion": 7672,
      "ic": 7673,
      "▁A": 7674,
      "▁to": 7675,
      "ou": 7676,
      "▁في": 7677,
      "ان": 7678,
      "▁الم": 7679,
      "▁d": 7680,
      "▁m": 7681,
      "\n\n": 7682,
      "om": 7683,
      "▁1": 7684,
      "le": 7685,
      "▁h": 7686,
      "▁ل": 7687,
      "ent": 7688,
      "▁S": 7689,
      "ام": 7690,
      "ين": 7691,
      "▁ت": 7692,
      "ات": 7693,
      "am": 7694,
      "لي": 7695,
      "ار": 7696,
      "il": 7697,
      "▁re": 7698,
      "▁من": 7699,
      "▁T": 7700,
      "ad": 7701,
      "▁M": 7702,
      "▁(": 7703,
      "el": 7704,
      "▁I": 7705,
      "▁2": 7706,
      "us": 7707,
      "ro": 7708,
      "▁الا": 7709,
      "ri": 7710,
      "ري": 7711,
      "ra": 7712,
      "▁C": 7713,
      "▁l": 7714,
      "▁th": 7715,
      "ol": 7716,
      "ur": 7717,
      "▁ي": 7718,
      "ها": 7719,
      "▁n": 7720,
      "▁was": 7721,
      "id": 7722,
      "ation": 7723,
      "▁ح": 7724,
      ".\n\n": 7725,
      "▁e": 7726,
      "▁ك": 7727,
      "را": 7728,
      "ct": 7729,
      "▁B": 7730,
      "st": 7731,
      "im": 7732,
      "▁E": 7733,
      "ter": 7734,
      "ly": 7735,
      "▁H": 7736,
      "ir": 7737,
      "ce": 7738,
      "▁وال": 7739,
      "▁19": 7740,
      "▁20": 7741,
      "▁P": 7742,
      "\n-": 7743,
      "ير": 7744,
      "▁be": 7745,
      "▁as": 7746,
      "▁for": 7747,
      "▁al": 7748,
      "ver": 7749,
      "th": 7750,
      "em": 7751,
      "▁س": 7752,
      "▁الع": 7753,
      "اد": 7754,
      "▁g": 7755,
      "ch": 7756,
      "▁on": 7757,
      "pt": 7758,
      "ul": 7759,
      "▁ق": 7760,
      "▁علي": 7761,
      "ول": 7762,
      "ig": 7763,
      "ما": 7764,
      "ut": 7765,
      "ist": 7766,
      "▁الت": 7767,
      "ith": 7768,
      "iv": 7769,
      "ian": 7770,
      "her": 7771,
      "▁is": 7772,
      "▁ان": 7773,
      "ون": 7774,
      "اب": 7775,
      "▁The": 7776,
      "un": 7777,
      "et": 7778,
      "ot": 7779,
      "▁by": 7780,
      "ow": 7781,
      "دي": 7782,
      "▁with": 7783,
      "ور": 7784,
      "ay": 7785,
      "▁ن": 7786,
      "est": 7787,
      "▁D": 7788,
      "▁F": 7789,
      "▁con": 7790,
      "os": 7791,
      "▁st": 7792,
      "▁wh": 7793,
      "▁G": 7794,
      "صر": 7795,
      "▁ه": 7796,
      "▁that": 7797,
      "▁الي": 7798,
      "▁N": 7799,
      "▁R": 7800,
      "s,": 7801,
      "▁الق": 7802,
      "ab": 7803,
      "rom": 7804,
      "▁an": 7805,
      "▁ج": 7806,
      "اس": 7807,
      "▁J": 7808,
      "'s": 7809,
      "ag": 7810,
      "▁L": 7811,
      "and": 7812,
      "▁ش": 7813,
      "▁de": 7814,
      "▁at": 7815,
      "▁he": 7816,
      "لا": 7817,
      "ain": 7818,
      "رة": 7819,
      "وا": 7820,
      "▁الس": 7821,
      "gy": 7822,
      "في": 7823,
      "▁from": 7824,
      "op": 7825,
      "ity": 7826,
      "um": 7827,
      "▁K": 7828,
      "▁his": 7829,
      "ac": 7830,
      "▁الح": 7831,
      "ers": 7832,
      ".\n": 7833,
      "▁\"": 7834,
      "▁د": 7835,
      "لك": 7836,
      "00": 7837,
      "ate": 7838,
      "od": 7839,
      "ud": 7840,
      "رب": 7841,
      "if": 7842,
      "ست": 7843,
      "▁it": 7844,
      "▁لل": 7845,
      "ort": 7846,
      "av": 7847,
      "▁O": 7848,
      "ah": 7849,
      "نا": 7850,
      "pp": 7851,
      "يل": 7852,
      "عد": 7853,
      "▁ر": 7854,
      "حم": 7855,
      "gypt": 7856,
      "res": 7857,
      "oc": 7858,
      "▁خ": 7859,
      "▁W": 7860,
      "▁pro": 7861,
      "ies": 7862,
      "هم": 7863,
      "▁v": 7864,
      "ere": 7865,
      "▁Egypt": 7866,
      "▁su": 7867,
      "يا": 7868,
      "ated": 7869,
      "ment": 7870,
      "▁الد": 7871,
      "▁com": 7872,
      "▁201": 7873,
      "▁U": 7874,
      "▁Al": 7875,
      "▁بال": 7876,
      "ak": 7877,
      "▁se": 7878,
      "qu": 7879,
      "▁الب": 7880,
      "ant": 7881,
      "وم": 7882,
      "▁were": 7883,
      "ber": 7884,
      "▁الف": 7885,
      "art": 7886,
      "عة": 7887,
      "ia": 7888,
      "gh": 7889,
      "se": 7890,
      "▁الج": 7891,
      "▁ex": 7892,
      "▁الش": 7893,
      "ary": 7894,
      "لم": 7895,
      "ld": 7896,
      "▁مع": 7897,
      "يد": 7898,
      "ill": 7899,
      "rou": 7900,
      "ائ": 7901,
      "s.": 7902,
      "▁or": 7903,
      "ich": 7904,
      "وس": 7905,
      "The": 7906,
      "▁اب": 7907,
      "▁k": 7908,
      "ib": 7909,
      "ial": 7910,
      "▁عام": 7911,
      "ast": 7912,
      "ود": 7913,
      "▁al-": 7914,
      "ew": 7915,
      "oun": 7916,
      "▁In": 7917,
      "ته": 7918,
      "ear": 7919,
      "all": 7920,
      "اف": 7921,
      "▁are": 7922,
      "ish": 7923,
      "▁عن": 7924,
      "ran": 7925,
      "ess": 7926,
      "▁الن": 7927,
      "بد": 7928,
      "▁بن": 7929,
      "▁le": 7930,
      "our": 7931,
      "وي": 7932,
      "▁ص": 7933,
      "ip": 7934,
      "end": 7935,
      "قد": 7936,
      "ther": 7937,
      "▁كان": 7938,
      "▁200": 7939,
      "بر": 7940,
      "حمد": 7941,
      "▁which": 7942,
      "e,": 7943,
      "ore": 7944,
      "ub": 7945,
      "▁Is": 7946,
      "cc": 7947,
      "تي": 7948,
      "ical": 7949,
      "رك": 7950,
      "ord": 7951,
      "اء": 7952,
      "over": 7953,
      "▁مصر": 7954,
      "iz": 7955,
      "▁ar": 7956,
      "يم": 7957,
      "اه": 7958,
      "دة": 7959,
      "ard": 7960,
      "ive": 7961,
      "تم": 7962,
      "ru": 7963,
      "▁وا": 7964,
      "ition": 7965,
      "rab": 7966,
      "igh": 7967,
      "ect": 7968,
      "سل": 7969,
      "▁had": 7970,
      "ame": 7971,
      "يس": 7972,
      "▁الك": 7973,
      "ost": 7974,
      "▁ch": 7975,
      "ous": 7976,
      "ign": 7977,
      "ult": 7978,
      "ap": 7979,
      "من": 7980,
      "قي": 7981,
      "so": 7982,
      "ية،": 7983,
      "cl": 7984,
      "rit": 7985,
      "مل": 7986,
      "19": 7987,
      "▁u": 7988,
      "▁He": 7989,
      "ge": 7990,
      "بي": 7991,
      "ell": 7992,
      "ure": 7993,
      "▁وت": 7994,
      "ine": 7995,
      "ong": 7996,
      "ة،": 7997,
      "ass": 7998,
      "▁التي": 7999,
      "▁اس": 8000,
      "▁un": 8001,
      "▁ط": 8002,
      "▁3": 8003,
      "▁not": 8004,
      "a,": 8005,
      "ov": 8006,
      "ave": 8007,
      "▁الذ": 8008,
      "▁الر": 8009,
      "fter": 8010,
      "▁Ab": 8011,
      "صري": 8012,
      "▁الث": 8013,
      "ec": 8014,
      "▁pl": 8015,
      "اع": 8016,
      "▁cont": 8017,
      "▁الخ": 8018,
      "og": 8019,
      "▁also": 8020,
      "aw": 8021,
      "كان": 8022,
      "شر": 8023,
      "قة": 8024,
      "▁Arab": 8025,
      "▁y": 8026,
      "وج": 8027,
      "▁-": 8028,
      "مة": 8029,
      "ust": 8030,
      "ric": 8031,
      "كن": 8032,
      ".\n-": 8033,
      "▁ث": 8034,
      "در": 8035,
      "ction": 8036,
      "▁حي": 8037,
      "▁sh": 8038,
      "ence": 8039,
      "▁who": 8040,
      "ack": 8041,
      "اني": 8042,
      "▁Ch": 8043,
      "ry": 8044,
      "20": 8045,
      "اح": 8046,
      "▁r": 8047,
      "),": 8048,
      "اري": 8049,
      "▁res": 8050,
      "وب": 8051,
      "▁ag": 8052,
      "ني": 8053,
      "مال": 8054,
      "▁its": 8055,
      "ep": 8056,
      "hed": 8057,
      "▁their": 8058,
      "ome": 8059,
      "▁هذ": 8060,
      "▁sp": 8061,
      "لة": 8062,
      "▁St": 8063,
      "▁عبد": 8064,
      "ie": 8065,
      "▁ذ": 8066,
      "ational": 8067,
      "In": 8068,
      "▁الص": 8069,
      "tern": 8070,
      "▁بين": 8071,
      "▁int": 8072,
      "▁«": 8073,
      "ces": 8074,
      "▁ام": 8075,
      "▁ad": 8076,
      "▁part": 8077,
      "كت": 8078,
      "وق": 8079,
      "overn": 8080,
      "دا": 8081,
      "▁الاس": 8082,
      "per": 8083,
      "uring": 8084,
      "بل": 8085,
      "ff": 8086,
      "نة": 8087,
      "ations": 8088,
      "▁cl": 8089,
      "ire": 8090,
      "▁Egyptian": 8091,
      "ok": 8092,
      "ater": 8093,
      "ue": 8094,
      "▁18": 8095,
      "▁have": 8096,
      "▁وم": 8097,
      "▁wor": 8098,
      "age": 8099,
      "ree": 8100,
      "irst": 8101,
      "▁whe": 8102,
      "ren": 8103,
      "زي": 8104,
      "ولي": 8105,
      "لال": 8106,
      "ount": 8107,
      "▁غ": 8108,
      "ile": 8109,
      "▁Y": 8110,
      "▁اخ": 8111,
      "y,": 8112,
      "▁وه": 8113,
      "الم": 8114,
      "هر": 8115,
      "▁att": 8116,
      "▁comp": 8117,
      "▁Un": 8118,
      "▁been": 8119,
      "▁مس": 8120,
      "بة": 8121,
      "▁has": 8122,
      "nder": 8123,
      "▁لم": 8124,
      "▁us": 8125,
      "port": 8126,
      "▁الل": 8127,
      "man": 8128,
      "▁It": 8129,
      "es,": 8130,
      "وف": 8131,
      "▁الام": 8132,
      "▁ما": 8133,
      "own": 8134,
      "حت": 8135,
      "eb": 8136,
      "▁199": 8137,
      "az": 8138,
      "out": 8139,
      "▁but": 8140,
      "▁comm": 8141,
      "ik": 8142,
      "▁im": 8143,
      "ould": 8144,
      "▁بعد": 8145,
      "كر": 8146,
      "clud": 8147,
      "▁ab": 8148,
      "▁this": 8149,
      "fer": 8150,
      "▁ز": 8151,
      "▁حيث": 8152,
      "اض": 8153,
      "تح": 8154,
      "ied": 8155,
      "oll": 8156,
      "سي": 8157,
      "▁محمد": 8158,
      "ارة": 8159,
      "▁الذي": 8160,
      "مر": 8161,
      "ight": 8162,
      "ound": 8163,
      "▁after": 8164,
      "هد": 8165,
      "جم": 8166,
      "erv": 8167,
      "عل": 8168,
      "pl": 8169,
      "▁Th": 8170,
      "▁dis": 8171,
      "▁j": 8172,
      "▁cent": 8173,
      "▁4": 8174,
      "mer": 8175,
      "▁other": 8176,
      "عت": 8177,
      "▁V": 8178,
      "▁الط": 8179,
      "ide": 8180,
      "ory": 8181,
      "▁all": 8182,
      "ham": 8183,
      "rib": 8184,
      "▁first": 8185,
      "▁اي": 8186,
      "rael": 8187,
      "▁app": 8188,
      "▁man": 8189,
      "▁وي": 8190,
      "een": 8191,
      "ally": 8192,
      "جل": 8193,
      "▁tw": 8194,
      "▁المصري": 8195,
      "ade": 8196,
      "▁reg": 8197,
      "ph": 8198,
      "▁govern": 8199,
      "ely": 8200,
      "اج": 8201,
      "▁one": 8202,
      "▁per": 8203,
      "med": 8204,
      "رف": 8205,
      "▁includ": 8206,
      "▁–": 8207,
      "▁الان": 8208,
      "يرة": 8209,
      "▁Ar": 8210,
      "قت": 8211,
      "صل": 8212,
      "▁او": 8213,
      "▁تم": 8214,
      "con": 8215,
      "اط": 8216,
      "▁است": 8217,
      "ions": 8218,
      "ath": 8219,
      "الي": 8220,
      "ates": 8221,
      "ace": 8222,
      "▁5": 8223,
      "ident": 8224,
      "are": 8225,
      "▁year": 8226,
      "ite": 8227,
      "لف": 8228,
      "▁bec": 8229,
      "yri": 8230,
      "▁An": 8231,
      "oin": 8232,
      ")\n": 8233,
      "ited": 8234,
      "▁en": 8235,
      "رج": 8236,
      "▁Israel": 8237,
      "ember": 8238,
      "▁202": 8239,
      "ced": 8240,
      "▁As": 8241,
      "▁6": 8242,
      "عي": 8243,
      "مي": 8244,
      "af": 8245,
      "lic": 8246,
      "ai": 8247,
      "▁198": 8248,
      ").": 8249,
      "▁bo": 8250,
      "▁off": 8251,
      "ilit": 8252,
      "vers": 8253,
      "▁Q": 8254,
      "▁Sh": 8255,
      "اص": 8256,
      "▁المصر": 8257,
      "▁الو": 8258,
      "حد": 8259,
      "▁ro": 8260,
      "▁under": 8261,
      "▁des": 8262,
      "ted": 8263,
      "دين": 8264,
      "ice": 8265,
      "ron": 8266,
      "رن": 8267,
      "▁two": 8268,
      "عب": 8269,
      "سة": 8270,
      "▁him": 8271,
      "▁over": 8272,
      "▁te": 8273,
      "▁197": 8274,
      "▁her": 8275,
      "ادي": 8276,
      "▁during": 8277,
      "1.": 8278,
      "كل": 8279,
      "▁Mar": 8280,
      "دم": 8281,
      "▁Z": 8282,
      "▁rel": 8283,
      "▁they": 8284,
      "old": 8285,
      "wn": 8286,
      "اته": 8287,
      "▁into": 8288,
      "ance": 8289,
      "▁bet": 8290,
      "قل": 8291,
      "▁tim": 8292,
      "▁ev": 8293,
      "▁again": 8294,
      "du": 8295,
      "amp": 8296,
      "ية.": 8297,
      "ts": 8298,
      "▁المن": 8299,
      "ang": 8300,
      "▁Al-": 8301,
      "ween": 8302,
      "▁العرب": 8303,
      "كم": 8304,
      "وت": 8305,
      "ولة": 8306,
      "▁Af": 8307,
      "▁work": 8308,
      "round": 8309,
      "oman": 8310,
      "▁kn": 8311,
      "te": 8312,
      "▁7": 8313,
      "حي": 8314,
      "▁المع": 8315,
      "000": 8316,
      "▁196": 8317,
      "\nThe": 8318,
      "ious": 8319,
      "ثل": 8320,
      "▁pol": 8321,
      "lam": 8322,
      "اريخ": 8323,
      "ose": 8324,
      "ens": 8325,
      "▁pe": 8326,
      "gan": 8327,
      "▁وع": 8328,
      "▁ض": 8329,
      "aj": 8330,
      "▁Se": 8331,
      "reat": 8332,
      "تب": 8333,
      "a.": 8334,
      "▁pres": 8335,
      "ough": 8336,
      "وع": 8337,
      "▁لا": 8338,
      "▁وب": 8339,
      "▁Mus": 8340,
      "▁Pal": 8341,
      "▁between": 8342,
      "قا": 8343,
      "ach": 8344,
      "ement": 8345,
      "▁مح": 8346,
      "▁cons": 8347,
      "▁Syri": 8348,
      "اهرة": 8349,
      "خص": 8350,
      "ild": 8351,
      "▁acc": 8352,
      "▁out": 8353,
      "ه،": 8354,
      "arly": 8355,
      "▁مت": 8356,
      "▁bu": 8357,
      "▁خلال": 8358,
      "▁rec": 8359,
      "▁sc": 8360,
      "▁pre": 8361,
      "rough": 8362,
      "vel": 8363,
      "▁ذلك": 8364,
      "act": 8365,
      "▁والم": 8366,
      "att": 8367,
      "▁بم": 8368,
      "▁me": 8369,
      "ood": 8370,
      "ail": 8371,
      "▁ثم": 8372,
      "ادة": 8373,
      "ities": 8374,
      "ash": 8375,
      "ished": 8376,
      "سم": 8377,
      "تها": 8378,
      "ريق": 8379,
      "▁195": 8380,
      "▁ass": 8381,
      "ند": 8382,
      "ئيس": 8383,
      "ollow": 8384,
      "red": 8385,
      "▁تع": 8386,
      "ince": 8387,
      ")\n-": 8388,
      "صب": 8389,
      "▁حس": 8390,
      "able": 8391,
      "▁De": 8392,
      "اش": 8393,
      "▁ind": 8394,
      "rans": 8395,
      "وات": 8396,
      "gin": 8397,
      "وان": 8398,
      "▁government": 8399,
      "رض": 8400,
      "my": 8401,
      "▁المصرية": 8402,
      "\n|": 8403,
      "ob": 8404,
      "▁city": 8405,
      "▁El": 8406,
      "▁8": 8407,
      "▁هو": 8408,
      "▁ne": 8409,
      "خل": 8410,
      "▁اله": 8411,
      "for": 8412,
      "▁كل": 8413,
      "▁loc": 8414,
      "urn": 8415,
      "▁most": 8416,
      "▁احمد": 8417,
      "▁هذه": 8418,
      "up": 8419,
      "▁against": 8420,
      "▁يع": 8421,
      "▁would": 8422,
      "ans": 8423,
      "رق": 8424,
      "ors": 8425,
      "▁9": 8426,
      "انية": 8427,
      "▁كانت": 8428,
      "▁اع": 8429,
      "ug": 8430,
      "ual": 8431,
      "▁supp": 8432,
      "ارك": 8433,
      "mb": 8434,
      "▁mar": 8435,
      "ثر": 8436,
      ".\n\nThe": 8437,
      "▁وكان": 8438,
      "▁them": 8439,
      "طة": 8440,
      "▁هذا": 8441,
      "es.": 8442,
      "▁Kh": 8443,
      "▁حتي": 8444,
      "ليم": 8445,
      "▁II": 8446,
      "▁Abd": 8447,
      "▁up": 8448,
      "roup": 8449,
      "▁الغ": 8450,
      "iss": 8451,
      "▁new": 8452,
      "ديد": 8453,
      "ener": 8454,
      "حة": 8455,
      "وري": 8456,
      "▁found": 8457,
      "..": 8458,
      "ople": 8459,
      "راء": 8460,
      "ution": 8461,
      "ered": 8462,
      "ased": 8463,
      "فر": 8464,
      "▁قبل": 8465,
      "▁milit": 8466,
      "▁بع": 8467,
      "▁الملك": 8468,
      "one": 8469,
      "orn": 8470,
      "ism": 8471,
      "▁inv": 8472,
      "▁10": 8473,
      "ناء": 8474,
      "ris": 8475,
      "ress": 8476,
      "▁Am": 8477,
      "▁12": 8478,
      "ier": 8479,
      "ضا": 8480,
      "▁known": 8481,
      "aid": 8482,
      "rad": 8483,
      "▁rem": 8484,
      "▁194": 8485,
      "hip": 8486,
      "▁ter": 8487,
      "ورة": 8488,
      "ient": 8489,
      "▁المس": 8490,
      "▁Palest": 8491,
      "outh": 8492,
      ".\n\nA": 8493,
      "raq": 8494,
      "ركة": 8495,
      "▁serv": 8496,
      "yn": 8497,
      "لب": 8498,
      "ram": 8499,
      "pe": 8500,
      "ward": 8501,
      "i,": 8502,
      "▁Afric": 8503,
      "abl": 8504,
      "▁له": 8505,
      "فس": 8506,
      "▁Le": 8507,
      "قب": 8508,
      "▁11": 8509,
      "▁Islam": 8510,
      "▁some": 8511,
      "▁وهو": 8512,
      "دينة": 8513,
      "يات": 8514,
      "فة": 8515,
      "iy": 8516,
      "▁est": 8517,
      "زة": 8518,
      "رائ": 8519,
      "ons": 8520,
      "ings": 8521,
      "▁كما": 8522,
      "▁(19": 8523,
      "▁count": 8524,
      "▁more": 8525,
      "ks": 8526,
      "▁ول": 8527,
      "▁الدين": 8528,
      "▁Com": 8529,
      "تاب": 8530,
      "lim": 8531,
      "▁15": 8532,
      "▁pub": 8533,
      "▁وح": 8534,
      "▁where": 8535,
      "فا": 8536,
      "▁lead": 8537,
      "\nA": 8538,
      "▁ret": 8539,
      "opul": 8540,
      "نية": 8541,
      "ond": 8542,
      "▁follow": 8543,
      "▁الز": 8544,
      "y.": 8545,
      "oh": 8546,
      "aus": 8547,
      "ister": 8548,
      "ed,": 8549,
      "▁sub": 8550,
      ",000": 8551,
      "hen": 8552,
      "min": 8553,
      "▁وج": 8554,
      "▁there": 8555,
      "▁act": 8556,
      "▁بد": 8557,
      "ever": 8558,
      "oy": 8559,
      "▁attack": 8560,
      "ivers": 8561,
      "▁ri": 8562,
      "كي": 8563,
      "ather": 8564,
      "قال": 8565,
      "ذا": 8566,
      "▁later": 8567,
      "▁co": 8568,
      "كس": 8569,
      "خت": 8570,
      "لام": 8571,
      "▁القاهرة": 8572,
      "▁prov": 8573,
      "ern": 8574,
      "▁تح": 8575,
      ".\n\nIn": 8576,
      "▁Iraq": 8577,
      "▁pos": 8578,
      "▁when": 8579,
      "ase": 8580,
      "▁such": 8581,
      "سلام": 8582,
      "ife": 8583,
      "ific": 8584,
      "طي": 8585,
      "▁only": 8586,
      "au": 8587,
      "ating": 8588,
      "▁inter": 8589,
      "arg": 8590,
      "▁=": 8591,
      "ft": 8592,
      "▁hist": 8593,
      "▁King": 8594,
      "▁exp": 8595,
      "▁centur": 8596,
      "▁Re": 8597,
      "▁war": 8598,
      "ower": 8599,
      "▁trans": 8600,
      "mad": 8601,
      "▁qu": 8602,
      "fore": 8603,
      "▁والت": 8604,
      "امعة": 8605,
      "▁انت": 8606,
      "ject": 8607,
      "▁def": 8608,
      "▁اد": 8609,
      "▁(1": 8610,
      "از": 8611,
      "▁وس": 8612,
      "▁المت": 8613,
      "led": 8614,
      "▁fin": 8615,
      "ترة": 8616,
      "▁used": 8617,
      "ative": 8618,
      "▁This": 8619,
      "ternational": 8620,
      "▁inc": 8621,
      "amil": 8622,
      "يو": 8623,
      "▁Mu": 8624,
      "▁مر": 8625,
      "▁ra": 8626,
      "▁مج": 8627,
      "▁pri": 8628,
      "les": 8629,
      "▁هي": 8630,
      "ters": 8631,
      "▁ابو": 8632,
      "▁وقد": 8633,
      "▁col": 8634,
      "▁On": 8635,
      "iod": 8636,
      "▁لي": 8637,
      "▁ين": 8638,
      "▁call": 8639,
      "▁offic": 8640,
      "▁سي": 8641,
      "▁through": 8642,
      "▁people": 8643,
      "▁الاخ": 8644,
      "land": 8645,
      "▁am": 8646,
      "▁she": 8647,
      "▁الاول": 8648,
      "▁about": 8649,
      "▁مما": 8650,
      "▁time": 8651,
      "▁المح": 8652,
      "lex": 8653,
      "▁including": 8654,
      "▁اف": 8655,
      "▁Sa": 8656,
      "وية": 8657,
      "با": 8658,
      "▁ابن": 8659,
      "▁mon": 8660,
      "ماع": 8661,
      "▁للم": 8662,
      "ording": 8663,
      "▁سنة": 8664,
      ")\n\n": 8665,
      "كون": 8666,
      "▁group": 8667,
      "ank": 8668,
      "▁ele": 8669,
      "▁13": 8670,
      "xt": 8671,
      "ved": 8672,
      "▁الار": 8673,
      "ve": 8674,
      "رياض": 8675,
      "rist": 8676,
      "ann": 8677,
      "▁الله": 8678,
      "▁well": 8679,
      "200": 8680,
      "رية": 8681,
      "▁popul": 8682,
      "صة": 8683,
      "ين،": 8684,
      "ake": 8685,
      "افة": 8686,
      "owever": 8687,
      "ten": 8688,
      "▁انه": 8689,
      "است": 8690,
      "▁ent": 8691,
      "ians": 8692,
      "airo": 8693,
      "air": 8694,
      "وفي": 8695,
      "ized": 8696,
      "▁العام": 8697,
      "▁became": 8698,
      "▁بي": 8699,
      "als": 8700,
      "▁Em": 8701,
      "ript": 8702,
      "▁than": 8703,
      "ibn": 8704,
      "▁many": 8705,
      "201": 8706,
      "▁end": 8707,
      "▁14": 8708,
      "▁الاد": 8709,
      "orth": 8710,
      "▁writ": 8711,
      "ict": 8712,
      "▁rep": 8713,
      "▁we": 8714,
      "▁Muslim": 8715,
      "har": 8716,
      "▁United": 8717,
      "▁num": 8718,
      "other": 8719,
      "▁وان": 8720,
      "▁بل": 8721,
      "ert": 8722,
      "ained": 8723,
      "▁dec": 8724,
      "▁ibn": 8725,
      "▁military": 8726,
      "cted": 8727,
      "ents": 8728,
      "tt": 8729,
      "▁sch": 8730,
      "▁then": 8731,
      "▁polit": 8732,
      "سب": 8733,
      "▁اح": 8734,
      "ss": 8735,
      "▁She": 8736,
      "lu": 8737,
      "▁while": 8738,
      "▁لت": 8739,
      "▁17": 8740,
      "uth": 8741,
      "apt": 8742,
      "▁kill": 8743,
      "▁made": 8744,
      "rol": 8745,
      "▁ac": 8746,
      "▁min": 8747,
      "▁Brit": 8748,
      "▁وق": 8749,
      "▁em": 8750,
      "وار": 8751,
      "▁Min": 8752,
      "▁ins": 8753,
      "iversity": 8754,
      "▁name": 8755,
      "▁being": 8756,
      "عا": 8757,
      ")،": 8758,
      "On": 8759,
      "وض": 8760,
      "عم": 8761,
      "رح": 8762,
      "ays": 8763,
      "▁sur": 8764,
      "▁War": 8765,
      "emb": 8766,
      "1,": 8767,
      "der": 8768,
      "▁tra": 8769,
      "▁main": 8770,
      "▁Cairo": 8771,
      "ese": 8772,
      "▁وفي": 8773,
      "▁set": 8774,
      "anu": 8775,
      "▁BC": 8776,
      "▁mov": 8777,
      "\".": 8778,
      "▁three": 8779,
      "olog": 8780,
      "stit": 8781,
      "وح": 8782,
      "–1": 8783,
      "▁بت": 8784,
      "مس": 8785,
      "▁ار": 8786,
      "pr": 8787,
      "ذلك": 8788,
      "▁الاسلام": 8789,
      "\n\nThe": 8790,
      "جي": 8791,
      "▁sever": 8792,
      "ision": 8793,
      "▁region": 8794,
      "ها،": 8795,
      "ed.": 8796,
      "▁ومن": 8797,
      "oci": 8798,
      "▁so": 8799,
      "ax": 8800,
      "▁report": 8801,
      "ia,": 8802,
      "▁form": 8803,
      "وز": 8804,
      "til": 8805,
      "ural": 8806,
      "ale": 8807,
      "▁يت": 8808,
      "وة": 8809,
      "aim": 8810,
      "▁period": 8811,
      "▁مص": 8812,
      "owever,": 8813,
      "لاح": 8814,
      "▁السي": 8815,
      "سط": 8816,
      "dom": 8817,
      "▁Be": 8818,
      "▁Christ": 8819,
      "▁قد": 8820,
      "▁fl": 8821,
      "ثة": 8822,
      "بع": 8823,
      "▁*": 8824,
      "▁sy": 8825,
      "▁تق": 8826,
      "▁En": 8827,
      "راس": 8828,
      "▁bel": 8829,
      "ing,": 8830,
      "ilm": 8831,
      "▁اك": 8832,
      "▁16": 8833,
      "▁establ": 8834,
      "راه": 8835,
      "▁support": 8836,
      "on,": 8837,
      "▁اش": 8838,
      "li": 8839,
      "▁famil": 8840,
      "ي،": 8841,
      "▁Ah": 8842,
      "eban": 8843,
      "▁sign": 8844,
      "an,": 8845,
      "▁مثل": 8846,
      "مه": 8847,
      "ple": 8848,
      "eneral": 8849,
      "وك": 8850,
      "elf": 8851,
      "cient": 8852,
      "ركز": 8853,
      "▁مصري": 8854,
      "▁دور": 8855,
      "اق": 8856,
      "▁el": 8857,
      "▁forces": 8858,
      "velop": 8859,
      "ital": 8860,
      "ober": 8861,
      "▁Jew": 8862,
      "2,": 8863,
      "a'": 8864,
      "ari": 8865,
      "rigin": 8866,
      "ral": 8867,
      "▁dep": 8868,
      "▁Mo": 8869,
      "▁inf": 8870,
      "▁Con": 8871,
      "▁no": 8872,
      "er,": 8873,
      "▁years": 8874,
      "5,": 8875,
      "4,": 8876,
      "▁بط": 8877,
      "▁193": 8878,
      "▁تن": 8879,
      "uthor": 8880,
      "uc": 8881,
      ".\"": 8882,
      "▁can": 8883,
      "▁until": 8884,
      "me": 8885,
      "▁conf": 8886,
      "raph": 8887,
      "ived": 8888,
      "الة": 8889,
      "▁ون": 8890,
      "▁before": 8891,
      "the": 8892,
      "▁early": 8893,
      "▁bro": 8894,
      "▁القدي": 8895,
      "ried": 8896,
      "▁مش": 8897,
      "▁For": 8898,
      "ars": 8899,
      "ists": 8900,
      "adi": 8901,
      "▁Palestin": 8902,
      "ynast": 8903,
      "und": 8904,
      "ool": 8905,
      "ئة": 8906,
      "▁do": 8907,
      "▁stud": 8908,
      "▁these": 8909,
      "جلس": 8910,
      "attle": 8911,
      "▁Leban": 8912,
      "▁British": 8913,
      "راج": 8914,
      "ation,": 8915,
      "▁العالم": 8916,
      "قر": 8917,
      "▁Pro": 8918,
      "3,": 8919,
      "▁اول": 8920,
      "ارس": 8921,
      "▁الفي": 8922,
      "rin": 8923,
      "▁desc": 8924,
      "▁both": 8925,
      "صف": 8926,
      "▁several": 8927,
      "ued": 8928,
      "▁مب": 8929,
      "ke": 8930,
      "يش": 8931,
      "ty": 8932,
      "▁Ib": 8933,
      "دد": 8934,
      "▁ed": 8935,
      "▁ref": 8936,
      "8,": 8937,
      "▁nam": 8938,
      "▁death": 8939,
      "olo": 8940,
      "▁dist": 8941,
      "▁mod": 8942,
      "▁مد": 8943,
      "to": 8944,
      "▁Ham": 8945,
      "une": 8946,
      "▁والد": 8947,
      "omen": 8948,
      "▁مست": 8949,
      "▁king": 8950,
      "يز": 8951,
      "اعد": 8952,
      "\n\nA": 8953,
      "ix": 8954,
      "iter": 8955,
      "rench": 8956,
      "▁called": 8957,
      "▁resp": 8958,
      "▁University": 8959,
      "اة": 8960,
      "▁add": 8961,
      "6,": 8962,
      "▁عند": 8963,
      "che": 8964,
      "وال": 8965,
      "يخ": 8966,
      "رات": 8967,
      "▁occ": 8968,
      "▁بش": 8969,
      "▁العربية": 8970,
      "▁وز": 8971,
      "ti": 8972,
      "\",": 8973,
      "ivil": 8974,
      "▁Ad": 8975,
      "ention": 8976,
      "▁Israeli": 8977,
      "▁art": 8978,
      "طل": 8979,
      "▁البح": 8980,
      "وسي": 8981,
      "cy": 8982,
      "form": 8983,
      "▁سن": 8984,
      "\nIn": 8985,
      "ics": 8986,
      "ماء": 8987,
      "بية": 8988,
      "▁contin": 8989,
      "mar": 8990,
      "▁Islamic": 8991,
      "ajor": 8992,
      "7,": 8993,
      "ible": 8994,
      "uro": 8995,
      "ae": 8996,
      "▁وف": 8997,
      "▁ph": 8998,
      "ially": 8999,
      "▁رئيس": 9000,
      "ants": 9001,
      "▁ايضا": 9002,
      "▁origin": 9003,
      "▁prot": 9004,
      "ind": 9005,
      "▁Arabic": 9006,
      "جد": 9007,
      "▁تاريخ": 9008,
      "ures": 9009,
      "▁ob": 9010,
      "قط": 9011,
      "▁near": 9012,
      "▁play": 9013,
      "cond": 9014,
      "▁عمر": 9015,
      "اك": 9016,
      "▁Oct": 9017,
      "▁bl": 9018,
      "ا،": 9019,
      "▁الال": 9020,
      "▁اث": 9021,
      "▁بعض": 9022,
      "ven": 9023,
      "▁political": 9024,
      "▁الثاني": 9025,
      "▁Gree": 9026,
      "▁به": 9027,
      "▁sec": 9028,
      "sh": 9029,
      "▁،": 9030,
      "كري": 9031,
      "▁Sal": 9032,
      "▁كب": 9033,
      "▁بر": 9034,
      "arch": 9035,
      "idd": 9036,
      "▁ext": 9037,
      "ret": 9038,
      "ger": 9039,
      "ull": 9040,
      "افظ": 9041,
      "meric": 9042,
      "▁'": 9043,
      "▁Abu": 9044,
      "stru": 9045,
      "لكن": 9046,
      "ارات": 9047,
      "▁land": 9048,
      "▁Ju": 9049,
      "▁histor": 9050,
      "▁Alex": 9051,
      "مع": 9052,
      "ثم": 9053,
      "ugust": 9054,
      "any": 9055,
      "osed": 9056,
      "irect": 9057,
      "ged": 9058,
      "▁pers": 9059,
      "▁med": 9060,
      "امل": 9061,
      "▁Sp": 9062,
      "▁Wor": 9063,
      "▁disc": 9064,
      "hammad": 9065,
      "▁trad": 9066,
      "ology": 9067,
      "▁والع": 9068,
      "كندر": 9069,
      "▁بح": 9070,
      "▁French": 9071,
      "ided": 9072,
      "▁said": 9073,
      "anuary": 9074,
      "▁احد": 9075,
      "very": 9076,
      "▁oper": 9077,
      "▁rul": 9078,
      "▁مؤ": 9079,
      "▁بان": 9080,
      "ya": 9081,
      "cept": 9082,
      "وعة": 9083,
      "▁second": 9084,
      "فت": 9085,
      "▁عم": 9086,
      "▁partic": 9087,
      "▁country": 9088,
      "▁الاست": 9089,
      "▁led": 9090,
      "ograph": 9091,
      "▁May": 9092,
      "غم": 9093,
      "▁following": 9094,
      "▁lik": 9095,
      "جه": 9096,
      "9,": 9097,
      "conom": 9098,
      "حمود": 9099,
      "que": 9100,
      "cript": 9101,
      "arge": 9102,
      "▁cap": 9103,
      "ured": 9104,
      "▁may": 9105,
      "▁السل": 9106,
      ".\n\nH": 9107,
      "▁dif": 9108,
      "▁دي": 9109,
      "ually": 9110,
      "▁المست": 9111,
      "resent": 9112,
      "50": 9113,
      "▁السياس": 9114,
      "▁cult": 9115,
      "▁October": 9116,
      "▁return": 9117,
      "▁اص": 9118,
      "▁By": 9119,
      "طقة": 9120,
      "▁own": 9121,
      "▁New": 9122,
      "▁Roman": 9123,
      "▁Comm": 9124,
      "اخ": 9125,
      "ظهر": 9126,
      "10": 9127,
      "▁ولكن": 9128,
      "▁four": 9129,
      "▁Tur": 9130,
      "▁عمل": 9131,
      "ful": 9132,
      "angu": 9133,
      "▁produ": 9134,
      "▁imp": 9135,
      "▁car": 9136,
      "▁Alexand": 9137,
      "▁August": 9138,
      "عيد": 9139,
      "▁number": 9140,
      "▁At": 9141,
      "▁January": 9142,
      "▁غير": 9143,
      "▁Sept": 9144,
      "▁around": 9145,
      "▁camp": 9146,
      "اي": 9147,
      "رد": 9148,
      "▁يم": 9149,
      "▁القرن": 9150,
      "▁ann": 9151,
      "▁state": 9152,
      "▁سب": 9153,
      "▁control": 9154,
      "▁head": 9155,
      "▁national": 9156,
      "اسم": 9157,
      "iew": 9158,
      "رت": 9159,
      "▁author": 9160,
      "▁develop": 9161,
      "rew": 9162,
      "ause": 9163,
      "udi": 9164,
      "▁century": 9165,
      "▁(ال": 9166,
      "us,": 9167,
      "ization": 9168,
      "▁capt": 9169,
      "▁عشر": 9170,
      "▁go": 9171,
      "ani": 9172,
      "▁public": 9173,
      "رع": 9174,
      "▁\n": 9175,
      "▁اغ": 9176,
      "ورية": 9177,
      "▁son": 9178,
      "يلة": 9179,
      "ek": 9180,
      "برا": 9181,
      "▁يق": 9182,
      "▁كتاب": 9183,
      "▁organ": 9184,
      "▁al-M": 9185,
      "▁وهي": 9186,
      "ouse": 9187,
      "ccess": 9188,
      "يف": 9189,
      "▁العمل": 9190,
      "ccording": 9191,
      "ains": 9192,
      "▁Ph": 9193,
      "▁المج": 9194,
      "ief": 9195,
      "co": 9196,
      "ified": 9197,
      "▁Americ": 9198,
      "cil": 9199,
      "▁July": 9200,
      "ise": 9201,
      "▁power": 9202,
      "▁sm": 9203,
      "▁Syrian": 9204,
      "▁took": 9205,
      "▁Ass": 9206,
      "▁اج": 9207,
      "ilt": 9208,
      "▁March": 9209,
      "▁وش": 9210,
      "▁prom": 9211,
      "طان": 9212,
      "▁along": 9213,
      "▁dem": 9214,
      "▁stat": 9215,
      "▁Med": 9216,
      "▁since": 9217,
      "▁began": 9218,
      "ttoman": 9219,
      "▁spec": 9220,
      "▁المش": 9221,
      "▁major": 9222,
      "ments": 9223,
      "▁Euro": 9224,
      "▁September": 9225,
      "vol": 9226,
      "▁film": 9227,
      "ked": 9228,
      "▁adv": 9229,
      "ract": 9230,
      "▁192": 9231,
      "omb": 9232,
      "تخ": 9233,
      "فن": 9234,
      ":\n": 9235,
      "ives": 9236,
      "▁command": 9237,
      "ross": 9238,
      "mber": 9239,
      "aq": 9240,
      "▁الرا": 9241,
      "▁Nov": 9242,
      "سلسل": 9243,
      "oint": 9244,
      "▁any": 9245,
      "ابة": 9246,
      "▁Jer": 9247,
      "▁high": 9248,
      "eg": 9249,
      "cember": 9250,
      "▁life": 9251,
      "▁الرياض": 9252,
      "eh": 9253,
      "▁vill": 9254,
      "▁relig": 9255,
      "▁back": 9256,
      "▁area": 9257,
      "rus": 9258,
      "row": 9259,
      "rat": 9260,
      "▁claim": 9261,
      "▁commun": 9262,
      "▁same": 9263,
      "▁His": 9264,
      "▁long": 9265,
      "▁بدا": 9266,
      "▁World": 9267,
      "▁trib": 9268,
      "▁world": 9269,
      "▁الض": 9270,
      "▁Palestinian": 9271,
      "ised": 9272,
      "وه": 9273,
      "▁did": 9274,
      "▁الذين": 9275,
      "ility": 9276,
      "▁National": 9277,
      "▁المؤ": 9278,
      "خرج": 9279,
      "▁righ": 9280,
      "stem": 9281,
      "غير": 9282,
      "pril": 9283,
      "ctions": 9284,
      "▁import": 9285,
      "▁الاف": 9286,
      "ages": 9287,
      "▁law": 9288,
      "▁build": 9289,
      "▁Ind": 9290,
      "▁جامعة": 9291,
      "▁Fran": 9292,
      "▁الاج": 9293,
      "▁place": 9294,
      "قدم": 9295,
      "ys": 9296,
      "▁بها": 9297,
      "▁result": 9298,
      "▁تت": 9299,
      "▁among": 9300,
      "ثير": 9301,
      "▁Ottoman": 9302,
      "▁مدينة": 9303,
      "▁June": 9304,
      "▁عليه": 9305,
      "▁fe": 9306,
      "gl": 9307,
      "يت": 9308,
      "▁Christian": 9309,
      "ries": 9310,
      "oot": 9311,
      "وط": 9312,
      "▁al-A": 9313,
      "▁30": 9314,
      "▁eff": 9315,
      "▁Sud": 9316,
      "▁consid": 9317,
      "▁تش": 9318,
      "▁leg": 9319,
      "ائل": 9320,
      "كوم": 9321,
      "urch": 9322,
      "▁town": 9323,
      "▁تحت": 9324,
      ".\n\nS": 9325,
      "▁tem": 9326,
      "▁army": 9327,
      "وير": 9328,
      "ook": 9329,
      "راهيم": 9330,
      "▁اكت": 9331,
      "▁December": 9332,
      "▁ear": 9333,
      "▁Muhammad": 9334,
      "alem": 9335,
      "▁op": 9336,
      "▁يد": 9337,
      "▁opp": 9338,
      "uman": 9339,
      "▁محمود": 9340,
      "ouncil": 9341,
      "▁Or": 9342,
      "wa": 9343,
      "رم": 9344,
      "▁نفس": 9345,
      "e.": 9346,
      "▁(م": 9347,
      "▁الدولة": 9348,
      "pire": 9349,
      "▁وك": 9350,
      "-S": 9351,
      "▁واس": 9352,
      "▁الاع": 9353,
      "روف": 9354,
      ".\n\nC": 9355,
      "esp": 9356,
      "ef": 9357,
      "بت": 9358,
      "embers": 9359,
      "uch": 9360,
      "غل": 9361,
      "iph": 9362,
      "▁الفيلم": 9363,
      "▁arch": 9364,
      "ning": 9365,
      "به": 9366,
      "▁po": 9367,
      "راف": 9368,
      "▁فيلم": 9369,
      "▁November": 9370,
      "▁Co": 9371,
      "▁could": 9372,
      "aking": 9373,
      "▁appear": 9374,
      "▁ancient": 9375,
      "▁25": 9376,
      "estern": 9377,
      "▁الاولي": 9378,
      "الية": 9379,
      "ياة": 9380,
      "▁held": 9381,
      "قيق": 9382,
      "ختلف": 9383,
      "ضم": 9384,
      "▁Moham": 9385,
      "▁لكن": 9386,
      "ebru": 9387,
      "▁منها": 9388,
      "▁Sec": 9389,
      "kh": 9390,
      "ebruary": 9391,
      "امي": 9392,
      "▁الثال": 9393,
      "iddle": 9394,
      "▁حكم": 9395,
      "ission": 9396,
      "gg": 9397,
      "رس": 9398,
      "غة": 9399,
      "rid": 9400,
      "يرته": 9401,
      "▁April": 9402,
      "▁local": 9403,
      "ird": 9404,
      "▁المتح": 9405,
      "▁day": 9406,
      "ature": 9407,
      "▁civil": 9408,
      "ocial": 9409,
      "ork": 9410,
      "▁population": 9411,
      "ali": 9412,
      "▁حسن": 9413,
      "▁sl": 9414,
      "2.": 9415,
      "▁success": 9416,
      "ament": 9417,
      "usalem": 9418,
      "ultan": 9419,
      "▁المد": 9420,
      "لاق": 9421,
      "▁Greek": 9422,
      "▁tradition": 9423,
      "▁Ali": 9424,
      "rent": 9425,
      "▁killed": 9426,
      "▁فيها": 9427,
      "ically": 9428,
      "▁langu": 9429,
      "ket": 9430,
      "iel": 9431,
      "ended": 9432,
      "ting": 9433,
      "▁However,": 9434,
      "حو": 9435,
      "▁child": 9436,
      "▁اق": 9437,
      "▁Her": 9438,
      "por": 9439,
      "سن": 9440,
      "▁will": 9441,
      "ينما": 9442,
      "▁rece": 9443,
      "وسف": 9444,
      "▁team": 9445,
      ".\n\nال": 9446,
      "▁الاسكندر": 9447,
      "though": 9448,
      "صور": 9449,
      "▁official": 9450,
      "uss": 9451,
      "زل": 9452,
      "▁تج": 9453,
      "▁They": 9454,
      "aced": 9455,
      "ague": 9456,
      "ration": 9457,
      "▁sent": 9458,
      "ins": 9459,
      "uf": 9460,
      "▁تلك": 9461,
      "illion": 9462,
      "▁/": 9463,
      "▁Pres": 9464,
      "▁ru": 9465,
      "augh": 9466,
      "وائ": 9467,
      "يني": 9468,
      "ليل": 9469,
      "جمع": 9470,
      "hab": 9471,
      "its": 9472,
      "rah": 9473,
      "▁Jerusalem": 9474,
      "▁التح": 9475,
      "o,": 9476,
      "way": 9477,
      "طفي": 9478,
      "نان": 9479,
      "▁reb": 9480,
      "▁book": 9481,
      "▁Lib": 9482,
      "▁tit": 9483,
      "▁established": 9484,
      "▁February": 9485,
      "ordan": 9486,
      "▁large": 9487,
      "▁tax": 9488,
      "aliph": 9489,
      "▁Kingdom": 9490,
      "▁rest": 9491,
      "▁father": 9492,
      "els": 9493,
      "epend": 9494,
      "▁فترة": 9495,
      "»،": 9496,
      "انون": 9497,
      "30": 9498,
      "▁عب": 9499,
      "▁system": 9500,
      "▁family": 9501,
      "▁شخص": 9502,
      "ذه": 9503,
      "▁members": 9504,
      "men": 9505,
      "▁Mor": 9506,
      "باب": 9507,
      "▁former": 9508,
      "▁ات": 9509,
      "▁Europe": 9510,
      "▁publ": 9511,
      "ات،": 9512,
      "▁econom": 9513,
      "زيز": 9514,
      "tle": 9515,
      "رائيل": 9516,
      "الح": 9517,
      "▁prev": 9518,
      "▁اخري": 9519,
      "▁Par": 9520,
      "-A": 9521,
      "▁(A": 9522,
      "▁African": 9523,
      "▁larg": 9524,
      "▁After": 9525,
      "▁born": 9526,
      "▁died": 9527,
      "▁care": 9528,
      "ular": 9529,
      "▁ود": 9530,
      "▁air": 9531,
      "agh": 9532,
      "▁tomb": 9533,
      "▁differ": 9534,
      "ute": 9535,
      "▁position": 9536,
      "▁div": 9537,
      "urity": 9538,
      "▁var": 9539,
      "هما": 9540,
      "ضي": 9541,
      "▁بالق": 9542,
      "cent": 9543,
      "ies,": 9544,
      ".\n\nB": 9545,
      "▁Gaz": 9546,
      "ior": 9547,
      "rison": 9548,
      "empt": 9549,
      "طر": 9550,
      "ذي": 9551,
      "جة": 9552,
      "▁2010": 9553,
      "دري": 9554,
      "▁ابراهيم": 9555,
      "اصة": 9556,
      "▁مق": 9557,
      "ne": 9558,
      "▁represent": 9559,
      "▁south": 9560,
      "زء": 9561,
      "▁را": 9562,
      "فل": 9563,
      "▁حم": 9564,
      "يدة": 9565,
      "rig": 9566,
      "حا": 9567,
      "▁زوج": 9568,
      "▁left": 9569,
      "▁sour": 9570,
      "▁ولا": 9571,
      "▁ابي": 9572,
      "ظم": 9573,
      "▁women": 9574,
      "3.": 9575,
      "ms": 9576,
      "▁cour": 9577,
      ".\n\nE": 9578,
      "▁refer": 9579,
      "▁العديد": 9580,
      "▁describ": 9581,
      "ريف": 9582,
      "ently": 9583,
      "▁use": 9584,
      "▁poss": 9585,
      "ick": 9586,
      "anc": 9587,
      "▁نادي": 9588,
      "▁cre": 9589,
      "alth": 9590,
      "▁sim": 9591,
      "ought": 9592,
      "صاد": 9593,
      "▁Dam": 9594,
      "▁start": 9595,
      "▁direct": 9596,
      "▁north": 9597,
      "▁Cup": 9598,
      "▁inst": 9599,
      "ately": 9600,
      "ديدة": 9601,
      "▁الدول": 9602,
      "امة": 9603,
      "▁dest": 9604,
      "▁due": 9605,
      "▁International": 9606,
      "▁الاسرة": 9607,
      "ih": 9608,
      "11": 9609,
      "▁يوم": 9610,
      "ربية": 9611,
      "read": 9612,
      "ولا": 9613,
      "▁بالم": 9614,
      "▁small": 9615,
      "▁within": 9616,
      "▁عدد": 9617,
      "▁Syria": 9618,
      "par": 9619,
      "▁مم": 9620,
      "▁Sudan": 9621,
      "فع": 9622,
      "rict": 9623,
      "وص": 9624,
      "ublic": 9625,
      "oreign": 9626,
      "هل": 9627,
      "▁مصر،": 9628,
      "▁Jewish": 9629,
      "▁rele": 9630,
      "▁let": 9631,
      "5.": 9632,
      "▁appro": 9633,
      "▁modern": 9634,
      "aving": 9635,
      "فاع": 9636,
      "erman": 9637,
      "▁النا": 9638,
      "اخل": 9639,
      "▁Mos": 9640,
      "ارية": 9641,
      "asc": 9642,
      "▁Egypt,": 9643,
      "▁cor": 9644,
      "▁يش": 9645,
      "▁2011": 9646,
      "▁reported": 9647,
      "▁:": 9648,
      "▁States": 9649,
      "ناك": 9650,
      "▁«ال": 9651,
      "ield": 9652,
      "اير": 9653,
      "ان،": 9654,
      "yp": 9655,
      "astern": 9656,
      ".\n1.": 9657,
      "وش": 9658,
      "▁التاريخ": 9659,
      "ason": 9660,
      "▁الرئيس": 9661,
      "سكر": 9662,
      "4.": 9663,
      "ynasty": 9664,
      "▁ser": 9665,
      "▁located": 9666,
      "▁sold": 9667,
      "minist": 9668,
      "ثي": 9669,
      "▁pass": 9670,
      "▁الجن": 9671,
      "ارج": 9672,
      "▁Govern": 9673,
      "▁built": 9674,
      "▁reign": 9675,
      "-b": 9676,
      "ين.": 9677,
      "▁Cent": 9678,
      "ched": 9679,
      "is,": 9680,
      "▁منذ": 9681,
      "▁Bar": 9682,
      "▁قام": 9683,
      "rain": 9684,
      "حل": 9685,
      "▁Ram": 9686,
      "outher": 9687,
      "sp": 9688,
      "le,": 9689,
      "▁Ital": 9690,
      "▁.": 9691,
      ".\n\nP": 9692,
      "▁حول": 9693,
      "▁يوسف": 9694,
      "صبح": 9695,
      "▁those": 9696,
      "▁عهد": 9697,
      "eum": 9698,
      "outhern": 9699,
      "▁vis": 9700,
      "▁East": 9701,
      "دية": 9702,
      "اهم": 9703,
      "▁influ": 9704,
      "▁عدة": 9705,
      "▁Minister": 9706,
      "7.": 9707,
      "جر": 9708,
      "▁sit": 9709,
      "▁activ": 9710,
      "\nS": 9711,
      "▁الحدي": 9712,
      "▁colle": 9713,
      "▁par": 9714,
      "▁للت": 9715,
      "ues": 9716,
      "▁schol": 9717,
      "▁person": 9718,
      "▁للا": 9719,
      "▁Ibn": 9720,
      "▁str": 9721,
      "ument": 9722,
      "▁iss": 9723,
      "▁ident": 9724,
      "21": 9725,
      "اما": 9726,
      "▁school": 9727,
      "▁la": 9728,
      "وقع": 9729,
      "▁,": 9730,
      "ni": 9731,
      "▁show": 9732,
      "▁Car": 9733,
      "▁member": 9734,
      "6.": 9735,
      "▁incre": 9736,
      "▁Alexandri": 9737,
      "▁last": 9738,
      "ired": 9739,
      "al,": 9740,
      "▁والتي": 9741,
      "▁يس": 9742,
      "▁Jordan": 9743,
      "▁تس": 9744,
      "urther": 9745,
      "▁Air": 9746,
      "ربي": 9747,
      "لاء": 9748,
      "▁bin": 9749,
      "▁المم": 9750,
      "ime": 9751,
      "▁اليه": 9752,
      "hern": 9753,
      "ion,": 9754,
      "▁international": 9755,
      "اسي": 9756,
      "▁وخ": 9757,
      "▁()": 9758,
      "ودة": 9759,
      "▁العلم": 9760,
      "ops": 9761,
      "▁Ag": 9762,
      "▁water": 9763,
      "▁ور": 9764,
      "▁expl": 9765,
      "▁because": 9766,
      "8.": 9767,
      "▁tro": 9768,
      "ointed": 9769,
      "▁Saudi": 9770,
      "▁الوط": 9771,
      "ma": 9772,
      "▁Africa": 9773,
      "▁الصح": 9774,
      "لت": 9775,
      "ex": 9776,
      "▁باش": 9777,
      "▁American": 9778,
      "▁واح": 9779,
      "ences": 9780,
      "▁open": 9781,
      "▁Pri": 9782,
      "▁All": 9783,
      "▁جن": 9784,
      "▁event": 9785,
      "وبر": 9786,
      "ines": 9787,
      "orate": 9788,
      "▁Mah": 9789,
      "▁cur": 9790,
      "ia.": 9791,
      "▁Som": 9792,
      "▁men": 9793,
      "وني": 9794,
      "orthern": 9795,
      "ماعيل": 9796,
      "yl": 9797,
      "▁join": 9798,
      "ius": 9799,
      "جموعة": 9800,
      "▁prop": 9801,
      "▁President": 9802,
      "▁Rep": 9803,
      "ele": 9804,
      "iving": 9805,
      "Is": 9806,
      "hes": 9807,
      "▁الشيخ": 9808,
      "▁port": 9809,
      "بط": 9810,
      "▁late": 9811,
      "▁ولد": 9812,
      "▁Empire": 9813,
      "ological": 9814,
      "تد": 9815,
      "داث": 9816,
      "▁month": 9817,
      "aign": 9818,
      "emen": 9819,
      "واق": 9820,
      "انب": 9821,
      "راد": 9822,
      "ored": 9823,
      "ront": 9824,
      "▁capital": 9825,
      "▁اسم": 9826,
      "ock": 9827,
      "▁وص": 9828,
      "▁لان": 9829,
      "▁فان": 9830,
      "aster": 9831,
      "\n\nIn": 9832,
      "ه.": 9833,
      "عر": 9834,
      "▁US": 9835,
      "▁الات": 9836,
      "ثيل": 9837,
      "▁attempt": 9838,
      "rand": 9839,
      "▁old": 9840,
      "▁III": 9841,
      "day": 9842,
      "▁served": 9843,
      "▁named": 9844,
      "كا": 9845,
      "▁stru": 9846,
      "ck": 9847,
      "▁hand": 9848,
      "▁comple": 9849,
      "ayy": 9850,
      "▁Council": 9851,
      "▁Ne": 9852,
      "▁brother": 9853,
      "▁published": 9854,
      "▁mus": 9855,
      "▁char": 9856,
      "omin": 9857,
      "▁ثلا": 9858,
      "▁اكثر": 9859,
      "▁21": 9860,
      "▁based": 9861,
      "199": 9862,
      "uted": 9863,
      "▁القر": 9864,
      "▁الكب": 9865,
      "جا": 9866,
      "▁اخر": 9867,
      "side": 9868,
      "▁ran": 9869,
      "ze": 9870,
      "ation.": 9871,
      "لكة": 9872,
      "عتبر": 9873,
      "هي": 9874,
      "▁still": 9875,
      "وسط": 9876,
      "na": 9877,
      "▁0": 9878,
      "ests": 9879,
      "▁now": 9880,
      "ily": 9881,
      "ense": 9882,
      "▁Palestine": 9883,
      ".\n\nD": 9884,
      "ara": 9885,
      "ean": 9886,
      "▁فيه": 9887,
      "لسط": 9888,
      "ظيم": 9889,
      "wards": 9890,
      "▁سل": 9891,
      "▁crit": 9892,
      "▁فقد": 9893,
      "ana": 9894,
      "فق": 9895,
      "▁مسيرته": 9896,
      "▁المه": 9897,
      "▁order": 9898,
      "م،": 9899,
      "▁agre": 9900,
      ".S": 9901,
      "نائ": 9902,
      "▁gu": 9903,
      "تماع": 9904,
      "ضاء": 9905,
      "▁البل": 9906,
      "▁another": 9907,
      "or,": 9908,
      "▁German": 9909,
      "osition": 9910,
      "▁لها": 9911,
      "ected": 9912,
      "▁constru": 9913,
      "▁record": 9914,
      "تين": 9915,
      "▁التع": 9916,
      "▁الثالث": 9917,
      "▁[": 9918,
      "▁2020": 9919,
      "▁Middle": 9920,
      "iver": 9921,
      "▁ظ": 9922,
      "▁بج": 9923,
      "ية\n\n": 9924,
      "واء": 9925,
      "▁انش": 9926,
      "راق": 9927,
      "ers,": 9928,
      "▁Part": 9929,
      "iber": 9930,
      "▁العل": 9931,
      "25": 9932,
      "▁decl": 9933,
      "▁يناير": 9934,
      "▁mat": 9935,
      "▁init": 9936,
      "rip": 9937,
      "ush": 9938,
      ".\n\nM": 9939,
      "▁الاح": 9940,
      "\n1.": 9941,
      "9.": 9942,
      "ثال": 9943,
      "ina": 9944,
      "ولد": 9945,
      "▁Moroc": 9946,
      "▁اعمال": 9947,
      "la": 9948,
      "istory": 9949,
      "idence": 9950,
      "▁present": 9951,
      "ively": 9952,
      "▁al-S": 9953,
      "▁مجلس": 9954,
      "اتها": 9955,
      "alle": 9956,
      "iers": 9957,
      "▁قر": 9958,
      "▁often": 9959,
      "▁educ": 9960,
      "▁Gu": 9961,
      "ring": 9962,
      "▁يعكس": 9963,
      "aken": 9964,
      "تمع": 9965,
      "ضع": 9966,
      "▁det": 9967,
      "▁المتحدة": 9968,
      "▁Pers": 9969,
      "زوج": 9970,
      "hem": 9971,
      "▁important": 9972,
      "▁even": 9973,
      "self": 9974,
      "ested": 9975,
      "خر": 9976,
      "▁Ber": 9977,
      "▁allow": 9978,
      "▁2012": 9979,
      "val": 9980,
      ".\n\nت": 9981,
      "▁191": 9982,
      "▁met": 9983,
      "▁نظ": 9984,
      "اذ": 9985,
      "▁Bah": 9986,
      "▁Joh": 9987,
      "▁hel": 9988,
      "oss": 9989,
      "oud": 9990,
      "▁الاك": 9991,
      "خد": 9992,
      "▁addition": 9993,
      "▁independ": 9994,
      "▁بار": 9995,
      "unis": 9996,
      "▁Pe": 9997,
      "▁According": 9998,
      "-s": 9999,
      "...": 10000,
      "ably": 10001,
      "▁مصطفي": 10002,
      "▁site": 10003,
      "overed": 10004,
      "ony": 10005,
      "▁Lebanon": 10006,
      "▁تط": 10007,
      "▁defe": 10008,
      "▁23": 10009,
      "ama": 10010,
      "▁24": 10011,
      "▁each": 10012,
      "▁prin": 10013,
      "▁territ": 10014,
      "▁various": 10015,
      "▁مجال": 10016,
      "ing.": 10017,
      "▁بدور": 10018,
      "زب": 10019,
      "ضل": 10020,
      "▁انها": 10021,
      "hara": 10022,
      "▁belie": 10023,
      "stitution": 10024,
      "ploy": 10025,
      "▁Egypt.": 10026,
      "used": 10027,
      "▁الميل": 10028,
      "▁Sc": 10029,
      "▁Col": 10030,
      "leg": 10031,
      "بدا": 10032,
      ".S.": 10033,
      "alf": 10034,
      "▁campaign": 10035,
      "urd": 10036,
      "iven": 10037,
      "24": 10038,
      "سبب": 10039,
      "▁aff": 10040,
      "▁الفترة": 10041,
      "▁لع": 10042,
      "oth": 10043,
      "بات": 10044,
      "▁Fat": 10045,
      "▁مركز": 10046,
      "▁president": 10047,
      "راع": 10048,
      "▁الشرق": 10049,
      "▁نش": 10050,
      "▁conqu": 10051,
      "▁2014": 10052,
      "nal": 10053,
      "rest": 10054,
      "▁League": 10055,
      "cess": 10056,
      "23": 10057,
      "▁transl": 10058,
      "▁prob": 10059,
      "ety": 10060,
      "▁قائ": 10061,
      "80": 10062,
      "افظة": 10063,
      "zant": 10064,
      "▁الساب": 10065,
      "▁Gaza": 10066,
      "ray": 10067,
      "▁history": 10068,
      "▁came": 10069,
      "ball": 10070,
      "▁god": 10071,
      "tal": 10072,
      "▁الوق": 10073,
      "▁والح": 10074,
      "سية": 10075,
      "▁Iran": 10076,
      "اهر": 10077,
      "▁role": 10078,
      "بار": 10079,
      "▁design": 10080,
      "▁social": 10081,
      "\n\nS": 10082,
      "وذ": 10083,
      "ency": 10084,
      "osp": 10085,
      "▁post": 10086,
      "▁قال": 10087,
      "▁القديمة": 10088,
      "ادل": 10089,
      "▁prof": 10090,
      "رز": 10091,
      "▁Wh": 10092,
      "ounced": 10093,
      "ined": 10094,
      "er.": 10095,
      "▁حد": 10096,
      "▁text": 10097,
      "▁سم": 10098,
      "▁التن": 10099,
      "▁المسلم": 10100,
      "▁included": 10101,
      "60": 10102,
      "▁prog": 10103,
      "t,": 10104,
      "رير": 10105,
      "▁2000": 10106,
      "وما": 10107,
      "وزي": 10108,
      "▁requ": 10109,
      "▁appointed": 10110,
      "▁like": 10111,
      "▁باسم": 10112,
      "▁great": 10113,
      "يب": 10114,
      "▁North": 10115,
      "احة": 10116,
      "rade": 10117,
      "ity,": 10118,
      "-M": 10119,
      "▁Ahmed": 10120,
      "▁Iraqi": 10121,
      "▁بشكل": 10122,
      "rop": 10123,
      "istan": 10124,
      "▁الجيش": 10125,
      "▁considered": 10126,
      "▁religious": 10127,
      "ريم": 10128,
      "ira": 10129,
      "▁human": 10130,
      "▁العربي": 10131,
      "ared": 10132,
      "▁فت": 10133,
      "درسة": 10134,
      "▁help": 10135,
      "eng": 10136,
      "glish": 10137,
      "▁continued": 10138,
      "▁فر": 10139,
      "▁خط": 10140,
      "▁Turk": 10141,
      "▁عليها": 10142,
      "aged": 10143,
      "oph": 10144,
      "▁باشا": 10145,
      "ids": 10146,
      "جن": 10147,
      "▁children": 10148,
      "▁لاع": 10149,
      "▁الاش": 10150,
      "ror": 10151,
      "والي": 10152,
      "▁different": 10153,
      "▁received": 10154,
      ".\n\nOn": 10155,
      "▁الشر": 10156,
      "▁bomb": 10157,
      "sequ": 10158,
      "-1": 10159,
      "ices": 10160,
      "صار": 10161,
      "الد": 10162,
      "▁اهم": 10163,
      "▁what": 10164,
      "راسة": 10165,
      "▁دار": 10166,
      "ikh": 10167,
      "▁2013": 10168,
      "▁Ex": 10169,
      ".\n\nF": 10170,
      "▁هناك": 10171,
      "▁كرة": 10172,
      "ديم": 10173,
      "rial": 10174,
      "ياء": 10175,
      "▁Battle": 10176,
      "▁administ": 10177,
      "ذكر": 10178,
      "▁توفي": 10179,
      "ميع": 10180,
      "▁bord": 10181,
      "ah,": 10182,
      "▁2006": 10183,
      "▁Mal": 10184,
      "ريد": 10185,
      "▁occup": 10186,
      "▁South": 10187,
      "raw": 10188,
      "▁equ": 10189,
      "▁قص": 10190,
      "ll": 10191,
      "▁include": 10192,
      "▁John": 10193,
      "▁Damasc": 10194,
      "يا،": 10195,
      "ize": 10196,
      "mit": 10197,
      "لية": 10198,
      "▁والن": 10199,
      "▁word": 10200,
      "كية": 10201,
      "كرة": 10202,
      "▁Byzant": 10203,
      "▁General": 10204,
      "▁لح": 10205,
      "aughter": 10206,
      "▁force": 10207,
      "ينة": 10208,
      "\nM": 10209,
      "▁Su": 10210,
      "▁تص": 10211,
      "راة": 10212,
      "▁المنا": 10213,
      "▁\n|": 10214,
      "▁There": 10215,
      "اسية": 10216,
      "ar,": 10217,
      "▁Khal": 10218,
      "▁if": 10219,
      "▁further": 10220,
      "▁list": 10221,
      "▁short": 10222,
      "▁يون": 10223,
      "▁State": 10224,
      "حمل": 10225,
      "▁اكتوبر": 10226,
      "▁signific": 10227,
      "com": 10228,
      "▁sugg": 10229,
      "▁Sultan": 10230,
      "▁22": 10231,
      "▁2008": 10232,
      "app": 10233,
      "i.": 10234,
      "▁ke": 10235,
      "▁Abdel": 10236,
      "خدم": 10237,
      "▁الكتاب": 10238,
      "▁er": 10239,
      "▁كم": 10240,
      "▁منصب": 10241,
      "▁invol": 10242,
      "▁ضد": 10243,
      "امج": 10244,
      "▁Nile": 10245,
      "ove": 10246,
      "▁bas": 10247,
      "▁يتم": 10248,
      "▁Abb": 10249,
      "▁U.S.": 10250,
      "▁ضمن": 10251,
      "40": 10252,
      "▁الثق": 10253,
      "▁حسين": 10254,
      "▁Gh": 10255,
      "▁ملك": 10256,
      "▁Port": 10257,
      "atic": 10258,
      "▁written": 10259,
      "volution": 10260,
      "▁al-H": 10261,
      "▁village": 10262,
      "▁These": 10263,
      "io": 10264,
      "▁down": 10265,
      "–0": 10266,
      "تاج": 10267,
      "▁الاز": 10268,
      "▁واب": 10269,
      "▁ومع": 10270,
      "كة": 10271,
      "▁red": 10272,
      "▁عندما": 10273,
      "سان": 10274,
      "▁just": 10275,
      "▁علم": 10276,
      "شي": 10277,
      "▁West": 10278,
      "▁Army": 10279,
      "▁190": 10280,
      "▁leaders": 10281,
      "▁God": 10282,
      "خط": 10283,
      "▁اسماعيل": 10284,
      "▁much": 10285,
      "▁Ben": 10286,
      "تر": 10287,
      "عود": 10288,
      "▁project": 10289,
      "kn": 10290,
      "ogn": 10291,
      "▁particip": 10292,
      "rag": 10293,
      "70": 10294,
      "ta": 10295,
      "▁Cl": 10296,
      "aining": 10297,
      "Th": 10298,
      "arm": 10299,
      "قم": 10300,
      "▁قي": 10301,
      "شف": 10302,
      "ox": 10303,
      "yram": 10304,
      "▁wall": 10305,
      "▁Sch": 10306,
      "▁Mon": 10307,
      "ies.": 10308,
      "▁common": 10309,
      "22": 10310,
      "▁himself": 10311,
      "▁الاسكندرية": 10312,
      "▁rule": 10313,
      "yal": 10314,
      "in,": 10315,
      "▁Tunis": 10316,
      "▁عالم": 10317,
      "▁general": 10318,
      "▁المدينة": 10319,
      "ceed": 10320,
      "▁مختلف": 10321,
      "▁عض": 10322,
      "▁English": 10323,
      "▁2015": 10324,
      "▁conflic": 10325,
      "▁Ge": 10326,
      "اصر": 10327,
      "▁قط": 10328,
      "كتب": 10329,
      "▁France": 10330,
      "istic": 10331,
      "▁وكانت": 10332,
      "▁five": 10333,
      "▁26": 10334,
      "▁non": 10335,
      "▁ord": 10336,
      "▁(S": 10337,
      "▁doc": 10338,
      "ومي": 10339,
      "tole": 10340,
      "▁وط": 10341,
      "ada": 10342,
      "\n\nفي": 10343,
      "ead": 10344,
      "▁gener": 10345,
      "▁الدكت": 10346,
      "وجد": 10347,
      "قية": 10348,
      "aff": 10349,
      "▁مكان": 10350,
      "▁areas": 10351,
      "asion": 10352,
      "▁During": 10353,
      "▁eng": 10354,
      "▁امام": 10355,
      "▁اعت": 10356,
      "▁رم": 10357,
      "▁coast": 10358,
      "▁كلية": 10359,
      "uwa": 10360,
      "istry": 10361,
      "▁few": 10362,
      "قتل": 10363,
      "▁الوز": 10364,
      "▁million": 10365,
      "صول": 10366,
      "▁ست": 10367,
      "iya": 10368,
      "▁Mohamed": 10369,
      "▁عل": 10370,
      "▁stand": 10371,
      "ession": 10372,
      "علوم": 10373,
      "ange": 10374,
      "▁battle": 10375,
      "ality": 10376,
      "▁mos": 10377,
      "▁polic": 10378,
      "▁sing": 10379,
      "▁without": 10380,
      "▁given": 10381,
      "▁مل": 10382,
      "يه": 10383,
      "▁southern": 10384,
      "طا": 10385,
      "▁Yemen": 10386,
      "▁لن": 10387,
      "▁مه": 10388,
      "▁pat": 10389,
      "rated": 10390,
      "▁الساد": 10391,
      "▁Res": 10392,
      "omet": 10393,
      "▁العامة": 10394,
      "▁cit": 10395,
      "جلي": 10396,
      "▁الشخص": 10397,
      "▁Pl": 10398,
      "▁begin": 10399,
      "▁حياته": 10400,
      "ers.": 10401,
      "▁European": 10402,
      "▁charact": 10403,
      "▁قدم": 10404,
      "▁cond": 10405,
      "▁داخل": 10406,
      "ton": 10407,
      "ban": 10408,
      "haraoh": 10409,
      "▁liter": 10410,
      "▁Pash": 10411,
      "▁2019": 10412,
      "سا": 10413,
      "ili": 10414,
      "▁Ma": 10415,
      "▁الاث": 10416,
      "▁troops": 10417,
      "▁وتم": 10418,
      "▁fre": 10419,
      "▁movement": 10420,
      "▁fact": 10421,
      "ned": 10422,
      "ets": 10423,
      "iol": 10424,
      "▁كتب": 10425,
      "سين": 10426,
      "▁الفن": 10427,
      "هة": 10428,
      "▁بك": 10429,
      "كومة": 10430,
      "▁2009": 10431,
      "ner": 10432,
      "▁very": 10433,
      "ene": 10434,
      "▁invest": 10435,
      "eder": 10436,
      "▁اذ": 10437,
      "تل": 10438,
      "▁according": 10439,
      "مالي": 10440,
      "▁Um": 10441,
      "▁2016": 10442,
      "▁building": 10443,
      "هم،": 10444,
      "▁wid": 10445,
      "▁Har": 10446,
      "rodu": 10447,
      "ness": 10448,
      "س،": 10449,
      "thod": 10450,
      "▁189": 10451,
      "▁رج": 10452,
      "▁foreign": 10453,
      "▁fac": 10454,
      "▁الوقت": 10455,
      "انة": 10456,
      "▁28": 10457,
      "▁northern": 10458,
      "▁Alger": 10459,
      "الب": 10460,
      "▁Sam": 10461,
      "ادر": 10462,
      "’s": 10463,
      "اتب": 10464,
      "akh": 10465,
      "▁described": 10466,
      "▁fight": 10467,
      "ائزة": 10468,
      "▁laun": 10469,
      "▁واست": 10470,
      "▁المق": 10471,
      "▁Can": 10472,
      "by": 10473,
      "▁يست": 10474,
      "urs": 10475,
      "▁six": 10476,
      "راك": 10477,
      "ached": 10478,
      "▁يولي": 10479,
      "▁عبر": 10480,
      "▁نق": 10481,
      "▁منه": 10482,
      "▁Bl": 10483,
      ":\n-": 10484,
      "▁يح": 10485,
      "اليف": 10486,
      "▁governor": 10487,
      "▁temple": 10488,
      "ivid": 10489,
      "hood": 10490,
      "aint": 10491,
      "s\n": 10492,
      "▁2017": 10493,
      "▁pract": 10494,
      "▁رس": 10495,
      "-f": 10496,
      "-l": 10497,
      "▁arri": 10498,
      "oyal": 10499,
      "▁win": 10500,
      "▁حق": 10501,
      "▁كبير": 10502,
      "▁right": 10503,
      "▁language": 10504,
      "▁Man": 10505,
      "rote": 10506,
      "بلغ": 10507,
      "اسة": 10508,
      "▁الحكم": 10509,
      "▁Me": 10510,
      "▁صلاح": 10511,
      "عمل": 10512,
      "ography": 10513,
      "▁title": 10514,
      "واب": 10515,
      "▁بالت": 10516,
      "▁العب": 10517,
      "▁class": 10518,
      "▁bod": 10519,
      "قتصاد": 10520,
      "▁ولم": 10521,
      "▁significant": 10522,
      "▁سليم": 10523,
      "ريط": 10524,
      "ides": 10525,
      "».": 10526,
      "سكرية": 10527,
      "▁2005": 10528,
      "▁100": 10529,
      "ator": 10530,
      "roy": 10531,
      "يلي": 10532,
      "view": 10533,
      "▁repl": 10534,
      "▁remained": 10535,
      "▁sources": 10536,
      "▁لاح": 10537,
      "ury": 10538,
      "امع": 10539,
      "▁establish": 10540,
      "▁Ptole": 10541,
      "▁Cy": 10542,
      "uk": 10543,
      "ves": 10544,
      "uri": 10545,
      "▁vict": 10546,
      "▁الامري": 10547,
      "امر": 10548,
      "\n\nM": 10549,
      "▁الميلاد": 10550,
      "-p": 10551,
      "▁my": 10552,
      "اضافة": 10553,
      "▁يمكن": 10554,
      "▁27": 10555,
      "▁conc": 10556,
      "▁account": 10557,
      "king": 10558,
      "▁الحرب": 10559,
      "▁view": 10560,
      "▁relations": 10561,
      "▁Hus": 10562,
      "▁2007": 10563,
      "▁الاسلامية": 10564,
      "بح": 10565,
      "–19": 10566,
      "uwait": 10567,
      ").\n": 10568,
      "▁mother": 10569,
      "▁جميع": 10570,
      "▁economic": 10571,
      "▁دم": 10572,
      "▁2018": 10573,
      "\n\nال": 10574,
      "add": 10575,
      "rem": 10576,
      "get": 10577,
      ".\n\nL": 10578,
      "▁ذات": 10579,
      "شار": 10580,
      "ulf": 10581,
      "▁سنوات": 10582,
      "▁way": 10583,
      "ilar": 10584,
      "▁نس": 10585,
      "▁club": 10586,
      "طار": 10587,
      "زا": 10588,
      "▁take": 10589,
      "واج": 10590,
      "▁played": 10591,
      "▁شخصية": 10592,
      "▁اض": 10593,
      "▁اخراج": 10594,
      "▁security": 10595,
      "▁النيل": 10596,
      "▁wrote": 10597,
      "▁career": 10598,
      "ادية": 10599,
      "نت": 10600,
      "ورا": 10601,
      "▁spe": 10602,
      "▁Bank": 10603,
      "irc": 10604,
      "▁اليوم": 10605,
      "urg": 10606,
      "راسات": 10607,
      "II": 10608,
      "▁recogn": 10609,
      "of": 10610,
      "▁“": 10611,
      "▁تد": 10612,
      "▁السينما": 10613,
      "▁Pol": 10614,
      "▁المصريين": 10615,
      "▁نج": 10616,
      "▁minister": 10617,
      "▁(200": 10618,
      "▁associ": 10619,
      "▁Lebanese": 10620,
      "-D": 10621,
      "▁التم": 10622,
      "▁احت": 10623,
      "▁البر": 10624,
      "▁البحر": 10625,
      "ival": 10626,
      "تمر": 10627,
      "o.": 10628,
      "▁بق": 10629,
      "imes": 10630,
      "▁offer": 10631,
      "▁مرة": 10632,
      "▁exist": 10633,
      "oung": 10634,
      "▁Mam": 10635,
      "lect": 10636,
      "ividual": 10637,
      "▁won": 10638,
      "▁Heb": 10639,
      "▁المب": 10640,
      "▁تر": 10641,
      "▁بني": 10642,
      "▁Museum": 10643,
      "ويل": 10644,
      "ون،": 10645,
      "زم": 10646,
      "اضي": 10647,
      "ظر": 10648,
      "ابل": 10649,
      "▁طريق": 10650,
      "براط": 10651,
      "▁الثانية": 10652,
      "تخب": 10653,
      "▁indic": 10654,
      "رفة": 10655,
      "▁العم": 10656,
      "▁stated": 10657,
      "▁اسرائيل": 10658,
      "ناة": 10659,
      "▁Comp": 10660,
      "ليا": 10661,
      "▁التج": 10662,
      "▁Tal": 10663,
      "▁development": 10664,
      "a's": 10665,
      "▁يج": 10666,
      "يمة": 10667,
      "▁peace": 10668,
      "▁letter": 10669,
      "فال": 10670,
      "▁announced": 10671,
      "▁جزء": 10672,
      "▁حرب": 10673,
      "▁inscript": 10674,
      "▁moved": 10675,
      "▁قصة": 10676,
      "uge": 10677,
      "بعة": 10678,
      "▁منطقة": 10679,
      "ensive": 10680,
      "ience": 10681,
      "وقي": 10682,
      "▁Republic": 10683,
      "▁mention": 10684,
      "▁previous": 10685,
      "atter": 10686,
      "▁fig": 10687,
      "amb": 10688,
      "chn": 10689,
      "▁يوليو": 10690,
      "▁صف": 10691,
      "هب": 10692,
      "cture": 10693,
      "▁states": 10694,
      "▁بسبب": 10695,
      "ification": 10696,
      "stant": 10697,
      "ches": 10698,
      "▁deb": 10699,
      ".\n\nR": 10700,
      "adem": 10701,
      "ories": 10702,
      "▁bus": 10703,
      "iness": 10704,
      "▁القوات": 10705,
      "▁leader": 10706,
      "▁ذلك،": 10707,
      "▁al-D": 10708,
      "▁foot": 10709,
      "قه": 10710,
      "wan": 10711,
      "▁joined": 10712,
      "erc": 10713,
      "▁exc": 10714,
      "assan": 10715,
      "▁turn": 10716,
      "▁الحديث": 10717,
      "▁protect": 10718,
      "▁hold": 10719,
      "▁treat": 10720,
      "ither": 10721,
      "▁Qat": 10722,
      "▁house": 10723,
      "▁arg": 10724,
      "شروع": 10725,
      "▁side": 10726,
      "▁لج": 10727,
      "اليا": 10728,
      "هاب": 10729,
      "▁arm": 10730,
      "ودي": 10731,
      "اهد": 10732,
      "itte": 10733,
      "▁اخت": 10734,
      "▁UN": 10735,
      "▁Al-A": 10736,
      "▁29": 10737,
      "▁third": 10738,
      "▁del": 10739,
      "▁النس": 10740,
      "▁عز": 10741,
      "▁exper": 10742,
      "ertain": 10743,
      "▁daughter": 10744,
      "rahim": 10745,
      "eph": 10746,
      "▁الاص": 10747,
      "▁having": 10748,
      "▁يكون": 10749,
      "▁returned": 10750,
      "iop": 10751,
      "enced": 10752,
      "▁century,": 10753,
      "▁الاحت": 10754,
      "▁lim": 10755,
      "\n\nت": 10756,
      "▁فتح": 10757,
      "▁destroy": 10758,
      "اتي": 10759,
      "▁east": 10760,
      "▁become": 10761,
      "هور": 10762,
      "▁host": 10763,
      "▁القديم": 10764,
      "اديم": 10765,
      "▁للح": 10766,
      "▁Te": 10767,
      "▁\"the": 10768,
      "mp": 10769,
      "isc": 10770,
      "▁sum": 10771,
      "rown": 10772,
      "▁anti": 10773,
      "ها.": 10774,
      "▁al-Q": 10775,
      "▁Nations": 10776,
      "▁والق": 10777,
      "▁Abbas": 10778,
      "▁مجموعة": 10779,
      "▁royal": 10780,
      "▁though": 10781,
      "ering": 10782,
      "▁جمال": 10783,
      "▁1990": 10784,
      "ضة": 10785,
      "▁2004": 10786,
      "ician": 10787,
      "▁Church": 10788,
      "▁الفرن": 10789,
      "ending": 10790,
      "▁mass": 10791,
      "هاية": 10792,
      "▁level": 10793,
      "ampions": 10794,
      "▁الدولي": 10795,
      "▁القاهرة،": 10796,
      "\"،": 10797,
      "Egypt": 10798,
      "▁soldiers": 10799,
      "▁الروم": 10800,
      "▁caus": 10801,
      "ipl": 10802,
      "ينا": 10803,
      "▁effect": 10804,
      "▁viol": 10805,
      "▁av": 10806,
      "▁series": 10807,
      "▁program": 10808,
      "▁فقط": 10809,
      "▁Kuwait": 10810,
      "▁X": 10811,
      "▁Great": 10812,
      "ملة": 10813,
      "most": 10814,
      "▁regard": 10815,
      "18": 10816,
      "\nOn": 10817,
      "▁ship": 10818,
      "▁العزيز": 10819,
      "pper": 10820,
      "▁188": 10821,
      "▁وبعد": 10822,
      "▁موسي": 10823,
      "het": 10824,
      "▁fort": 10825,
      "▁Fatim": 10826,
      "▁الاب": 10827,
      "اول": 10828,
      "orm": 10829,
      "▁Lat": 10830,
      "▁disp": 10831,
      "▁Jos": 10832,
      "▁least": 10833,
      "13": 10834,
      "▁ارب": 10835,
      "▁الحق": 10836,
      "خدام": 10837,
      "▁time,": 10838,
      "نع": 10839,
      "medi": 10840,
      "▁evidence": 10841,
      "▁settle": 10842,
      "ats": 10843,
      "▁read": 10844,
      "▁ren": 10845,
      "حاد": 10846,
      "ائر": 10847,
      "▁pal": 10848,
      "vent": 10849,
      "▁والذي": 10850,
      "▁released": 10851,
      "▁(201": 10852,
      "ائية": 10853,
      "▁دول": 10854,
      "ames": 10855,
      "▁والس": 10856,
      "▁جم": 10857,
      "▁رياض": 10858,
      "▁شارك": 10859,
      "▁should": 10860,
      "15": 10861,
      "▁however,": 10862,
      "ابر": 10863,
      "ope": 10864,
      "▁across": 10865,
      "\nH": 10866,
      "▁واخ": 10867,
      "▁top": 10868,
      "▁taken": 10869,
      "همة": 10870,
      "▁days": 10871,
      "▁lin": 10872,
      "▁مسلسل": 10873,
      "ole": 10874,
      "▁حصل": 10875,
      "▁عش": 10876,
      "▁Alexandria": 10877,
      "▁Art": 10878,
      "\nB": 10879,
      "▁respons": 10880,
      "▁Reg": 10881,
      "14": 10882,
      "▁اما": 10883,
      "yle": 10884,
      "yramid": 10885,
      "\\\\": 10886,
      "▁القدم": 10887,
      "▁50": 10888,
      "▁home": 10889,
      "▁term": 10890,
      "رش": 10891,
      "oub": 10892,
      "▁countries": 10893,
      "▁captured": 10894,
      "ination": 10895,
      "▁مصرية": 10896,
      "▁fun": 10897,
      "قبرة": 10898,
      "▁beh": 10899,
      "▁trade": 10900,
      "▁Ed": 10901,
      "▁similar": 10902,
      "وث": 10903,
      "طلق": 10904,
      "▁jour": 10905,
      "▁بناء": 10906,
      "▁total": 10907,
      "زية": 10908,
      "▁مارس": 10909,
      "▁انتاج": 10910,
      "▁وذلك": 10911,
      "▁Morocco": 10912,
      "▁community": 10913,
      "▁المل": 10914,
      "▁Az": 10915,
      "▁although": 10916,
      "unic": 10917,
      "دل": 10918,
      "▁point": 10919,
      "▁Byzantine": 10920,
      "شق": 10921,
      "▁تف": 10922,
      "▁نحو": 10923,
      "▁ترك": 10924,
      "▁عين": 10925,
      "▁Caliph": 10926,
      "لاعب": 10927,
      "▁$": 10928,
      "imately": 10929,
      "حية": 10930,
      "▁cities": 10931,
      "واجه": 10932,
      "▁(M": 10933,
      "حلة": 10934,
      "▁good": 10935,
      "▁comb": 10936,
      "▁founded": 10937,
      "▁groups": 10938,
      "▁Jud": 10939,
      "▁attacks": 10940,
      "▁arrest": 10941,
      "ying": 10942,
      "▁fail": 10943,
      "وبة": 10944,
      "▁استمر": 10945,
      "▁Kar": 10946,
      "▁conn": 10947,
      "▁بطولة": 10948,
      "▁ادارة": 10949,
      "▁Western": 10950,
      "▁central": 10951,
      "▁تل": 10952,
      "rant": 10953,
      "▁بالاضافة": 10954,
      "▁prison": 10955,
      "▁سعيد": 10956,
      "▁compet": 10957,
      "بيب": 10958,
      "الت": 10959,
      "تماعية": 10960,
      "-G": 10961,
      "ald": 10962,
      "▁2003": 10963,
      "▁عرض": 10964,
      "شرف": 10965,
      "▁Damascus": 10966,
      "▁|": 10967,
      "▁حوالي": 10968,
      "ctor": 10969,
      "anish": 10970,
      "ربة": 10971,
      "▁individual": 10972,
      "اعدة": 10973,
      "ery": 10974,
      "▁final": 10975,
[...]
