{
  "version": "1.0",
  "truncation": null,
  "padding": null,
  "added_tokens": [
    {
      "id": 0,
      "content": "[PAD]",
      "single_word": false,
      "lstrip": false,
      "rstrip": false,
      "normalized": false,
      "special": true
    },
    {
      "id": 1,
      "content": "[UNK]",
      "single_word": false,
      "lstrip": false,
      "rstrip": false,
      "normalized": false,
      "special": true
    },
    {
      "id": 2,
      "content": "[BOS]",
      "single_word": false,
      "lstrip": false,
      "rstrip": false,
      "normalized": false,
      "special": true
    },
    {
      "id": 3,
      "content": "[EOS]",
      "single_word": false,
      "lstrip": false,
      "rstrip": false,
      "normalized": false,
      "special": true
    },
    {
      "id": 4,
      "content": "[SEP]",
      "single_word": false,
      "lstrip": false,
      "rstrip": false,
      "normalized": false,
      "special": true
    },
    {
      "id": 5,
      "content": "[AR]",
      "single_word": false,
      "lstrip": false,
      "rstrip": false,
      "normalized": false,
      "special": true
    },
    {
      "id": 6,
      "content": "[EN]",
      "single_word": false,
      "lstrip": false,
      "rstrip": false,
      "normalized": false,
      "special": true
    },
    {
      "id": 7,
      "content": "[SYS]",
      "single_word": false,
      "lstrip": false,
      "rstrip": false,
      "normalized": false,
      "special": true
    },
    {
      "id": 8,
      "content": "[USER]",
      "single_word": false,
      "lstrip": false,
      "rstrip": false,
      "normalized": false,
      "special": true
    },
    {
      "id": 9,
      "content": "[ASST]",
      "single_word": false,
      "lstrip": false,
      "rstrip": false,
      "normalized": false,
      "special": true
    }
  ],
  "normalizer": {
    "type": "Sequence",
    "normalizers": [
      {
        "type": "NFC"
      },
      {
        "type": "Replace",
        "pattern": {
          "Regex": "[\\u064B-\\u0652\\u0640]"
        },
        "content": ""
      },
      {
        "type": "Replace",
        "pattern": {
          "String": "أ"
        },
        "content": "ا"
      },
      {
        "type": "Replace",
        "pattern": {
          "String": "إ"
        },
        "content": "ا"
      },
      {
        "type": "Replace",
        "pattern": {
          "String": "آ"
        },
        "content": "ا"
      },
      {
        "type": "Replace",
        "pattern": {
          "String": "ى"
        },
        "content": "ي"
      },
      {
        "type": "Replace",
        "pattern": {
          "Regex": "[ \\t]+"
        },
        "content": " "
      }
    ]
  },
  "pre_tokenizer": {
    "type": "Metaspace",
    "replacement": "▁",
    "prepend_scheme": "always",
    "split": true
  },
  "post_processor": null,
  "decoder": {
    "type": "Metaspace",
    "replacement": "▁",
    "prepend_scheme": "always",
    "split": true
  },
  "model": {
    "type": "BPE",
    "dropout": null,
    "unk_token": "[UNK]",
    "continuing_subword_prefix": null,
    "end_of_word_suffix": null,
    "fuse_unk": false,
    "byte_fallback": false,
    "ignore_merges": false,
    "vocab": {
      "[PAD]": 0,
      "[UNK]": 1,
      "[BOS]": 2,
      "[EOS]": 3,
      "[SEP]": 4,
      "[AR]": 5,
      "[EN]": 6,
      "[SYS]": 7,
      "[USER]": 8,
      "[ASST]": 9,
      "\n": 10,
      "!": 11,
      "\"": 12,
      "#": 13,
      "$": 14,
      "%": 15,
      "&": 16,
      "'": 17,
      "(": 18,
      ")": 19,
      "*": 20,
      "+": 21,
      ",": 22,
      "-": 23,
      ".": 24,
      "/": 25,
      "0": 26,
      "1": 27,
      "2": 28,
      "3": 29,
      "4": 30,
      "5": 31,
      "6": 32,
      "7": 33,
      "8": 34,
      "9": 35,
      ":": 36,
      ";": 37,
      "<": 38,
      "=": 39,
      ">": 40,
      "?": 41,
      "@": 42,
      "A": 43,
      "B": 44,
      "C": 45,
      "D": 46,
      "E": 47,
      "F": 48,
      "G": 49,
      "H": 50,
      "I": 51,
      "J": 52,
      "K": 53,
      "L": 54,
      "M": 55,
      "N": 56,
      "O": 57,
      "P": 58,
      "Q": 59,
      "R": 60,
      "S": 61,
      "T": 62,
      "U": 63,
      "V": 64,
      "W": 65,
      "X": 66,
      "Y": 67,
      "Z": 68,
      "[": 69,
      "\\": 70,
      "]": 71,
      "^": 72,
      "_": 73,
      "`": 74,
      "a": 75,
      "b": 76,
      "c": 77,
      "d": 78,
      "e": 79,
      "f": 80,
      "g": 81,
      "h": 82,
      "i": 83,
      "j": 84,
      "k": 85,
      "l": 86,
      "m": 87,
      "n": 88,
      "o": 89,
      "p": 90,
      "q": 91,
      "r": 92,
      "s": 93,
      "t": 94,
      "u": 95,
      "v": 96,
      "w": 97,
      "x": 98,
      "y": 99,
      "z": 100,
      "{": 101,
      "|": 102,
      "}": 103,
      "~": 104,
      "": 105,
      "": 106,
      "": 107,
      "": 108,
      "": 109,
      "": 110,
      "¡": 111,
      "¢": 112,
      "£": 113,
      "¤": 114,
      "¥": 115,
      "¦": 116,
      "§": 117,
      "¨": 118,
      "©": 119,
      "ª": 120,
      "«": 121,
      "¬": 122,
      "®": 123,
      "¯": 124,
      "°": 125,
      "±": 126,
      "²": 127,
      "³": 128,
      "´": 129,
      "µ": 130,
      "¶": 131,
      "·": 132,
      "¸": 133,
      "¹": 134,
      "º": 135,
      "»": 136,
      "¼": 137,
      "½": 138,
      "¾": 139,
      "¿": 140,
      "À": 141,
      "Á": 142,
      "Â": 143,
      "Ã": 144,
      "Ä": 145,
      "Å": 146,
      "Æ": 147,
      "Ç": 148,
      "È": 149,
      "É": 150,
      "Ê": 151,
      "Ë": 152,
      "Ì": 153,
      "Í": 154,
      "Î": 155,
      "Ð": 156,
      "Ñ": 157,
      "Ò": 158,
      "Ó": 159,
      "Ô": 160,
      "Õ": 161,
      "Ö": 162,
      "×": 163,
      "Ø": 164,
      "Ù": 165,
      "Ú": 166,
      "Û": 167,
      "Ü": 168,
      "Ý": 169,
      "Þ": 170,
      "ß": 171,
      "à": 172,
      "á": 173,
      "â": 174,
      "ã": 175,
      "ä": 176,
      "å": 177,
      "æ": 178,
      "ç": 179,
      "è": 180,
      "é": 181,
      "ê": 182,
      "ë": 183,
      "ì": 184,
      "í": 185,
      "î": 186,
      "ï": 187,
      "ð": 188,
      "ñ": 189,
      "ò": 190,
      "ó": 191,
      "ô": 192,
      "õ": 193,
      "ö": 194,
      "÷": 195,
      "ø": 196,
      "ù": 197,
      "ú": 198,
      "û": 199,
      "ü": 200,
      "ý": 201,
      "þ": 202,
      "ÿ": 203,
      "Ā": 204,
      "ā": 205,
      "Ă": 206,
      "ă": 207,
      "Ą": 208,
      "ą": 209,
      "Ć": 210,
      "ć": 211,
      "Ċ": 212,
      "ċ": 213,
      "Č": 214,
      "č": 215,
      "ď": 216,
      "Đ": 217,
      "đ": 218,
      "Ē": 219,
      "ē": 220,
      "ĕ": 221,
      "ė": 222,
      "Ę": 223,
      "ę": 224,
      "ě": 225,
      "Ğ": 226,
      "ğ": 227,
      "Ġ": 228,
      "ġ": 229,
      "ģ": 230,
      "Ħ": 231,
      "ħ": 232,
      "ĩ": 233,
      "Ī": 234,
      "ī": 235,
      "ĭ": 236,
      "į": 237,
      "İ": 238,
      "ı": 239,
      "Ĵ": 240,
      "Ķ": 241,
      "ķ": 242,
      "ĸ": 243,
      "ļ": 244,
      "Ľ": 245,
      "ľ": 246,
      "Ł": 247,
      "ł": 248,
      "Ń": 249,
      "ń": 250,
      "Ņ": 251,
      "ņ": 252,
      "ň": 253,
      "Ŋ": 254,
      "ŋ": 255,
      "Ō": 256,
      "ō": 257,
      "ŏ": 258,
      "ő": 259,
      "Œ": 260,
      "œ": 261,
      "ŗ": 262,
      "Ř": 263,
      "ř": 264,
      "Ś": 265,
      "ś": 266,
      "Ŝ": 267,
      "ŝ": 268,
      "Ş": 269,
      "ş": 270,
      "Š": 271,
      "š": 272,
      "Ţ": 273,
      "ţ": 274,
      "Ť": 275,
      "ť": 276,
      "ũ": 277,
      "Ū": 278,
      "ū": 279,
      "Ŭ": 280,
      "ŭ": 281,
      "ů": 282,
      "ű": 283,
      "ų": 284,
      "ŵ": 285,
      "ŷ": 286,
      "Ź": 287,
      "ź": 288,
      "Ż": 289,
      "ż": 290,
      "Ž": 291,
      "ž": 292,
      "ſ": 293,
      "ƀ": 294,
      "Ɔ": 295,
      "Ɖ": 296,
      "Ə": 297,
      "Ɛ": 298,
      "ƒ": 299,
      "Ɣ": 300,
      "ƕ": 301,
      "Ɯ": 302,
      "ơ": 303,
      "ư": 304,
      "Ʋ": 305,
      "Ƴ": 306,
      "Ƶ": 307,
      "ƶ": 308,
      "Ʒ": 309,
      "ǀ": 310,
      "ǁ": 311,
      "ǃ": 312,
      "ǎ": 313,
      "ǐ": 314,
      "ǒ": 315,
      "ǔ": 316,
      "ǝ": 317,
      "ǣ": 318,
      "ǥ": 319,
      "Ǧ": 320,
      "ǧ": 321,
      "Ǫ": 322,
      "ǫ": 323,
      "ǭ": 324,
      "ǰ": 325,
      "Ǵ": 326,
      "ǵ": 327,
      "Ƿ": 328,
      "ǹ": 329,
      "ǿ": 330,
      "ȁ": 331,
      "ȃ": 332,
      "Ș": 333,
      "ș": 334,
      "Ț": 335,
      "ț": 336,
      "ȝ": 337,
      "ȣ": 338,
      "ȳ": 339,
      "ȶ": 340,
      "ȷ": 341,
      "ɐ": 342,
      "ɑ": 343,
      "ɒ": 344,
      "ɓ": 345,
      "ɔ": 346,
      "ɕ": 347,
      "ɖ": 348,
      "ɗ": 349,
      "ɘ": 350,
      "ə": 351,
      "ɛ": 352,
      "ɜ": 353,
      "ɠ": 354,
      "ɡ": 355,
      "ɣ": 356,
      "ɥ": 357,
      "ɦ": 358,
      "ɨ": 359,
      "ɪ": 360,
      "ɬ": 361,
      "ɭ": 362,
      "ɯ": 363,
      "ɲ": 364,
      "ɳ": 365,
      "ɵ": 366,
      "ɹ": 367,
      "ɽ": 368,
      "ɾ": 369,
      "ʀ": 370,
      "ʁ": 371,
      "ʂ": 372,
      "ʃ": 373,
      "ʈ": 374,
      "ʉ": 375,
      "ʊ": 376,
      "ʋ": 377,
      "ʌ": 378,
      "ʎ": 379,
      "ʑ": 380,
      "ʒ": 381,
      "ʔ": 382,
      "ʕ": 383,
      "ʝ": 384,
      "ʰ": 385,
      "ʱ": 386,
      "ʲ": 387,
      "ʷ": 388,
      "ʹ": 389,
      "ʻ": 390,
      "ʼ": 391,
      "ʽ": 392,
      "ʾ": 393,
      "ʿ": 394,
      "ˀ": 395,
      "ˁ": 396,
      "ˇ": 397,
      "ˈ": 398,
      "ˋ": 399,
      "ˌ": 400,
      "ː": 401,
      "˗": 402,
      "˘": 403,
      "˚": 404,
      "˛": 405,
      "˜": 406,
      "˝": 407,
      "ˠ": 408,
      "ˤ": 409,
      "˹": 410,
      "˺": 411,
      "̀": 412,
      "́": 413,
      "̂": 414,
      "̃": 415,
      "̄": 416,
      "̅": 417,
      "̆": 418,
      "̇": 419,
      "̈": 420,
      "̊": 421,
      "̌": 422,
      "̍": 423,
      "̎": 424,
      "̓": 425,
      "̜": 426,
      "̞": 427,
      "̠": 428,
      "̣": 429,
      "̤": 430,
      "̥": 431,
      "̧": 432,
      "̨": 433,
      "̩": 434,
      "̪": 435,
      "̯": 436,
      "̱": 437,
      "̲": 438,
      "̶": 439,
      "̽": 440,
      "͗": 441,
      "͘": 442,
      "͜": 443,
      "͟": 444,
      "͡": 445,
      "ͤ": 446,
      "͵": 447,
      "΄": 448,
      "Ά": 449,
      "Έ": 450,
      "Ή": 451,
      "Ί": 452,
      "ΐ": 453,
      "Α": 454,
      "Β": 455,
      "Γ": 456,
      "Δ": 457,
      "Ε": 458,
      "Ζ": 459,
      "Η": 460,
      "Θ": 461,
      "Ι": 462,
      "Κ": 463,
      "Λ": 464,
      "Μ": 465,
      "Ν": 466,
      "Ξ": 467,
      "Ο": 468,
      "Π": 469,
      "Ρ": 470,
      "Σ": 471,
      "Τ": 472,
      "Υ": 473,
      "Φ": 474,
      "Χ": 475,
      "Ψ": 476,
      "Ω": 477,
      "Ϊ": 478,
      "ά": 479,
      "έ": 480,
      "ή": 481,
      "ί": 482,
      "α": 483,
      "β": 484,
      "γ": 485,
      "δ": 486,
      "ε": 487,
      "ζ": 488,
      "η": 489,
      "θ": 490,
      "ι": 491,
      "κ": 492,
      "λ": 493,
      "μ": 494,
      "ν": 495,
      "ξ": 496,
      "ο": 497,
      "π": 498,
      "ρ": 499,
      "ς": 500,
      "σ": 501,
      "τ": 502,
      "υ": 503,
      "φ": 504,
      "χ": 505,
      "ψ": 506,
      "ω": 507,
      "ϊ": 508,
      "ό": 509,
      "ύ": 510,
      "ώ": 511,
      "ϕ": 512,
      "Ϝ": 513,
      "ϝ": 514,
      "Ϡ": 515,
      "Ϣ": 516,
      "ϣ": 517,
      "Ϩ": 518,
      "ϩ": 519,
      "ϫ": 520,
      "ϯ": 521,
      "ϵ": 522,
      "Ϲ": 523,
      "Ϻ": 524,
      "Ё": 525,
      "Ђ": 526,
      "Є": 527,
      "Ѕ": 528,
      "І": 529,
      "Ї": 530,
      "Ј": 531,
      "Љ": 532,
      "Њ": 533,
      "Ћ": 534,
      "Џ": 535,
      "А": 536,
      "Б": 537,
      "В": 538,
      "Г": 539,
      "Д": 540,
      "Е": 541,
      "Ж": 542,
      "З": 543,
      "И": 544,
      "Й": 545,
      "К": 546,
      "Л": 547,
      "М": 548,
      "Н": 549,
      "О": 550,
      "П": 551,
      "Р": 552,
      "С": 553,
      "Т": 554,
      "У": 555,
      "Ф": 556,
      "Х": 557,
      "Ц": 558,
      "Ч": 559,
      "Ш": 560,
      "Щ": 561,
      "Ъ": 562,
      "Ы": 563,
      "Ь": 564,
      "Э": 565,
      "Ю": 566,
      "Я": 567,
      "а": 568,
      "б": 569,
      "в": 570,
      "г": 571,
      "д": 572,
      "е": 573,
      "ж": 574,
      "з": 575,
      "и": 576,
      "й": 577,
      "к": 578,
      "л": 579,
      "м": 580,
      "н": 581,
      "о": 582,
      "п": 583,
      "р": 584,
      "с": 585,
      "т": 586,
      "у": 587,
      "ф": 588,
      "х": 589,
      "ц": 590,
      "ч": 591,
      "ш": 592,
      "щ": 593,
      "ъ": 594,
      "ы": 595,
      "ь": 596,
      "э": 597,
      "ю": 598,
      "я": 599,
      "ё": 600,
      "ђ": 601,
      "ѕ": 602,
      "і": 603,
      "ї": 604,
      "ј": 605,
      "љ": 606,
      "њ": 607,
      "ћ": 608,
      "ў": 609,
      "џ": 610,
      "Ѡ": 611,
      "ѡ": 612,
      "Ѣ": 613,
      "ѣ": 614,
      "ѧ": 615,
      "Ѯ": 616,
      "ѯ": 617,
      "ѵ": 618,
      "ѹ": 619,
      "Ґ": 620,
      "ґ": 621,
      "ғ": 622,
      "җ": 623,
      "Қ": 624,
      "қ": 625,
      "ҡ": 626,
      "ң": 627,
      "Ҭ": 628,
      "ҭ": 629,
      "ү": 630,
      "ұ": 631,
      "ҷ": 632,
      "Ӏ": 633,
      "ӂ": 634,
      "ӑ": 635,
      "ӓ": 636,
      "ӗ": 637,
      "Ә": 638,
      "ә": 639,
      "Ӡ": 640,
      "ӡ": 641,
      "ӧ": 642,
      "Ө": 643,
      "ө": 644,
      "ԝ": 645,
      "Ա": 646,
      "Բ": 647,
      "Գ": 648,
      "Դ": 649,
      "Ե": 650,
      "Է": 651,
      "Թ": 652,
      "Լ": 653,
      "Կ": 654,
      "Հ": 655,
      "Մ": 656,
      "Յ": 657,
      "Ն": 658,
      "Շ": 659,
      "Պ": 660,
      "Ջ": 661,
      "Ռ": 662,
      "Ս": 663,
      "Վ": 664,
      "Տ": 665,
      "Փ": 666,
      "Ք": 667,
      "ա": 668,
      "բ": 669,
      "գ": 670,
      "դ": 671,
      "ե": 672,
      "զ": 673,
      "ը": 674,
      "թ": 675,
      "ժ": 676,
      "ի": 677,
      "լ": 678,
      "խ": 679,
      "ծ": 680,
      "կ": 681,
      "հ": 682,
      "ձ": 683,
      "ղ": 684,
      "ճ": 685,
      "մ": 686,
      "յ": 687,
      "ն": 688,
      "շ": 689,
      "ո": 690,
      "չ": 691,
      "պ": 692,
      "ջ": 693,
      "ռ": 694,
      "ս": 695,
      "վ": 696,
      "տ": 697,
      "ր": 698,
      "ց": 699,
      "ւ": 700,
      "փ": 701,
      "ք": 702,
      "ֆ": 703,
      "և": 704,
      "։": 705,
      "֑": 706,
      "֖": 707,
      "֞": 708,
      "ְ": 709,
      "ֱ": 710,
      "ֲ": 711,
      "ִ": 712,
      "ֵ": 713,
      "ֶ": 714,
      "ַ": 715,
      "ָ": 716,
      "ֹ": 717,
      "ֺ": 718,
      "ֻ": 719,
      "ּ": 720,
      "־": 721,
      "ֿ": 722,
      "ׁ": 723,
      "ׂ": 724,
      "׃": 725,
      "א": 726,
      "ב": 727,
      "ג": 728,
      "ד": 729,
      "ה": 730,
      "ו": 731,
      "ז": 732,
      "ח": 733,
      "ט": 734,
      "י": 735,
      "ך": 736,
      "כ": 737,
      "ל": 738,
      "ם": 739,
      "מ": 740,
      "ן": 741,
      "נ": 742,
      "ס": 743,
      "ע": 744,
      "ף": 745,
      "פ": 746,
      "ץ": 747,
      "צ": 748,
      "ק": 749,
      "ר": 750,
      "ש": 751,
      "ת": 752,
      "״": 753,
      "،": 754,
      "ؕ": 755,
      "؛": 756,
      "؜": 757,
      "؟": 758,
      "ء": 759,
      "ؤ": 760,
      "ئ": 761,
      "ا": 762,
      "ب": 763,
      "ة": 764,
      "ت": 765,
      "ث": 766,
      "ج": 767,
      "ح": 768,
      "خ": 769,
      "د": 770,
      "ذ": 771,
      "ر": 772,
      "ز": 773,
      "س": 774,
      "ش": 775,
      "ص": 776,
      "ض": 777,
      "ط": 778,
      "ظ": 779,
      "ع": 780,
      "غ": 781,
      "ؽ": 782,
      "ؿ": 783,
      "ف": 784,
      "ق": 785,
      "ك": 786,
      "ل": 787,
      "م": 788,
      "ن": 789,
      "ه": 790,
      "و": 791,
      "ي": 792,
      "ٓ": 793,
      "ٔ": 794,
      "ٖ": 795,
      "ٙ": 796,
      "ٞ": 797,
      "٠": 798,
      "١": 799,
      "٢": 800,
      "٣": 801,
      "٤": 802,
      "٥": 803,
      "٦": 804,
      "٧": 805,
      "٨": 806,
      "٩": 807,
      "٪": 808,
      "٫": 809,
      "٬": 810,
      "ٮ": 811,
      "ٯ": 812,
      "ٰ": 813,
      "ٱ": 814,
      "ٲ": 815,
      "ٳ": 816,
      "ٹ": 817,
      "ٽ": 818,
      "پ": 819,
      "ڀ": 820,
      "چ": 821,
      "ڈ": 822,
      "ڑ": 823,
      "ژ": 824,
      "ڜ": 825,
      "ڠ": 826,
      "ڡ": 827,
      "ڤ": 828,
      "ڨ": 829,
      "ک": 830,
      "ڪ": 831,
      "ڬ": 832,
      "ڭ": 833,
      "ڮ": 834,
      "گ": 835,
      "ڵ": 836,
      "ں": 837,
      "ھ": 838,
      "ۀ": 839,
      "ہ": 840,
      "ۂ": 841,
      "ۃ": 842,
      "ۆ": 843,
      "ۇ": 844,
      "ۈ": 845,
      "ۋ": 846,
      "ی": 847,
      "ێ": 848,
      "ۏ": 849,
      "ے": 850,
      "۔": 851,
      "ە": 852,
      "ۖ": 853,
      "ۗ": 854,
      "ۚ": 855,
      "۝": 856,
      "ۡ": 857,
      "ۤ": 858,
      "۩": 859,
      "۰": 860,
      "۱": 861,
      "۲": 862,
      "۳": 863,
      "۵": 864,
      "۶": 865,
      "۹": 866,
      "ܐ": 867,
      "ܒ": 868,
      "ܓ": 869,
      "ܕ": 870,
      "ܗ": 871,
      "ܘ": 872,
      "ܙ": 873,
      "ܚ": 874,
      "ܛ": 875,
      "ܝ": 876,
      "ܟ": 877,
      "ܠ": 878,
      "ܡ": 879,
      "ܢ": 880,
      "ܣ": 881,
      "ܥ": 882,
      "ܦ": 883,
      "ܨ": 884,
      "ܪ": 885,
      "ܫ": 886,
      "ܬ": 887,
      "ܸ": 888,
      "ݐ": 889,
      "ݘ": 890,
      "ݣ": 891,
      "ݨ": 892,
      "ނ": 893,
      "ރ": 894,
      "އ": 895,
      "ވ": 896,
      "މ": 897,
      "ދ": 898,
      "ޑ": 899,
      "ޙ": 900,
      "ަ": 901,
      "ު": 902,
      "ް": 903,
      "ࡀ": 904,
      "ࡁ": 905,
      "ࡅ": 906,
      "ࡍ": 907,
      "ࡕ": 908,
      "ࣰ": 909,
      "ँ": 910,
      "ं": 911,
      "अ": 912,
      "आ": 913,
      "इ": 914,
      "ई": 915,
      "ऊ": 916,
      "ए": 917,
      "औ": 918,
      "क": 919,
      "ख": 920,
      "ग": 921,
      "घ": 922,
      "च": 923,
      "ज": 924,
      "झ": 925,
      "ट": 926,
      "ठ": 927,
      "ड": 928,
      "ढ": 929,
      "ण": 930,
      "त": 931,
      "थ": 932,
      "द": 933,
      "ध": 934,
      "न": 935,
      "प": 936,
      "फ": 937,
      "ब": 938,
      "भ": 939,
      "म": 940,
      "य": 941,
      "र": 942,
      "ल": 943,
      "ळ": 944,
      "व": 945,
      "श": 946,
      "ष": 947,
      "स": 948,
      "ह": 949,
      "़": 950,
      "ा": 951,
      "ि": 952,
      "ी": 953,
      "ु": 954,
      "ू": 955,
      "ृ": 956,
      "ॆ": 957,
      "े": 958,
      "ै": 959,
      "ो": 960,
      "ौ": 961,
      "्": 962,
      "।": 963,
      "॰": 964,
      "ঁ": 965,
      "ং": 966,
      "ঃ": 967,
      "অ": 968,
      "আ": 969,
      "ই": 970,
      "ঈ": 971,
      "উ": 972,
      "ঊ": 973,
      "ঋ": 974,
      "এ": 975,
      "ঐ": 976,
      "ও": 977,
      "ঔ": 978,
      "ক": 979,
      "খ": 980,
      "গ": 981,
      "ঘ": 982,
      "ঙ": 983,
      "চ": 984,
      "ছ": 985,
      "জ": 986,
      "ঝ": 987,
      "ঞ": 988,
      "ট": 989,
      "ঠ": 990,
      "ড": 991,
      "ঢ": 992,
      "ণ": 993,
      "ত": 994,
      "থ": 995,
      "দ": 996,
      "ধ": 997,
      "ন": 998,
      "প": 999,
      "ফ": 1000,
      "ব": 1001,
      "ভ": 1002,
      "ম": 1003,
      "য": 1004,
      "র": 1005,
      "ল": 1006,
      "শ": 1007,
      "ষ": 1008,
      "স": 1009,
      "হ": 1010,
      "়": 1011,
      "া": 1012,
      "ি": 1013,
      "ী": 1014,
      "ু": 1015,
      "ূ": 1016,
      "ৃ": 1017,
      "ে": 1018,
      "ৈ": 1019,
      "ো": 1020,
      "ৌ": 1021,
      "্": 1022,
      "ৎ": 1023,
      "৳": 1024,
      "ਏ": 1025,
      "ਐ": 1026,
      "ਕ": 1027,
      "ਖ": 1028,
      "ਗ": 1029,
      "ਘ": 1030,
      "ਚ": 1031,
      "ਜ": 1032,
      "ਟ": 1033,
      "ਦ": 1034,
      "ਨ": 1035,
      "ਪ": 1036,
      "ਬ": 1037,
      "ਮ": 1038,
      "ਰ": 1039,
      "ਲ": 1040,
      "ਵ": 1041,
      "ਸ": 1042,
      "ਹ": 1043,
      "਼": 1044,
      "ਾ": 1045,
      "ਿ": 1046,
      "ੀ": 1047,
      "ੁ": 1048,
      "ੇ": 1049,
      "ੋ": 1050,
      "ੰ": 1051,
      "ੱ": 1052,
      "ં": 1053,
      "દ": 1054,
      "પ": 1055,
      "બ": 1056,
      "ર": 1057,
      "ા": 1058,
      "ુ": 1059,
      "ો": 1060,
      "ଆ": 1061,
      "କ": 1062,
      "ଗ": 1063,
      "ଜ": 1064,
      "ଦ": 1065,
      "ଧ": 1066,
      "ନ": 1067,
      "ବ": 1068,
      "ମ": 1069,
      "ର": 1070,
      "ଳ": 1071,
      "ହ": 1072,
      "ା": 1073,
      "ି": 1074,
      "ୁ": 1075,
      "୍": 1076,
      "ஆ": 1077,
      "இ": 1078,
      "உ": 1079,
      "க": 1080,
      "ங": 1081,
      "ச": 1082,
      "ஞ": 1083,
      "ட": 1084,
      "த": 1085,
      "ந": 1086,
      "ன": 1087,
      "ப": 1088,
      "ம": 1089,
      "ய": 1090,
      "ர": 1091,
      "ற": 1092,
      "ல": 1093,
      "ள": 1094,
      "ழ": 1095,
      "வ": 1096,
      "ா": 1097,
      "ி": 1098,
      "ீ": 1099,
      "ு": 1100,
      "ூ": 1101,
      "ெ": 1102,
      "ே": 1103,
      "ை": 1104,
      "ோ": 1105,
      "்": 1106,
      "ం": 1107,
      "క": 1108,
      "గ": 1109,
      "చ": 1110,
      "జ": 1111,
      "త": 1112,
      "ద": 1113,
      "ధ": 1114,
      "న": 1115,
      "ప": 1116,
      "బ": 1117,
      "మ": 1118,
      "య": 1119,
      "ర": 1120,
      "ల": 1121,
      "వ": 1122,
      "శ": 1123,
      "స": 1124,
      "ా": 1125,
      "ి": 1126,
      "ీ": 1127,
      "ు": 1128,
      "ె": 1129,
      "ొ": 1130,
      "ో": 1131,
      "్": 1132,
      "ಂ": 1133,
      "ಕ": 1134,
      "ತ": 1135,
      "ದ": 1136,
      "ಯ": 1137,
      "ಲ": 1138,
      "ವ": 1139,
      "ಶ": 1140,
      "ಷ": 1141,
      "ಿ": 1142,
      "ು": 1143,
      "ೇ": 1144,
      "ം": 1145,
      "ആ": 1146,
      "ഇ": 1147,
      "എ": 1148,
      "ക": 1149,
      "ച": 1150,
      "ജ": 1151,
      "ട": 1152,
      "ണ": 1153,
      "ത": 1154,
      "ഥ": 1155,
      "ദ": 1156,
      "ന": 1157,
      "പ": 1158,
      "ഫ": 1159,
      "ഭ": 1160,
      "മ": 1161,
      "യ": 1162,
      "ര": 1163,
      "റ": 1164,
      "ല": 1165,
      "ള": 1166,
      "വ": 1167,
      "ഷ": 1168,
      "സ": 1169,
      "ഹ": 1170,
      "ാ": 1171,
      "ി": 1172,
      "ീ": 1173,
      "ു": 1174,
      "ൂ": 1175,
      "െ": 1176,
      "േ": 1177,
      "ോ": 1178,
      "്": 1179,
      "ൻ": 1180,
      "ർ": 1181,
      "ൽ": 1182,
      "ൾ": 1183,
      "ං": 1184,
      "ඔ": 1185,
      "ක": 1186,
      "ග": 1187,
      "ජ": 1188,
      "ඩ": 1189,
      "ණ": 1190,
      "ත": 1191,
      "ද": 1192,
      "ධ": 1193,
      "න": 1194,
      "ප": 1195,
      "බ": 1196,
      "ම": 1197,
      "ය": 1198,
      "ර": 1199,
      "ල": 1200,
      "ව": 1201,
      "ශ": 1202,
      "ෂ": 1203,
      "ස": 1204,
      "හ": 1205,
      "්": 1206,
      "ා": 1207,
      "ෑ": 1208,
      "ි": 1209,
      "ී": 1210,
      "ු": 1211,
      "ෙ": 1212,
      "ේ": 1213,
      "ก": 1214,
      "ข": 1215,
      "ค": 1216,
      "ง": 1217,
      "จ": 1218,
      "ฉ": 1219,
      "ช": 1220,
      "ซ": 1221,
      "ฌ": 1222,
      "ญ": 1223,
      "ฐ": 1224,
      "ฑ": 1225,
      "ฒ": 1226,
      "ณ": 1227,
      "ด": 1228,
      "ต": 1229,
      "ถ": 1230,
      "ท": 1231,
      "ธ": 1232,
      "น": 1233,
      "บ": 1234,
      "ป": 1235,
      "ผ": 1236,
      "ฝ": 1237,
      "พ": 1238,
      "ฟ": 1239,
      "ภ": 1240,
      "ม": 1241,
      "ย": 1242,
      "ร": 1243,
      "ฤ": 1244,
      "ล": 1245,
      "ฦ": 1246,
      "ว": 1247,
      "ศ": 1248,
      "ษ": 1249,
      "ส": 1250,
      "ห": 1251,
      "ฬ": 1252,
      "อ": 1253,
      "ฮ": 1254,
      "ะ": 1255,
      "ั": 1256,
      "า": 1257,
      "ำ": 1258,
      "ิ": 1259,
      "ี": 1260,
      "ึ": 1261,
      "ื": 1262,
      "ุ": 1263,
      "ู": 1264,
      "ฺ": 1265,
      "฿": 1266,
      "เ": 1267,
      "แ": 1268,
      "โ": 1269,
      "ใ": 1270,
      "ไ": 1271,
      "ๅ": 1272,
      "ๆ": 1273,
      "็": 1274,
      "่": 1275,
      "้": 1276,
      "๊": 1277,
      "์": 1278,
      "ํ": 1279,
      "ງ": 1280,
      "ຊ": 1281,
      "ນ": 1282,
      "ລ": 1283,
      "າ": 1284,
      "້": 1285,
      "་": 1286,
      "ག": 1287,
      "ད": 1288,
      "བ": 1289,
      "འ": 1290,
      "ར": 1291,
      "ས": 1292,
      "ཨ": 1293,
      "ི": 1294,
      "ེ": 1295,
      "ྒ": 1296,
      "ྭ": 1297,
      "ྲ": 1298,
      "က": 1299,
      "ခ": 1300,
      "င": 1301,
      "စ": 1302,
      "ည": 1303,
      "တ": 1304,
      "ထ": 1305,
      "ဒ": 1306,
      "န": 1307,
      "ပ": 1308,
      "ဘ": 1309,
      "မ": 1310,
      "လ": 1311,
      "ဝ": 1312,
      "သ": 1313,
      "ာ": 1314,
      "ိ": 1315,
      "ီ": 1316,
      "ု": 1317,
      "ူ": 1318,
      "ေ": 1319,
      "ဲ": 1320,
      "ံ": 1321,
      "့": 1322,
      "း": 1323,
      "်": 1324,
      "ျ": 1325,
      "ြ": 1326,
      "ွ": 1327,
      "ှ": 1328,
      "၀": 1329,
      "၁": 1330,
      "၃": 1331,
      "၉": 1332,
      "ၠ": 1333,
      "ၣ": 1334,
      "ၲ": 1335,
      "Ⴂ": 1336,
      "Ⴃ": 1337,
      "Ⴐ": 1338,
      "Ⴒ": 1339,
      "ა": 1340,
      "ბ": 1341,
      "გ": 1342,
      "დ": 1343,
      "ე": 1344,
      "ვ": 1345,
      "ზ": 1346,
      "თ": 1347,
      "ი": 1348,
      "კ": 1349,
      "ლ": 1350,
      "მ": 1351,
      "ნ": 1352,
      "ო": 1353,
      "პ": 1354,
      "რ": 1355,
      "ს": 1356,
      "ტ": 1357,
      "უ": 1358,
      "ქ": 1359,
      "ყ": 1360,
      "შ": 1361,
      "ჩ": 1362,
      "ც": 1363,
      "ძ": 1364,
      "წ": 1365,
      "ჭ": 1366,
      "ხ": 1367,
      "ჯ": 1368,
      "ჲ": 1369,
      "ሆ": 1370,
      "ሌ": 1371,
      "ሐ": 1372,
      "ሓ": 1373,
      "መ": 1374,
      "ሚ": 1375,
      "ሜ": 1376,
      "ም": 1377,
      "ሠ": 1378,
      "ሣ": 1379,
      "ሥ": 1380,
      "ረ": 1381,
      "ሬ": 1382,
      "ር": 1383,
      "ሰ": 1384,
      "ሳ": 1385,
      "ሴ": 1386,
      "ስ": 1387,
      "ሽ": 1388,
      "ቀ": 1389,
      "ቁ": 1390,
      "ቅ": 1391,
      "ቋ": 1392,
      "ቢ": 1393,
      "ባ": 1394,
      "ቤ": 1395,
      "ቦ": 1396,
      "ቱ": 1397,
      "ቲ": 1398,
      "ታ": 1399,
      "ት": 1400,
      "ኅ": 1401,
      "ነ": 1402,
      "ኒ": 1403,
      "ና": 1404,
      "ኔ": 1405,
      "ን": 1406,
      "ኛ": 1407,
      "ኢ": 1408,
      "ከ": 1409,
      "ካ": 1410,
      "ኳ": 1411,
      "ወ": 1412,
      "ው": 1413,
      "ዘ": 1414,
      "ዝ": 1415,
      "የ": 1416,
      "ያ": 1417,
      "ዮ": 1418,
      "ዲ": 1419,
      "ዳ": 1420,
      "ዴ": 1421,
      "ድ": 1422,
      "ገ": 1423,
      "ጉ": 1424,
      "ጋ": 1425,
      "ግ": 1426,
      "ጐ": 1427,
      "ጠ": 1428,
      "ጥ": 1429,
      "ጫ": 1430,
      "ጳ": 1431,
      "ጵ": 1432,
      "ጸ": 1433,
      "ፌ": 1434,
      "ᐃ": 1435,
      "ᐅ": 1436,
      "ᐊ": 1437,
      "ᑕ": 1438,
      "ᑦ": 1439,
      "ᓂ": 1440,
      "ᓄ": 1441,
      "ᓇ": 1442,
      "ᓐ": 1443,
      "ᓚ": 1444,
      "ᓯ": 1445,
      "ᔅ": 1446,
      "ᔪ": 1447,
      "ᕈ": 1448,
      "ᕖ": 1449,
      "ᖁ": 1450,
      "ᖃ": 1451,
      "ᖅ": 1452,
      "ᖏ": 1453,
      "ᖓ": 1454,
      "ᚠ": 1455,
      "ᚢ": 1456,
      "ᚦ": 1457,
      "ᚨ": 1458,
      "ᚩ": 1459,
      "ᚪ": 1460,
      "ᚱ": 1461,
      "ᚲ": 1462,
      "ᚷ": 1463,
      "ᚹ": 1464,
      "ᚺ": 1465,
      "ᚾ": 1466,
      "ᛁ": 1467,
      "ᛃ": 1468,
      "ᛇ": 1469,
      "ᛈ": 1470,
      "ᛉ": 1471,
      "ᛊ": 1472,
      "ᛋ": 1473,
      "ᛏ": 1474,
      "ᛒ": 1475,
      "ᛖ": 1476,
      "ᛗ": 1477,
      "ᛚ": 1478,
      "ᛜ": 1479,
      "ᛞ": 1480,
      "ᛟ": 1481,
      "ᜆ": 1482,
      "ᜈ": 1483,
      "ᜊ": 1484,
      "ᜋ": 1485,
      "ᜌ": 1486,
      "ᜒ": 1487,
      "ᜓ": 1488,
      "᜔": 1489,
      "ᜣ": 1490,
      "ᜤ": 1491,
      "ᜥ": 1492,
      "ᜦ": 1493,
      "ᜧ": 1494,
      "ᜨ": 1495,
      "ᜩ": 1496,
      "ᜪ": 1497,
      "ᜫ": 1498,
      "ᜬ": 1499,
      "ᜭ": 1500,
      "ᜮ": 1501,
      "ᜯ": 1502,
      "ᜰ": 1503,
      "ᜱ": 1504,
      "ᝃ": 1505,
      "ᝄ": 1506,
      "ᝅ": 1507,
      "ᝆ": 1508,
      "ᝇ": 1509,
      "ᝈ": 1510,
      "ᝉ": 1511,
      "ᝊ": 1512,
      "ᝋ": 1513,
      "ᝌ": 1514,
      "ᝍ": 1515,
      "ᝎ": 1516,
      "ᝏ": 1517,
      "ᝐ": 1518,
      "ᝑ": 1519,
      "ក": 1520,
      "គ": 1521,
      "ត": 1522,
      "ន": 1523,
      "ម": 1524,
      "យ": 1525,
      "រ": 1526,
      "ស": 1527,
      "ហ": 1528,
      "ី": 1529,
      "ុ": 1530,
      "េ": 1531,
      "ោ": 1532,
      "្": 1533,
      "᠋": 1534,
      "ᠢ": 1535,
      "ᠩ": 1536,
      "ᠭ": 1537,
      "ᠰ": 1538,
      "ᠴ": 1539,
      "᫈": 1540,
      "ᮂ": 1541,
      "ᮊ": 1542,
      "ᮒ": 1543,
      "ᮕ": 1544,
      "ᮝ": 1545,
      "ᮤ": 1546,
      "ᮥ": 1547,
      "ᵻ": 1548,
      "ᶜ": 1549,
      "ḇ": 1550,
      "Ḍ": 1551,
      "ḍ": 1552,
      "ḏ": 1553,
      "ḕ": 1554,
      "ḗ": 1555,
      "ḡ": 1556,
      "Ḥ": 1557,
      "ḥ": 1558,
      "Ḩ": 1559,
      "ḩ": 1560,
      "Ḫ": 1561,
      "ḫ": 1562,
      "Ḳ": 1563,
      "ḳ": 1564,
      "Ḵ": 1565,
      "ḵ": 1566,
      "ḷ": 1567,
      "ḻ": 1568,
      "ṃ": 1569,
      "ṅ": 1570,
      "ṇ": 1571,
      "ṉ": 1572,
      "ṓ": 1573,
      "Ṗ": 1574,
      "Ṛ": 1575,
      "ṛ": 1576,
      "ṟ": 1577,
      "Ṣ": 1578,
      "ṣ": 1579,
      "Ṭ": 1580,
      "ṭ": 1581,
      "Ṯ": 1582,
      "ṯ": 1583,
      "Ṽ": 1584,
      "ṿ": 1585,
      "ẃ": 1586,
      "ẏ": 1587,
      "Ẓ": 1588,
      "ẓ": 1589,
      "ẕ": 1590,
      "ẟ": 1591,
      "ạ": 1592,
      "ả": 1593,
      "Ấ": 1594,
      "ấ": 1595,
      "ầ": 1596,
      "ẩ": 1597,
      "ậ": 1598,
      "ắ": 1599,
      "ằ": 1600,
      "ẵ": 1601,
      "ặ": 1602,
      "ẹ": 1603,
      "ẻ": 1604,
      "ế": 1605,
      "ề": 1606,
      "ể": 1607,
      "ễ": 1608,
      "ệ": 1609,
      "ỉ": 1610,
      "ị": 1611,
      "Ọ": 1612,
      "ọ": 1613,
      "ỏ": 1614,
      "ố": 1615,
      "ồ": 1616,
      "ổ": 1617,
      "ỗ": 1618,
      "ộ": 1619,
      "ớ": 1620,
      "ờ": 1621,
      "ở": 1622,
      "ợ": 1623,
      "ụ": 1624,
      "Ủ": 1625,
      "ủ": 1626,
      "ứ": 1627,
      "ừ": 1628,
      "ử": 1629,
      "ữ": 1630,
      "ự": 1631,
      "ỳ": 1632,
      "ỷ": 1633,
      "Ỹ": 1634,
      "ỹ": 1635,
      "ἀ": 1636,
      "ἁ": 1637,
      "ἂ": 1638,
      "ἄ": 1639,
      "ἅ": 1640,
      "Ἀ": 1641,
      "Ἁ": 1642,
      "Ἅ": 1643,
      "ἐ": 1644,
      "ἑ": 1645,
      "ἔ": 1646,
      "ἕ": 1647,
      "Ἐ": 1648,
      "Ἑ": 1649,
      "Ἔ": 1650,
      "ἡ": 1651,
      "ἢ": 1652,
      "ἥ": 1653,
      "ἦ": 1654,
      "Ἡ": 1655,
      "Ἢ": 1656,
      "ἰ": 1657,
      "ἱ": 1658,
      "ἴ": 1659,
      "ἵ": 1660,
      "ἶ": 1661,
      "Ἰ": 1662,
      "Ἱ": 1663,
      "Ἴ": 1664,
      "ὀ": 1665,
      "ὁ": 1666,
      "ὃ": 1667,
      "ὄ": 1668,
      "ὅ": 1669,
      "Ὀ": 1670,
      "Ὂ": 1671,
      "Ὅ": 1672,
      "ὐ": 1673,
      "ὑ": 1674,
      "ὔ": 1675,
      "ὕ": 1676,
      "ὗ": 1677,
      "ὡ": 1678,
      "ὢ": 1679,
      "ὤ": 1680,
      "ὧ": 1681,
      "ὰ": 1682,
      "ὲ": 1683,
      "ὴ": 1684,
      "ὶ": 1685,
      "ὸ": 1686,
      "ὺ": 1687,
      "ὼ": 1688,
      "ᾅ": 1689,
      "ᾰ": 1690,
      "ᾱ": 1691,
      "ᾳ": 1692,
      "ᾶ": 1693,
      "ᾷ": 1694,
      "᾿": 1695,
      "ῃ": 1696,
      "ῆ": 1697,
      "ῇ": 1698,
      "ῖ": 1699,
      "ῥ": 1700,
      "ῦ": 1701,
      "ῳ": 1702,
      "ῶ": 1703,
      "ῷ": 1704,
      "῾": 1705,
      " ": 1706,
      " ": 1707,
      " ": 1708,
      "​": 1709,
      "‌": 1710,
      "‍": 1711,
      "‎": 1712,
      "‏": 1713,
      "‐": 1714,
      "‑": 1715,
      "‒": 1716,
      "–": 1717,
      "—": 1718,
      "―": 1719,
      "‖": 1720,
      "‘": 1721,
      "’": 1722,
      "‚": 1723,
      "‛": 1724,
      "“": 1725,
      "”": 1726,
      "„": 1727,
      "†": 1728,
      "‡": 1729,
      "•": 1730,
      "…": 1731,
      "‧": 1732,
      "‭": 1733,
      " ": 1734,
      "‰": 1735,
      "′": 1736,
      "″": 1737,
      "‹": 1738,
      "›": 1739,
      "※": 1740,
      "‽": 1741,
      "‾": 1742,
      "⁄": 1743,
      "⁠": 1744,
      "⁣": 1745,
      "⁨": 1746,
      "⁩": 1747,
      "⁸": 1748,
      "₁": 1749,
      "₂": 1750,
      "₃": 1751,
      "₡": 1752,
      "₤": 1753,
      "₦": 1754,
      "₨": 1755,
      "₩": 1756,
      "₫": 1757,
      "€": 1758,
      "₱": 1759,
      "₴": 1760,
      "₹": 1761,
      "₼": 1762,
      "ℂ": 1763,
      "℃": 1764,
      "℅": 1765,
      "ℊ": 1766,
      "ℓ": 1767,
      "№": 1768,
      "℗": 1769,
      "ℛ": 1770,
      "ℝ": 1771,
      "™": 1772,
      "ℳ": 1773,
      "⅓": 1774,
      "⅔": 1775,
      "⅛": 1776,
      "Ⅳ": 1777,
      "ↀ": 1778,
      "←": 1779,
      "↑": 1780,
      "→": 1781,
      "↓": 1782,
      "↔": 1783,
      "↵": 1784,
      "⇒": 1785,
      "⇕": 1786,
      "⇝": 1787,
      "⇧": 1788,
      "⇨": 1789,
      "∀": 1790,
      "∂": 1791,
      "∅": 1792,
      "∆": 1793,
      "∈": 1794,
      "∉": 1795,
      "∑": 1796,
      "−": 1797,
      "∖": 1798,
      "∗": 1799,
      "∘": 1800,
      "∙": 1801,
      "√": 1802,
      "∞": 1803,
      "∧": 1804,
      "∨": 1805,
      "∩": 1806,
      "∪": 1807,
      "∴": 1808,
      "∼": 1809,
      "≅": 1810,
      "≈": 1811,
      "≘": 1812,
      "≠": 1813,
      "≡": 1814,
      "≤": 1815,
      "≥": 1816,
      "≧": 1817,
      "≩": 1818,
      "≫": 1819,
      "≯": 1820,
      "≱": 1821,
      "≳": 1822,
      "≵": 1823,
      "⊃": 1824,
      "⊆": 1825,
      "⊕": 1826,
      "⊗": 1827,
      "⊙": 1828,
      "⊛": 1829,
      "⊥": 1830,
      "⊦": 1831,
      "⊳": 1832,
      "⋅": 1833,
      "⋆": 1834,
      "⋗": 1835,
      "⋙": 1836,
      "⋝": 1837,
      "⋧": 1838,
      "⌑": 1839,
      "⌘": 1840,
      "⍄": 1841,
      "⍩": 1842,
      "⍰": 1843,
      "①": 1844,
      "②": 1845,
      "③": 1846,
      "④": 1847,
      "⑤": 1848,
      "⑨": 1849,
      "Ⓐ": 1850,
      "─": 1851,
      "│": 1852,
      "└": 1853,
      "┘": 1854,
      "▁": 1855,
      "█": 1856,
      "■": 1857,
      "▧": 1858,
      "▪": 1859,
      "►": 1860,
      "◄": 1861,
      "○": 1862,
      "◌": 1863,
      "●": 1864,
      "◦": 1865,
      "☃": 1866,
      "★": 1867,
      "☆": 1868,
      "☉": 1869,
      "☹": 1870,
      "☺": 1871,
      "☻": 1872,
      "♀": 1873,
      "♡": 1874,
      "♥": 1875,
      "♦": 1876,
      "♪": 1877,
      "♭": 1878,
      "♯": 1879,
      "⚲": 1880,
      "✓": 1881,
      "✔": 1882,
      "✪": 1883,
      "❋": 1884,
      "➖": 1885,
      "⟨": 1886,
      "⟩": 1887,
      "⟪": 1888,
      "⟫": 1889,
      "⟶": 1890,
      "⥸": 1891,
      "⦔": 1892,
      "⦕": 1893,
      "⦵": 1894,
      "⧁": 1895,
      "⨾": 1896,
      "⩺": 1897,
      "⩼": 1898,
      "⩾": 1899,
      "⪀": 1900,
      "⪂": 1901,
      "⪄": 1902,
      "⪆": 1903,
      "⪈": 1904,
      "⪊": 1905,
      "⪎": 1906,
      "⪖": 1907,
      "⪘": 1908,
      "⪚": 1909,
      "⪜": 1910,
      "⪞": 1911,
      "⪠": 1912,
      "⪢": 1913,
      "⪧": 1914,
      "⪩": 1915,
      "⫸": 1916,
      "⫺": 1917,
      "Ⱃ": 1918,
      "Ⱆ": 1919,
      "Ⱈ": 1920,
      "Ⱑ": 1921,
      "Ⱓ": 1922,
      "ⱡ": 1923,
      "Ⲁ": 1924,
      "ⲁ": 1925,
      "ⲃ": 1926,
      "Ⲅ": 1927,
      "ⲅ": 1928,
      "Ⲇ": 1929,
      "ⲇ": 1930,
      "Ⲉ": 1931,
      "ⲉ": 1932,
      "ⲏ": 1933,
      "Ⲑ": 1934,
      "ⲑ": 1935,
      "Ⲓ": 1936,
      "ⲓ": 1937,
      "Ⲕ": 1938,
      "ⲕ": 1939,
      "Ⲗ": 1940,
      "ⲗ": 1941,
      "Ⲙ": 1942,
      "ⲙ": 1943,
      "Ⲛ": 1944,
      "ⲛ": 1945,
      "ⲝ": 1946,
      "Ⲟ": 1947,
      "ⲟ": 1948,
      "Ⲡ": 1949,
      "ⲡ": 1950,
      "Ⲣ": 1951,
      "ⲣ": 1952,
      "ⲥ": 1953,
      "Ⲧ": 1954,
      "ⲧ": 1955,
      "ⲩ": 1956,
      "Ⲫ": 1957,
      "ⲫ": 1958,
      "Ⲭ": 1959,
      "Ⲱ": 1960,
      "ⲱ": 1961,
      "Ⳝ": 1962,
      "Ⳟ": 1963,
      "Ⳡ": 1964,
      "ⴰ": 1965,
      "ⴱ": 1966,
      "ⴳ": 1967,
      "ⴵ": 1968,
      "ⴷ": 1969,
      "ⴻ": 1970,
      "ⴼ": 1971,
      "ⵀ": 1972,
      "ⵃ": 1973,
      "ⵄ": 1974,
      "ⵅ": 1975,
      "ⵉ": 1976,
      "ⵊ": 1977,
      "ⵍ": 1978,
      "ⵎ": 1979,
      "ⵏ": 1980,
      "ⵓ": 1981,
      "ⵔ": 1982,
      "ⵖ": 1983,
      "ⵗ": 1984,
      "ⵙ": 1985,
      "ⵛ": 1986,
      "ⵜ": 1987,
      "ⵝ": 1988,
      "ⵢ": 1989,
      "ⵣ": 1990,
      "⸵": 1991,
      "　": 1992,
      "、": 1993,
      "。": 1994,
      "《": 1995,
      "》": 1996,
      "「": 1997,
      "」": 1998,
      "『": 1999,
      "』": 2000,
      "〜": 2001,
      "あ": 2002,
      "ぃ": 2003,
      "い": 2004,
      "う": 2005,
      "ぇ": 2006,
      "え": 2007,
      "お": 2008,
      "か": 2009,
      "が": 2010,
      "き": 2011,
      "ぎ": 2012,
      "く": 2013,
      "ぐ": 2014,
      "け": 2015,
      "こ": 2016,
      "ご": 2017,
      "さ": 2018,
      "ざ": 2019,
      "し": 2020,
      "じ": 2021,
      "す": 2022,
      "ず": 2023,
      "せ": 2024,
      "ぞ": 2025,
      "た": 2026,
      "だ": 2027,
      "ち": 2028,
      "っ": 2029,
      "つ": 2030,
      "づ": 2031,
      "て": 2032,
      "で": 2033,
      "と": 2034,
      "ど": 2035,
      "な": 2036,
      "に": 2037,
      "ぬ": 2038,
      "ね": 2039,
      "の": 2040,
      "は": 2041,
      "ば": 2042,
      "ぱ": 2043,
      "ひ": 2044,
      "び": 2045,
      "ぴ": 2046,
      "ふ": 2047,
      "ぶ": 2048,
      "へ": 2049,
      "べ": 2050,
      "ほ": 2051,
      "ぽ": 2052,
      "ま": 2053,
      "み": 2054,
      "む": 2055,
      "め": 2056,
      "も": 2057,
      "ゃ": 2058,
      "や": 2059,
      "ゅ": 2060,
      "ゆ": 2061,
      "ょ": 2062,
      "よ": 2063,
      "ら": 2064,
      "り": 2065,
      "る": 2066,
      "れ": 2067,
      "ろ": 2068,
      "わ": 2069,
      "を": 2070,
      "ん": 2071,
      "ァ": 2072,
      "ア": 2073,
      "ィ": 2074,
      "イ": 2075,
      "ウ": 2076,
      "ェ": 2077,
      "エ": 2078,
      "ォ": 2079,
      "オ": 2080,
      "カ": 2081,
      "ガ": 2082,
      "キ": 2083,
      "ギ": 2084,
      "ク": 2085,
      "グ": 2086,
      "ケ": 2087,
      "ゲ": 2088,
      "コ": 2089,
      "ゴ": 2090,
      "サ": 2091,
      "ザ": 2092,
      "シ": 2093,
      "ジ": 2094,
      "ス": 2095,
      "ズ": 2096,
      "セ": 2097,
      "ゼ": 2098,
      "ソ": 2099,
      "ゾ": 2100,
      "タ": 2101,
      "ダ": 2102,
      "チ": 2103,
      "ッ": 2104,
      "ツ": 2105,
      "テ": 2106,
      "デ": 2107,
      "ト": 2108,
      "ド": 2109,
      "ナ": 2110,
      "ニ": 2111,
      "ヌ": 2112,
      "ネ": 2113,
      "ノ": 2114,
      "ハ": 2115,
      "バ": 2116,
      "パ": 2117,
      "ビ": 2118,
      "ピ": 2119,
      "フ": 2120,
      "ブ": 2121,
      "プ": 2122,
      "ヘ": 2123,
      "ベ": 2124,
      "ペ": 2125,
      "ボ": 2126,
      "ポ": 2127,
      "マ": 2128,
      "ミ": 2129,
      "ム": 2130,
      "メ": 2131,
      "モ": 2132,
      "ャ": 2133,
      "ヤ": 2134,
      "ュ": 2135,
      "ユ": 2136,
      "ョ": 2137,
      "ヨ": 2138,
      "ラ": 2139,
      "リ": 2140,
      "ル": 2141,
      "レ": 2142,
      "ロ": 2143,
      "ワ": 2144,
      "ヲ": 2145,
      "ン": 2146,
      "・": 2147,
      "ー": 2148,
      "㝏": 2149,
      "䍃": 2150,
      "一": 2151,
      "丁": 2152,
      "七": 2153,
      "万": 2154,
      "丈": 2155,
      "三": 2156,
      "上": 2157,
      "下": 2158,
      "不": 2159,
      "与": 2160,
      "丑": 2161,
      "世": 2162,
      "丘": 2163,
      "丙": 2164,
      "业": 2165,
      "丝": 2166,
      "丞": 2167,
      "两": 2168,
      "严": 2169,
      "中": 2170,
      "丰": 2171,
      "串": 2172,
      "临": 2173,
      "丸": 2174,
      "丹": 2175,
      "为": 2176,
      "主": 2177,
      "丽": 2178,
      "久": 2179,
      "义": 2180,
      "之": 2181,
      "乌": 2182,
      "乐": 2183,
      "乗": 2184,
      "乙": 2185,
      "九": 2186,
      "乡": 2187,
      "书": 2188,
      "乱": 2189,
      "亀": 2190,
      "亂": 2191,
      "了": 2192,
      "争": 2193,
      "事": 2194,
      "二": 2195,
      "于": 2196,
      "云": 2197,
      "互": 2198,
      "五": 2199,
      "井": 2200,
      "亘": 2201,
      "亚": 2202,
      "亜": 2203,
      "亞": 2204,
      "交": 2205,
      "亦": 2206,
      "亨": 2207,
      "京": 2208,
      "亮": 2209,
      "人": 2210,
      "亿": 2211,
      "什": 2212,
      "仁": 2213,
      "仇": 2214,
      "今": 2215,
      "介": 2216,
      "从": 2217,
      "仔": 2218,
      "仕": 2219,
      "他": 2220,
      "仙": 2221,
      "代": 2222,
      "令": 2223,
      "以": 2224,
      "仪": 2225,
      "仰": 2226,
      "仲": 2227,
      "件": 2228,
      "任": 2229,
      "伊": 2230,
      "伏": 2231,
      "休": 2232,
      "众": 2233,
      "优": 2234,
      "会": 2235,
      "伝": 2236,
      "伟": 2237,
      "传": 2238,
      "伤": 2239,
      "伦": 2240,
      "伯": 2241,
      "伴": 2242,
      "伸": 2243,
      "伽": 2244,
      "位": 2245,
      "佐": 2246,
      "体": 2247,
      "何": 2248,
      "佛": 2249,
      "作": 2250,
      "你": 2251,
      "佩": 2252,
      "佳": 2253,
      "使": 2254,
      "來": 2255,
      "例": 2256,
      "侍": 2257,
      "依": 2258,
      "侠": 2259,
      "侯": 2260,
      "便": 2261,
      "俊": 2262,
      "俗": 2263,
      "保": 2264,
      "信": 2265,
      "修": 2266,
      "俱": 2267,
      "俺": 2268,
      "倉": 2269,
      "倻": 2270,
      "偃": 2271,
      "偏": 2272,
      "健": 2273,
      "偰": 2274,
      "側": 2275,
      "偵": 2276,
      "傑": 2277,
      "備": 2278,
      "傣": 2279,
      "傳": 2280,
      "傷": 2281,
      "僕": 2282,
      "僚": 2283,
      "僧": 2284,
      "儀": 2285,
      "儉": 2286,
      "優": 2287,
      "兀": 2288,
      "元": 2289,
      "兄": 2290,
      "兆": 2291,
      "先": 2292,
      "光": 2293,
      "克": 2294,
      "兌": 2295,
      "免": 2296,
      "兗": 2297,
      "党": 2298,
      "兜": 2299,
      "入": 2300,
      "內": 2301,
      "全": 2302,
      "兩": 2303,
      "八": 2304,
      "公": 2305,
      "六": 2306,
      "兰": 2307,
      "共": 2308,
      "关": 2309,
      "兴": 2310,
      "兵": 2311,
      "典": 2312,
      "兾": 2313,
      "冀": 2314,
      "内": 2315,
      "円": 2316,
      "冒": 2317,
      "军": 2318,
      "农": 2319,
      "冠": 2320,
      "冯": 2321,
      "冰": 2322,
      "冲": 2323,
      "几": 2324,
      "凡": 2325,
      "処": 2326,
      "凱": 2327,
      "出": 2328,
      "击": 2329,
      "函": 2330,
      "刀": 2331,
      "刃": 2332,
      "分": 2333,
      "切": 2334,
      "刊": 2335,
      "列": 2336,
      "初": 2337,
      "判": 2338,
      "別": 2339,
      "利": 2340,
      "别": 2341,
      "到": 2342,
      "制": 2343,
      "則": 2344,
      "前": 2345,
      "剛": 2346,
      "剩": 2347,
      "創": 2348,
      "劃": 2349,
      "劇": 2350,
      "劉": 2351,
      "劍": 2352,
      "力": 2353,
      "加": 2354,
      "务": 2355,
      "助": 2356,
      "努": 2357,
      "勁": 2358,
      "勅": 2359,
      "勇": 2360,
      "務": 2361,
      "勝": 2362,
      "勢": 2363,
      "化": 2364,
      "北": 2365,
      "匯": 2366,
      "区": 2367,
      "區": 2368,
      "十": 2369,
      "千": 2370,
      "升": 2371,
      "午": 2372,
      "半": 2373,
      "华": 2374,
      "协": 2375,
      "協": 2376,
      "南": 2377,
      "博": 2378,
      "卡": 2379,
      "卢": 2380,
      "卧": 2381,
      "卫": 2382,
      "印": 2383,
      "危": 2384,
      "即": 2385,
      "卷": 2386,
      "卿": 2387,
      "厉": 2388,
      "原": 2389,
      "厥": 2390,
      "县": 2391,
      "参": 2392,
      "參": 2393,
      "又": 2394,
      "叉": 2395,
      "友": 2396,
      "反": 2397,
      "取": 2398,
      "受": 2399,
      "口": 2400,
      "古": 2401,
      "句": 2402,
      "可": 2403,
      "台": 2404,
      "史": 2405,
      "右": 2406,
      "叶": 2407,
      "号": 2408,
      "司": 2409,
      "叻": 2410,
      "吃": 2411,
      "合": 2412,
      "吉": 2413,
      "同": 2414,
      "名": 2415,
      "后": 2416,
      "吏": 2417,
      "向": 2418,
      "君": 2419,
      "吴": 2420,
      "吾": 2421,
      "呂": 2422,
      "告": 2423,
      "周": 2424,
      "命": 2425,
      "和": 2426,
      "咎": 2427,
      "咲": 2428,
      "咸": 2429,
      "哀": 2430,
      "品": 2431,
      "哈": 2432,
      "哉": 2433,
      "員": 2434,
      "哥": 2435,
      "哭": 2436,
      "哲": 2437,
      "唐": 2438,
      "唯": 2439,
      "唱": 2440,
      "商": 2441,
      "問": 2442,
      "啟": 2443,
      "善": 2444,
      "喜": 2445,
      "喪": 2446,
      "喬": 2447,
      "單": 2448,
      "嘉": 2449,
      "嘎": 2450,
      "囍": 2451,
      "四": 2452,
      "回": 2453,
      "因": 2454,
      "团": 2455,
      "団": 2456,
      "园": 2457,
      "困": 2458,
      "図": 2459,
      "国": 2460,
      "國": 2461,
      "園": 2462,
      "圖": 2463,
      "團": 2464,
      "土": 2465,
      "圣": 2466,
      "在": 2467,
      "地": 2468,
      "场": 2469,
      "坂": 2470,
      "坎": 2471,
      "坚": 2472,
      "坝": 2473,
      "坡": 2474,
      "坨": 2475,
      "坰": 2476,
      "型": 2477,
      "垣": 2478,
      "城": 2479,
      "域": 2480,
      "執": 2481,
      "培": 2482,
      "基": 2483,
      "堀": 2484,
      "堂": 2485,
      "堤": 2486,
      "堪": 2487,
      "報": 2488,
      "場": 2489,
      "塔": 2490,
      "塘": 2491,
      "塚": 2492,
      "塞": 2493,
      "境": 2494,
      "墓": 2495,
      "增": 2496,
      "墨": 2497,
      "墩": 2498,
      "墾": 2499,
      "士": 2500,
      "壮": 2501,
      "声": 2502,
      "売": 2503,
      "壽": 2504,
      "复": 2505,
      "夏": 2506,
      "夔": 2507,
      "外": 2508,
      "多": 2509,
      "夜": 2510,
      "夢": 2511,
      "大": 2512,
      "天": 2513,
      "太": 2514,
      "夫": 2515,
      "央": 2516,
      "头": 2517,
      "夷": 2518,
      "夺": 2519,
      "奇": 2520,
      "奈": 2521,
      "奉": 2522,
      "奕": 2523,
      "奖": 2524,
      "奥": 2525,
      "奧": 2526,
      "奮": 2527,
      "女": 2528,
      "奶": 2529,
      "好": 2530,
      "如": 2531,
      "妃": 2532,
      "妖": 2533,
      "妙": 2534,
      "妝": 2535,
      "妹": 2536,
      "妻": 2537,
      "姊": 2538,
      "始": 2539,
      "姑": 2540,
      "委": 2541,
      "姙": 2542,
      "姜": 2543,
      "姻": 2544,
      "威": 2545,
      "娘": 2546,
      "娜": 2547,
      "娟": 2548,
      "娱": 2549,
      "婦": 2550,
      "子": 2551,
      "孔": 2552,
      "字": 2553,
      "存": 2554,
      "孙": 2555,
      "孜": 2556,
      "孝": 2557,
      "孟": 2558,
      "季": 2559,
      "学": 2560,
      "孩": 2561,
      "孫": 2562,
      "學": 2563,
      "孽": 2564,
      "宁": 2565,
      "宇": 2566,
      "守": 2567,
      "安": 2568,
      "宋": 2569,
      "宗": 2570,
      "官": 2571,
      "宙": 2572,
      "定": 2573,
      "宛": 2574,
      "宜": 2575,
      "宝": 2576,
      "実": 2577,
      "审": 2578,
      "客": 2579,
      "宣": 2580,
      "室": 2581,
      "宫": 2582,
      "宮": 2583,
      "宰": 2584,
      "害": 2585,
      "家": 2586,
      "容": 2587,
      "宿": 2588,
      "寂": 2589,
      "寄": 2590,
      "密": 2591,
      "富": 2592,
      "寒": 2593,
      "察": 2594,
      "實": 2595,
      "寧": 2596,
      "寨": 2597,
      "寫": 2598,
      "寶": 2599,
      "寺": 2600,
      "导": 2601,
      "封": 2602,
      "将": 2603,
      "將": 2604,
      "專": 2605,
      "尉": 2606,
      "尊": 2607,
      "對": 2608,
      "導": 2609,
      "小": 2610,
      "少": 2611,
      "尔": 2612,
      "尖": 2613,
      "尚": 2614,
      "就": 2615,
      "尸": 2616,
      "尹": 2617,
      "尼": 2618,
      "尾": 2619,
      "局": 2620,
      "居": 2621,
      "屋": 2622,
      "屍": 2623,
      "展": 2624,
      "屬": 2625,
      "山": 2626,
      "岔": 2627,
      "岗": 2628,
      "岡": 2629,
      "岩": 2630,
      "岭": 2631,
      "岸": 2632,
      "峨": 2633,
      "島": 2634,
      "峽": 2635,
      "崇": 2636,
      "崎": 2637,
      "崔": 2638,
      "崩": 2639,
      "嶺": 2640,
      "嶽": 2641,
      "巌": 2642,
      "川": 2643,
      "州": 2644,
      "巡": 2645,
      "工": 2646,
      "左": 2647,
      "巫": 2648,
      "巴": 2649,
      "巻": 2650,
      "市": 2651,
      "布": 2652,
      "帆": 2653,
      "师": 2654,
      "希": 2655,
      "帝": 2656,
      "帧": 2657,
      "師": 2658,
      "帳": 2659,
      "帶": 2660,
      "常": 2661,
      "幕": 2662,
      "平": 2663,
      "年": 2664,
      "幸": 2665,
      "幻": 2666,
      "幼": 2667,
      "幽": 2668,
      "广": 2669,
      "庁": 2670,
      "広": 2671,
      "庄": 2672,
      "庆": 2673,
      "应": 2674,
      "店": 2675,
      "庙": 2676,
      "府": 2677,
      "座": 2678,
      "庫": 2679,
      "庵": 2680,
      "庶": 2681,
      "康": 2682,
      "庾": 2683,
      "廉": 2684,
      "廖": 2685,
      "廟": 2686,
      "廣": 2687,
      "延": 2688,
      "廷": 2689,
      "建": 2690,
      "开": 2691,
      "式": 2692,
      "弐": 2693,
      "弓": 2694,
      "弔": 2695,
      "引": 2696,
      "弘": 2697,
      "弟": 2698,
      "张": 2699,
      "張": 2700,
      "強": 2701,
      "强": 2702,
      "弼": 2703,
      "弾": 2704,
      "彈": 2705,
      "彊": 2706,
      "彌": 2707,
      "彎": 2708,
      "当": 2709,
      "彝": 2710,
      "形": 2711,
      "彥": 2712,
      "彦": 2713,
      "彩": 2714,
      "彬": 2715,
      "彭": 2716,
      "彰": 2717,
      "影": 2718,
      "役": 2719,
      "往": 2720,
      "征": 2721,
      "很": 2722,
      "律": 2723,
      "後": 2724,
      "徐": 2725,
      "徒": 2726,
      "従": 2727,
      "得": 2728,
      "御": 2729,
      "復": 2730,
      "徳": 2731,
      "德": 2732,
      "徹": 2733,
      "徽": 2734,
      "心": 2735,
      "忌": 2736,
      "忍": 2737,
      "志": 2738,
      "忘": 2739,
      "応": 2740,
      "忠": 2741,
      "快": 2742,
      "念": 2743,
      "忸": 2744,
      "忽": 2745,
      "思": 2746,
      "性": 2747,
      "总": 2748,
      "恋": 2749,
      "恕": 2750,
      "恩": 2751,
      "恪": 2752,
      "恭": 2753,
      "息": 2754,
      "恵": 2755,
      "悌": 2756,
      "悠": 2757,
      "情": 2758,
      "想": 2759,
      "意": 2760,
      "愚": 2761,
      "愛": 2762,
      "感": 2763,
      "愼": 2764,
      "慈": 2765,
      "慎": 2766,
      "慧": 2767,
      "慰": 2768,
      "慶": 2769,
      "憲": 2770,
      "應": 2771,
      "懐": 2772,
      "懷": 2773,
      "戀": 2774,
      "戉": 2775,
      "成": 2776,
      "我": 2777,
      "戒": 2778,
      "战": 2779,
      "戦": 2780,
      "戰": 2781,
      "戲": 2782,
      "戶": 2783,
      "户": 2784,
      "戸": 2785,
      "房": 2786,
      "所": 2787,
      "扇": 2788,
      "手": 2789,
      "打": 2790,
      "扶": 2791,
      "承": 2792,
      "技": 2793,
      "护": 2794,
      "报": 2795,
      "抱": 2796,
      "拆": 2797,
      "拉": 2798,
      "招": 2799,
      "拜": 2800,
      "拳": 2801,
      "拾": 2802,
      "指": 2803,
      "换": 2804,
      "捺": 2805,
      "掌": 2806,
      "探": 2807,
      "控": 2808,
      "推": 2809,
      "掸": 2810,
      "揚": 2811,
      "換": 2812,
      "握": 2813,
      "揭": 2814,
      "援": 2815,
      "摂": 2816,
      "摠": 2817,
      "摩": 2818,
      "撫": 2819,
      "播": 2820,
      "擒": 2821,
      "攘": 2822,
      "支": 2823,
      "改": 2824,
      "攻": 2825,
      "放": 2826,
      "政": 2827,
      "敎": 2828,
      "敏": 2829,
      "救": 2830,
      "敕": 2831,
      "敖": 2832,
      "敗": 2833,
      "教": 2834,
      "敦": 2835,
      "敬": 2836,
      "整": 2837,
      "文": 2838,
      "斉": 2839,
      "斋": 2840,
      "斌": 2841,
      "斎": 2842,
      "斗": 2843,
      "料": 2844,
      "斜": 2845,
      "斧": 2846,
      "斬": 2847,
      "斯": 2848,
      "新": 2849,
      "方": 2850,
      "於": 2851,
      "施": 2852,
      "族": 2853,
      "旗": 2854,
      "无": 2855,
      "日": 2856,
      "旨": 2857,
      "早": 2858,
      "旬": 2859,
      "旭": 2860,
      "旱": 2861,
      "时": 2862,
      "旷": 2863,
      "旺": 2864,
      "昂": 2865,
      "昌": 2866,
      "明": 2867,
      "星": 2868,
      "春": 2869,
      "昧": 2870,
      "昭": 2871,
      "晁": 2872,
      "時": 2873,
      "晃": 2874,
      "晉": 2875,
      "晋": 2876,
      "晚": 2877,
      "晩": 2878,
      "普": 2879,
      "景": 2880,
      "晴": 2881,
      "晶": 2882,
      "智": 2883,
      "暎": 2884,
      "暗": 2885,
      "暴": 2886,
      "曲": 2887,
      "書": 2888,
      "曹": 2889,
      "曽": 2890,
      "最": 2891,
      "會": 2892,
      "月": 2893,
      "有": 2894,
      "朋": 2895,
      "朔": 2896,
      "朗": 2897,
      "望": 2898,
      "朝": 2899,
      "期": 2900,
      "木": 2901,
      "未": 2902,
      "末": 2903,
      "本": 2904,
      "术": 2905,
      "朱": 2906,
      "朴": 2907,
      "机": 2908,
      "权": 2909,
      "杉": 2910,
      "李": 2911,
      "村": 2912,
      "条": 2913,
      "来": 2914,
      "杨": 2915,
      "杭": 2916,
      "東": 2917,
      "松": 2918,
      "构": 2919,
      "林": 2920,
      "枚": 2921,
      "果": 2922,
      "枝": 2923,
      "枪": 2924,
      "柔": 2925,
      "查": 2926,
      "柱": 2927,
      "柳": 2928,
      "标": 2929,
      "栎": 2930,
      "树": 2931,
      "栖": 2932,
      "栗": 2933,
      "校": 2934,
      "株": 2935,
      "根": 2936,
      "格": 2937,
      "桂": 2938,
      "桃": 2939,
      "桌": 2940,
      "桑": 2941,
      "桓": 2942,
      "档": 2943,
      "桥": 2944,
      "桶": 2945,
      "梁": 2946,
      "梅": 2947,
      "梆": 2948,
      "梓": 2949,
      "梦": 2950,
      "梧": 2951,
      "梨": 2952,
      "棠": 2953,
      "棣": 2954,
      "森": 2955,
      "棵": 2956,
      "植": 2957,
      "椿": 2958,
      "楊": 2959,
      "楚": 2960,
      "業": 2961,
      "極": 2962,
      "楷": 2963,
      "楽": 2964,
      "榆": 2965,
      "榮": 2966,
      "槇": 2967,
      "構": 2968,
      "様": 2969,
      "樂": 2970,
      "樊": 2971,
      "樓": 2972,
      "標": 2973,
      "模": 2974,
      "横": 2975,
      "樹": 2976,
      "樽": 2977,
      "橋": 2978,
      "機": 2979,
      "橫": 2980,
      "檜": 2981,
      "次": 2982,
      "欣": 2983,
      "歇": 2984,
      "歌": 2985,
      "歓": 2986,
      "歙": 2987,
      "止": 2988,
      "正": 2989,
      "武": 2990,
      "歩": 2991,
      "歴": 2992,
      "歷": 2993,
      "歸": 2994,
      "死": 2995,
      "殭": 2996,
      "段": 2997,
      "殷": 2998,
      "殺": 2999,
      "殿": 3000,
      "母": 3001,
      "每": 3002,
      "比": 3003,
      "氏": 3004,
      "民": 3005,
      "气": 3006,
      "気": 3007,
      "氣": 3008,
      "水": 3009,
      "氷": 3010,
      "永": 3011,
      "汁": 3012,
      "汉": 3013,
      "汎": 3014,
      "汗": 3015,
      "汝": 3016,
      "江": 3017,
      "汤": 3018,
      "汶": 3019,
      "汾": 3020,
      "沂": 3021,
      "沅": 3022,
      "沈": 3023,
      "沖": 3024,
      "沙": 3025,
      "沟": 3026,
      "沪": 3027,
      "沮": 3028,
      "河": 3029,
      "治": 3030,
      "沼": 3031,
      "泉": 3032,
      "泐": 3033,
      "法": 3034,
      "泗": 3035,
      "泛": 3036,
      "波": 3037,
      "泥": 3038,
      "注": 3039,
      "泰": 3040,
      "泽": 3041,
      "洋": 3042,
      "洒": 3043,
      "洛": 3044,
      "洞": 3045,
      "津": 3046,
      "洪": 3047,
      "洲": 3048,
      "洼": 3049,
      "派": 3050,
      "流": 3051,
      "浅": 3052,
      "浜": 3053,
      "浦": 3054,
      "浩": 3055,
      "浪": 3056,
      "海": 3057,
      "消": 3058,
      "涉": 3059,
      "涛": 3060,
      "液": 3061,
      "涵": 3062,
      "淑": 3063,
      "淘": 3064,
      "淨": 3065,
      "淮": 3066,
      "深": 3067,
      "淳": 3068,
      "淵": 3069,
      "清": 3070,
      "済": 3071,
      "渉": 3072,
      "渝": 3073,
      "渠": 3074,
      "渡": 3075,
      "温": 3076,
      "港": 3077,
      "渾": 3078,
      "湖": 3079,
      "湛": 3080,
      "湝": 3081,
      "湣": 3082,
      "湯": 3083,
      "湾": 3084,
      "満": 3085,
      "源": 3086,
      "溝": 3087,
      "滋": 3088,
      "满": 3089,
      "滨": 3090,
      "滿": 3091,
      "演": 3092,
      "漢": 3093,
      "漱": 3094,
      "潔": 3095,
      "潘": 3096,
      "潜": 3097,
      "潭": 3098,
      "澄": 3099,
      "澤": 3100,
      "澳": 3101,
      "濃": 3102,
      "濑": 3103,
      "濞": 3104,
      "濟": 3105,
      "濮": 3106,
      "濱": 3107,
      "濳": 3108,
      "火": 3109,
      "灯": 3110,
      "灵": 3111,
      "災": 3112,
      "炫": 3113,
      "炭": 3114,
      "炮": 3115,
      "点": 3116,
      "為": 3117,
      "烧": 3118,
      "無": 3119,
      "然": 3120,
      "焼": 3121,
      "煥": 3122,
      "熊": 3123,
      "熙": 3124,
      "熨": 3125,
      "熱": 3126,
      "燁": 3127,
      "燊": 3128,
      "燕": 3129,
      "爆": 3130,
      "爐": 3131,
      "爭": 3132,
      "爱": 3133,
      "父": 3134,
      "爹": 3135,
      "爾": 3136,
      "片": 3137,
      "版": 3138,
      "牛": 3139,
      "牧": 3140,
      "物": 3141,
      "特": 3142,
      "犬": 3143,
      "犭": 3144,
      "狄": 3145,
      "狐": 3146,
      "狗": 3147,
      "狭": 3148,
      "狮": 3149,
      "猇": 3150,
      "猛": 3151,
      "猜": 3152,
      "猪": 3153,
      "猫": 3154,
      "献": 3155,
      "猺": 3156,
      "猿": 3157,
      "獎": 3158,
      "獲": 3159,
      "獻": 3160,
      "玄": 3161,
      "玉": 3162,
      "王": 3163,
      "玛": 3164,
      "现": 3165,
      "玲": 3166,
      "珍": 3167,
      "珠": 3168,
      "現": 3169,
      "球": 3170,
      "琅": 3171,
      "理": 3172,
      "琉": 3173,
      "琊": 3174,
      "琛": 3175,
      "琪": 3176,
      "琰": 3177,
      "琳": 3178,
      "琴": 3179,
      "瑋": 3180,
      "瑗": 3181,
      "瑞": 3182,
      "璋": 3183,
      "環": 3184,
      "瓊": 3185,
      "生": 3186,
      "産": 3187,
      "用": 3188,
      "田": 3189,
      "由": 3190,
      "甲": 3191,
      "申": 3192,
      "电": 3193,
      "男": 3194,
      "甸": 3195,
      "町": 3196,
      "画": 3197,
      "界": 3198,
      "畠": 3199,
      "畢": 3200,
      "番": 3201,
      "畫": 3202,
      "當": 3203,
      "疾": 3204,
      "病": 3205,
      "痕": 3206,
      "瘦": 3207,
      "登": 3208,
      "白": 3209,
      "百": 3210,
      "的": 3211,
      "皆": 3212,
      "皇": 3213,
      "盗": 3214,
      "盛": 3215,
      "監": 3216,
      "目": 3217,
      "直": 3218,
      "相": 3219,
      "省": 3220,
      "県": 3221,
      "眞": 3222,
      "真": 3223,
      "眼": 3224,
      "睦": 3225,
      "瞳": 3226,
      "瞻": 3227,
      "矢": 3228,
      "知": 3229,
      "石": 3230,
      "研": 3231,
      "砲": 3232,
      "硕": 3233,
      "硯": 3234,
      "碎": 3235,
      "碑": 3236,
      "磯": 3237,
      "礁": 3238,
      "示": 3239,
      "礼": 3240,
      "社": 3241,
      "祇": 3242,
      "祈": 3243,
      "祐": 3244,
      "祖": 3245,
      "神": 3246,
      "祠": 3247,
      "祥": 3248,
      "票": 3249,
      "祭": 3250,
      "祿": 3251,
      "禄": 3252,
      "禅": 3253,
      "福": 3254,
      "禔": 3255,
      "禮": 3256,
      "秀": 3257,
      "秋": 3258,
      "科": 3259,
      "秘": 3260,
      "秦": 3261,
      "移": 3262,
      "稀": 3263,
      "程": 3264,
      "稔": 3265,
      "種": 3266,
      "稲": 3267,
      "穆": 3268,
      "穎": 3269,
      "穩": 3270,
      "穹": 3271,
      "空": 3272,
      "突": 3273,
      "窟": 3274,
      "立": 3275,
      "章": 3276,
      "童": 3277,
      "端": 3278,
      "竹": 3279,
      "竺": 3280,
      "笃": 3281,
      "笑": 3282,
      "笠": 3283,
      "第": 3284,
      "筆": 3285,
      "等": 3286,
      "筑": 3287,
      "筷": 3288,
      "筼": 3289,
      "箕": 3290,
      "箜": 3291,
      "管": 3292,
      "節": 3293,
      "篇": 3294,
      "篌": 3295,
      "簡": 3296,
      "类": 3297,
      "粉": 3298,
      "粋": 3299,
      "粲": 3300,
      "粵": 3301,
      "粽": 3302,
      "精": 3303,
      "糯": 3304,
      "糸": 3305,
      "系": 3306,
      "紀": 3307,
      "納": 3308,
      "純": 3309,
      "紗": 3310,
      "素": 3311,
      "紫": 3312,
      "紹": 3313,
      "組": 3314,
      "経": 3315,
      "結": 3316,
      "絡": 3317,
      "統": 3318,
      "絲": 3319,
      "絵": 3320,
      "經": 3321,
      "維": 3322,
      "綱": 3323,
      "綾": 3324,
      "綿": 3325,
      "総": 3326,
      "線": 3327,
      "編": 3328,
      "縁": 3329,
      "縄": 3330,
      "縣": 3331,
      "縮": 3332,
      "總": 3333,
      "繁": 3334,
      "繪": 3335,
      "纂": 3336,
      "红": 3337,
      "级": 3338,
      "纪": 3339,
      "纲": 3340,
      "线": 3341,
      "组": 3342,
      "细": 3343,
      "绍": 3344,
      "绘": 3345,
      "络": 3346,
      "统": 3347,
      "维": 3348,
      "绸": 3349,
      "缩": 3350,
      "网": 3351,
      "罗": 3352,
      "羅": 3353,
      "美": 3354,
      "義": 3355,
      "羽": 3356,
      "翁": 3357,
      "習": 3358,
      "翠": 3359,
      "翰": 3360,
      "耀": 3361,
      "老": 3362,
      "者": 3363,
      "耍": 3364,
      "耎": 3365,
      "耕": 3366,
      "耳": 3367,
      "耶": 3368,
      "耽": 3369,
      "耿": 3370,
      "聂": 3371,
      "联": 3372,
      "聖": 3373,
      "聞": 3374,
      "聯": 3375,
      "聲": 3376,
      "聴": 3377,
      "肅": 3378,
      "肆": 3379,
      "肇": 3380,
      "肉": 3381,
      "股": 3382,
      "育": 3383,
      "胜": 3384,
      "胡": 3385,
      "能": 3386,
      "脇": 3387,
      "脷": 3388,
      "腐": 3389,
      "膏": 3390,
      "臘": 3391,
      "臣": 3392,
      "臧": 3393,
      "臨": 3394,
      "自": 3395,
      "至": 3396,
      "臺": 3397,
      "與": 3398,
      "興": 3399,
      "舍": 3400,
      "舎": 3401,
      "舞": 3402,
      "舟": 3403,
      "航": 3404,
      "般": 3405,
      "船": 3406,
      "艦": 3407,
      "良": 3408,
      "色": 3409,
      "艹": 3410,
      "艺": 3411,
      "艾": 3412,
      "芝": 3413,
      "芭": 3414,
      "花": 3415,
      "芳": 3416,
      "芽": 3417,
      "苏": 3418,
      "苑": 3419,
      "若": 3420,
      "英": 3421,
      "茂": 3422,
      "茄": 3423,
      "茶": 3424,
      "荆": 3425,
      "草": 3426,
      "荊": 3427,
      "荒": 3428,
      "荣": 3429,
      "莉": 3430,
      "莊": 3431,
      "莎": 3432,
      "莫": 3433,
      "菅": 3434,
      "菊": 3435,
      "華": 3436,
      "萤": 3437,
      "萩": 3438,
      "萬": 3439,
      "萱": 3440,
      "落": 3441,
      "葆": 3442,
      "葉": 3443,
      "著": 3444,
      "葛": 3445,
      "董": 3446,
      "葵": 3447,
      "蒙": 3448,
      "蒡": 3449,
      "蒲": 3450,
      "蒼": 3451,
      "蓮": 3452,
      "蔚": 3453,
      "蔡": 3454,
      "蔣": 3455,
      "蔭": 3456,
      "蔵": 3457,
      "蔺": 3458,
      "蕉": 3459,
      "蕙": 3460,
      "蕪": 3461,
      "薙": 3462,
      "薩": 3463,
      "薬": 3464,
      "藍": 3465,
      "藏": 3466,
      "藝": 3467,
      "藤": 3468,
      "藩": 3469,
      "藺": 3470,
      "蘇": 3471,
      "蘭": 3472,
      "虎": 3473,
      "虔": 3474,
      "處": 3475,
      "號": 3476,
      "虧": 3477,
      "虫": 3478,
      "蛇": 3479,
      "蜂": 3480,
      "蝶": 3481,
      "蟬": 3482,
      "蠢": 3483,
      "血": 3484,
      "行": 3485,
      "術": 3486,
      "街": 3487,
      "衛": 3488,
      "衡": 3489,
      "衣": 3490,
      "表": 3491,
      "被": 3492,
      "袭": 3493,
      "装": 3494,
      "裏": 3495,
      "裕": 3496,
      "補": 3497,
      "裝": 3498,
      "裴": 3499,
      "褓": 3500,
      "襄": 3501,
      "襲": 3502,
      "西": 3503,
      "要": 3504,
      "見": 3505,
      "覚": 3506,
      "覧": 3507,
      "親": 3508,
      "観": 3509,
      "覺": 3510,
      "觀": 3511,
      "观": 3512,
      "视": 3513,
      "角": 3514,
      "解": 3515,
      "言": 3516,
      "訓": 3517,
      "記": 3518,
      "訪": 3519,
      "設": 3520,
      "許": 3521,
      "詞": 3522,
      "詩": 3523,
      "詭": 3524,
      "詮": 3525,
      "話": 3526,
      "誌": 3527,
      "誕": 3528,
      "語": 3529,
      "誠": 3530,
      "説": 3531,
      "誼": 3532,
      "談": 3533,
      "諏": 3534,
      "論": 3535,
      "諫": 3536,
      "諭": 3537,
      "謎": 3538,
      "謙": 3539,
      "謚": 3540,
      "講": 3541,
      "謝": 3542,
      "譙": 3543,
      "譜": 3544,
      "譯": 3545,
      "議": 3546,
      "護": 3547,
      "讓": 3548,
      "计": 3549,
      "许": 3550,
      "论": 3551,
      "诚": 3552,
      "话": 3553,
      "语": 3554,
      "误": 3555,
      "谜": 3556,
      "谥": 3557,
      "谦": 3558,
      "谷": 3559,
      "豆": 3560,
      "豊": 3561,
      "豐": 3562,
      "象": 3563,
      "豪": 3564,
      "豹": 3565,
      "貝": 3566,
      "貞": 3567,
      "貧": 3568,
      "貴": 3569,
      "貸": 3570,
      "賀": 3571,
      "資": 3572,
      "賊": 3573,
      "賞": 3574,
      "賢": 3575,
      "質": 3576,
      "賴": 3577,
      "贤": 3578,
      "质": 3579,
      "赉": 3580,
      "赛": 3581,
      "赤": 3582,
      "走": 3583,
      "赵": 3584,
      "起": 3585,
      "超": 3586,
      "越": 3587,
      "趙": 3588,
      "足": 3589,
      "跡": 3590,
      "路": 3591,
      "践": 3592,
      "跷": 3593,
      "踩": 3594,
      "蹈": 3595,
      "車": 3596,
      "軍": 3597,
      "軒": 3598,
      "軽": 3599,
      "輔": 3600,
      "輩": 3601,
      "輶": 3602,
      "转": 3603,
      "辟": 3604,
      "辰": 3605,
      "農": 3606,
      "辳": 3607,
      "边": 3608,
      "辺": 3609,
      "辻": 3610,
      "达": 3611,
      "迁": 3612,
      "迎": 3613,
      "运": 3614,
      "远": 3615,
      "连": 3616,
      "迴": 3617,
      "迷": 3618,
      "追": 3619,
      "通": 3620,
      "造": 3621,
      "連": 3622,
      "遇": 3623,
      "遊": 3624,
      "道": 3625,
      "達": 3626,
      "遠": 3627,
      "遯": 3628,
      "選": 3629,
      "遺": 3630,
      "邑": 3631,
      "邕": 3632,
      "那": 3633,
      "邦": 3634,
      "邻": 3635,
      "郅": 3636,
      "郎": 3637,
      "郝": 3638,
      "郡": 3639,
      "部": 3640,
      "郭": 3641,
      "郵": 3642,
      "都": 3643,
      "鄒": 3644,
      "鄧": 3645,
      "鄭": 3646,
      "鄴": 3647,
      "酒": 3648,
      "醉": 3649,
      "醍": 3650,
      "醐": 3651,
      "醒": 3652,
      "醫": 3653,
      "里": 3654,
      "重": 3655,
      "野": 3656,
      "量": 3657,
      "金": 3658,
      "釘": 3659,
      "鈴": 3660,
      "鉄": 3661,
      "鉱": 3662,
      "銀": 3663,
      "銅": 3664,
      "銷": 3665,
      "鋒": 3666,
      "鋪": 3667,
      "鋼": 3668,
      "錄": 3669,
      "錢": 3670,
      "錬": 3671,
      "錯": 3672,
      "録": 3673,
      "鍾": 3674,
      "鎌": 3675,
      "鎬": 3676,
      "鎮": 3677,
      "鐵": 3678,
      "鑫": 3679,
      "钉": 3680,
      "钟": 3681,
      "钦": 3682,
      "钰": 3683,
      "钱": 3684,
      "铁": 3685,
      "铭": 3686,
      "银": 3687,
      "锅": 3688,
      "镇": 3689,
      "镜": 3690,
      "長": 3691,
      "长": 3692,
      "門": 3693,
      "閃": 3694,
      "開": 3695,
      "閑": 3696,
      "間": 3697,
      "閔": 3698,
      "関": 3699,
      "閣": 3700,
      "閥": 3701,
      "閻": 3702,
      "闍": 3703,
      "闘": 3704,
      "關": 3705,
      "门": 3706,
      "间": 3707,
      "阎": 3708,
      "队": 3709,
      "阪": 3710,
      "防": 3711,
      "阳": 3712,
      "阿": 3713,
      "陀": 3714,
      "陆": 3715,
      "陈": 3716,
      "降": 3717,
      "限": 3718,
      "陕": 3719,
      "陝": 3720,
      "陞": 3721,
      "院": 3722,
      "陪": 3723,
      "陰": 3724,
      "陳": 3725,
      "陵": 3726,
      "陶": 3727,
      "陸": 3728,
      "陽": 3729,
      "隅": 3730,
      "隆": 3731,
      "隊": 3732,
      "隐": 3733,
      "際": 3734,
      "隠": 3735,
      "險": 3736,
      "隼": 3737,
      "雄": 3738,
      "雅": 3739,
      "集": 3740,
      "雍": 3741,
      "雙": 3742,
      "雜": 3743,
      "離": 3744,
      "難": 3745,
      "雨": 3746,
      "雪": 3747,
      "雲": 3748,
      "電": 3749,
      "震": 3750,
      "霊": 3751,
      "霍": 3752,
      "霖": 3753,
      "霧": 3754,
      "霸": 3755,
      "靈": 3756,
      "青": 3757,
      "静": 3758,
      "靜": 3759,
      "非": 3760,
      "韋": 3761,
      "韓": 3762,
      "音": 3763,
      "韶": 3764,
      "順": 3765,
      "須": 3766,
      "頒": 3767,
      "頗": 3768,
      "領": 3769,
      "頭": 3770,
      "頼": 3771,
      "顔": 3772,
      "願": 3773,
      "類": 3774,
      "顯": 3775,
      "顺": 3776,
      "领": 3777,
      "颇": 3778,
      "颖": 3779,
      "颜": 3780,
      "風": 3781,
      "飄": 3782,
      "飛": 3783,
      "飞": 3784,
      "食": 3785,
      "餐": 3786,
      "餘": 3787,
      "館": 3788,
      "香": 3789,
      "馨": 3790,
      "馬": 3791,
      "駅": 3792,
      "駕": 3793,
      "騎": 3794,
      "驛": 3795,
      "马": 3796,
      "驾": 3797,
      "骨": 3798,
      "體": 3799,
      "高": 3800,
      "鬱": 3801,
      "鬼": 3802,
      "魂": 3803,
      "魏": 3804,
      "魚": 3805,
      "魯": 3806,
      "鮮": 3807,
      "鯉": 3808,
      "鰻": 3809,
      "鲜": 3810,
      "鳥": 3811,
      "鳧": 3812,
      "鳳": 3813,
      "鴛": 3814,
      "鴦": 3815,
      "鴨": 3816,
      "鷖": 3817,
      "鸞": 3818,
      "鸿": 3819,
      "鹏": 3820,
      "鹤": 3821,
      "鹿": 3822,
      "麒": 3823,
      "麟": 3824,
      "麻": 3825,
      "黃": 3826,
      "黄": 3827,
      "黎": 3828,
      "黑": 3829,
      "黒": 3830,
      "點": 3831,
      "黨": 3832,
      "鼎": 3833,
      "鼓": 3834,
      "齊": 3835,
      "齐": 3836,
      "齣": 3837,
      "龍": 3838,
      "龔": 3839,
      "龙": 3840,
      "ꓘ": 3841,
      "Ꙗ": 3842,
      "Ꚉ": 3843,
      "ꚉ": 3844,
      "ꜣ": 3845,
      "ꜥ": 3846,
      "ꝛ": 3847,
      "ꞌ": 3848,
      "ꞑ": 3849,
      "Ꟈ": 3850,
      "ꟽ": 3851,
      "ꟿ": 3852,
      "ꦕ": 3853,
      "ꦥ": 3854,
      "ꦭ": 3855,
      "ꦼ": 3856,
      "꧀": 3857,
      "가": 3858,
      "간": 3859,
      "갈": 3860,
      "감": 3861,
      "강": 3862,
      "개": 3863,
      "갱": 3864,
      "거": 3865,
      "건": 3866,
      "검": 3867,
      "것": 3868,
      "겨": 3869,
      "격": 3870,
      "결": 3871,
      "겸": 3872,
      "경": 3873,
      "고": 3874,
      "곡": 3875,
      "공": 3876,
      "과": 3877,
      "관": 3878,
      "광": 3879,
      "교": 3880,
      "구": 3881,
      "국": 3882,
      "군": 3883,
      "굴": 3884,
      "권": 3885,
      "규": 3886,
      "그": 3887,
      "극": 3888,
      "근": 3889,
      "글": 3890,
      "금": 3891,
      "기": 3892,
      "김": 3893,
      "까": 3894,
      "꽃": 3895,
      "끼": 3896,
      "나": 3897,
      "난": 3898,
      "날": 3899,
      "남": 3900,
      "내": 3901,
      "너": 3902,
      "네": 3903,
      "녀": 3904,
      "년": 3905,
      "녕": 3906,
      "노": 3907,
      "놀": 3908,
      "뇌": 3909,
      "누": 3910,
      "는": 3911,
      "늘": 3912,
      "니": 3913,
      "다": 3914,
      "닥": 3915,
      "단": 3916,
      "담": 3917,
      "당": 3918,
      "대": 3919,
      "더": 3920,
      "덕": 3921,
      "덟": 3922,
      "덴": 3923,
      "뎐": 3924,
      "도": 3925,
      "독": 3926,
      "돈": 3927,
      "돌": 3928,
      "동": 3929,
      "된": 3930,
      "두": 3931,
      "둥": 3932,
      "뒷": 3933,
      "드": 3934,
      "들": 3935,
      "듯": 3936,
      "등": 3937,
      "디": 3938,
      "뚝": 3939,
      "뛰": 3940,
      "라": 3941,
      "란": 3942,
      "람": 3943,
      "랑": 3944,
      "래": 3945,
      "럼": 3946,
      "럽": 3947,
      "레": 3948,
      "려": 3949,
      "령": 3950,
      "례": 3951,
      "로": 3952,
      "록": 3953,
      "롱": 3954,
      "루": 3955,
      "류": 3956,
      "르": 3957,
      "를": 3958,
      "릉": 3959,
      "리": 3960,
      "린": 3961,
      "림": 3962,
      "마": 3963,
      "막": 3964,
      "말": 3965,
      "맞": 3966,
      "매": 3967,
      "머": 3968,
      "먼": 3969,
      "며": 3970,
      "면": 3971,
      "멸": 3972,
      "명": 3973,
      "모": 3974,
      "목": 3975,
      "몬": 3976,
      "몰": 3977,
      "몸": 3978,
      "못": 3979,
      "묘": 3980,
      "무": 3981,
      "문": 3982,
      "물": 3983,
      "미": 3984,
      "민": 3985,
      "바": 3986,
      "박": 3987,
      "반": 3988,
      "밥": 3989,
      "방": 3990,
      "배": 3991,
      "백": 3992,
      "버": 3993,
      "벅": 3994,
      "번": 3995,
      "벌": 3996,
      "범": 3997,
      "법": 3998,
      "벤": 3999,
      "병": 4000,
      "보": 4001,
      "볼": 4002,
      "봄": 4003,
      "봉": 4004,
      "부": 4005,
      "북": 4006,
      "분": 4007,
      "불": 4008,
      "브": 4009,
      "븐": 4010,
      "비": 4011,
      "빈": 4012,
      "빛": 4013,
      "빠": 4014,
      "사": 4015,
      "산": 4016,
      "살": 4017,
      "삼": 4018,
      "상": 4019,
      "새": 4020,
      "색": 4021,
      "생": 4022,
      "서": 4023,
      "석": 4024,
      "선": 4025,
      "설": 4026,
      "성": 4027,
      "세": 4028,
      "셀": 4029,
      "소": 4030,
      "속": 4031,
      "손": 4032,
      "송": 4033,
      "수": 4034,
      "숙": 4035,
      "순": 4036,
      "숭": 4037,
      "스": 4038,
      "슬": 4039,
      "슴": 4040,
      "습": 4041,
      "승": 4042,
      "시": 4043,
      "식": 4044,
      "신": 4045,
      "실": 4046,
      "쌍": 4047,
      "쓰": 4048,
      "씨": 4049,
      "아": 4050,
      "안": 4051,
      "알": 4052,
      "압": 4053,
      "앙": 4054,
      "앞": 4055,
      "앤": 4056,
      "앵": 4057,
      "야": 4058,
      "약": 4059,
      "양": 4060,
      "어": 4061,
      "억": 4062,
      "언": 4063,
      "얼": 4064,
      "업": 4065,
      "없": 4066,
      "에": 4067,
      "엑": 4068,
      "엔": 4069,
      "엘": 4070,
      "엠": 4071,
      "여": 4072,
      "연": 4073,
      "열": 4074,
      "였": 4075,
      "영": 4076,
      "예": 4077,
      "오": 4078,
      "온": 4079,
      "와": 4080,
      "왕": 4081,
      "요": 4082,
      "용": 4083,
      "우": 4084,
      "욱": 4085,
      "운": 4086,
      "울": 4087,
      "원": 4088,
      "월": 4089,
      "위": 4090,
      "유": 4091,
      "육": 4092,
      "윤": 4093,
      "으": 4094,
      "은": 4095,
      "을": 4096,
      "음": 4097,
      "의": 4098,
      "이": 4099,
      "익": 4100,
      "인": 4101,
      "일": 4102,
      "임": 4103,
      "있": 4104,
      "자": 4105,
      "작": 4106,
      "장": 4107,
      "재": 4108,
      "쟁": 4109,
      "전": 4110,
      "절": 4111,
      "점": 4112,
      "접": 4113,
      "젓": 4114,
      "정": 4115,
      "제": 4116,
      "조": 4117,
      "종": 4118,
      "죄": 4119,
      "주": 4120,
      "줬": 4121,
      "쥐": 4122,
      "쥬": 4123,
      "즘": 4124,
      "지": 4125,
      "직": 4126,
      "진": 4127,
      "짓": 4128,
      "쪽": 4129,
      "찌": 4130,
      "차": 4131,
      "찰": 4132,
      "참": 4133,
      "창": 4134,
      "처": 4135,
      "천": 4136,
      "철": 4137,
      "첩": 4138,
      "청": 4139,
      "체": 4140,
      "초": 4141,
      "총": 4142,
      "최": 4143,
      "추": 4144,
      "축": 4145,
      "춘": 4146,
      "춤": 4147,
      "충": 4148,
      "치": 4149,
      "친": 4150,
      "카": 4151,
      "칼": 4152,
      "캐": 4153,
      "코": 4154,
      "콩": 4155,
      "크": 4156,
      "클": 4157,
      "키": 4158,
      "타": 4159,
      "탈": 4160,
      "탑": 4161,
      "태": 4162,
      "탱": 4163,
      "터": 4164,
      "테": 4165,
      "토": 4166,
      "튜": 4167,
      "트": 4168,
      "특": 4169,
      "티": 4170,
      "팅": 4171,
      "파": 4172,
      "판": 4173,
      "팔": 4174,
      "팥": 4175,
      "펜": 4176,
      "평": 4177,
      "포": 4178,
      "프": 4179,
      "플": 4180,
      "피": 4181,
      "필": 4182,
      "하": 4183,
      "학": 4184,
      "한": 4185,
      "할": 4186,
      "함": 4187,
      "합": 4188,
      "해": 4189,
      "했": 4190,
      "행": 4191,
      "허": 4192,
      "헌": 4193,
      "혁": 4194,
      "현": 4195,
      "형": 4196,
      "혜": 4197,
      "호": 4198,
      "혹": 4199,
      "혼": 4200,
      "홉": 4201,
      "홍": 4202,
      "화": 4203,
      "환": 4204,
      "황": 4205,
      "회": 4206,
      "후": 4207,
      "훌": 4208,
      "휘": 4209,
      "흑": 4210,
      "희": 4211,
      "히": 4212,
      "ﬁ": 4213,
      "ﮑ": 4214,
      "ﮟ": 4215,
      "﴾": 4216,
      "﴿": 4217,
      "﷧": 4218,
      "﹥": 4219,
      "ﺎ": 4220,
      "ﺑ": 4221,
      "ﺖ": 4222,
      "ﺟ": 4223,
      "ﺠ": 4224,
      "ﺤ": 4225,
      "ﺨ": 4226,
      "ﺮ": 4227,
      "ﺰ": 4228,
      "ﺱ": 4229,
      "ﺸ": 4230,
      "ﺺ": 4231,
      "ﻋ": 4232,
      "ﻗ": 4233,
      "ﻟ": 4234,
      "ﻠ": 4235,
      "ﻡ": 4236,
      "ﻢ": 4237,
      "ﻧ": 4238,
      "ﻨ": 4239,
      "ﻪ": 4240,
      "ﻫ": 4241,
      "ﻮ": 4242,
      "ﻲ": 4243,
      "ﻳ": 4244,
      "（": 4245,
      "）": 4246,
      "，": 4247,
      "／": 4248,
      "０": 4249,
      "１": 4250,
      "６": 4251,
      "７": 4252,
      "：": 4253,
      "＞": 4254,
      "Ｌ": 4255,
      "Ｐ": 4256,
      "～": 4257,
      "￼": 4258,
      "�": 4259,
      "𐊀": 4260,
      "𐊏": 4261,
      "𐊑": 4262,
      "𐊕": 4263,
      "𐌑": 4264,
      "𐌾": 4265,
      "𐌿": 4266,
      "𐎕": 4267,
      "𐎠": 4268,
      "𐎡": 4269,
      "𐎢": 4270,
      "𐎧": 4271,
      "𐎨": 4272,
      "𐎫": 4273,
      "𐎭": 4274,
      "𐎰": 4275,
      "𐎱": 4276,
      "𐎲": 4277,
      "𐎳": 4278,
      "𐎴": 4279,
      "𐎷": 4280,
      "𐎹": 4281,
      "𐎻": 4282,
      "𐎼": 4283,
      "𐎿": 4284,
      "𐏁": 4285,
      "𐏂": 4286,
      "𐒁": 4287,
      "𐒂": 4288,
      "𐒃": 4289,
      "𐒆": 4290,
      "𐒇": 4291,
      "𐒈": 4292,
      "𐒌": 4293,
      "𐒎": 4294,
      "𐒐": 4295,
      "𐒑": 4296,
      "𐒕": 4297,
      "𐒖": 4298,
      "𐒘": 4299,
      "𐒚": 4300,
      "𐒛": 4301,
      "𐒜": 4302,
      "𐒝": 4303,
      "𐘁": 4304,
      "𐘂": 4305,
      "𐘃": 4306,
      "𐘄": 4307,
      "𐘅": 4308,
      "𐘈": 4309,
      "𐘊": 4310,
      "𐘌": 4311,
      "𐘍": 4312,
      "𐘎": 4313,
      "𐘏": 4314,
      "𐘐": 4315,
      "𐘑": 4316,
      "𐘒": 4317,
      "𐘓": 4318,
      "𐘔": 4319,
      "𐘕": 4320,
      "𐘖": 4321,
      "𐘗": 4322,
      "𐘘": 4323,
      "𐘙": 4324,
      "𐘝": 4325,
      "𐘞": 4326,
      "𐘠": 4327,
      "𐘢": 4328,
      "𐘣": 4329,
      "𐘤": 4330,
      "𐘫": 4331,
      "𐘭": 4332,
      "𐘮": 4333,
      "𐘯": 4334,
      "𐘲": 4335,
      "𐘳": 4336,
      "𐘴": 4337,
      "𐘹": 4338,
      "𐘼": 4339,
      "𐘿": 4340,
      "𐙀": 4341,
      "𐙄": 4342,
      "𐙉": 4343,
      "𐙊": 4344,
      "𐙋": 4345,
      "𐙍": 4346,
      "𐙎": 4347,
      "𐙏": 4348,
      "𐙖": 4349,
      "𐙗": 4350,
      "𐚠": 4351,
      "𐚡": 4352,
      "𐚢": 4353,
      "𐚣": 4354,
      "𐡀": 4355,
      "𐡁": 4356,
      "𐡃": 4357,
      "𐡆": 4358,
      "𐡉": 4359,
      "𐡌": 4360,
      "𐡍": 4361,
      "𐡑": 4362,
      "𐤀": 4363,
      "𐤁": 4364,
      "𐤂": 4365,
      "𐤃": 4366,
      "𐤆": 4367,
      "𐤇": 4368,
      "𐤉": 4369,
      "𐤊": 4370,
      "𐤋": 4371,
      "𐤌": 4372,
      "𐤍": 4373,
      "𐤏": 4374,
      "𐤐": 4375,
      "𐤑": 4376,
      "𐤒": 4377,
      "𐤓": 4378,
      "𐤔": 4379,
      "𐤕": 4380,
      "𐩩": 4381,
      "𐩫": 4382,
      "𐩬": 4383,
      "𐩵": 4384,
      "𐪈": 4385,
      "𐪎": 4386,
      "𐭠": 4387,
      "𐭩": 4388,
      "𐭪": 4389,
      "𐭫": 4390,
      "𐭮": 4391,
      "𐭯": 4392,
      "𐽴": 4393,
      "𒀀": 4394,
      "𒀉": 4395,
      "𒀏": 4396,
      "𒀭": 4397,
      "𒀸": 4398,
      "𒁁": 4399,
      "𒁹": 4400,
      "𒂍": 4401,
      "𒂗": 4402,
      "𒂵": 4403,
      "𒃲": 4404,
      "𒄑": 4405,
      "𒄞": 4406,
      "𒄢": 4407,
      "𒄥": 4408,
      "𒄩": 4409,
      "𒅀": 4410,
      "𒅆": 4411,
      "𒅍": 4412,
      "𒅎": 4413,
      "𒅗": 4414,
      "𒅘": 4415,
      "𒅻": 4416,
      "𒆠": 4417,
      "𒆤": 4418,
      "𒆳": 4419,
      "𒆷": 4420,
      "𒇉": 4421,
      "𒈗": 4422,
      "𒈚": 4423,
      "𒈠": 4424,
      "𒈨": 4425,
      "𒈪": 4426,
      "𒈾": 4427,
      "𒉋": 4428,
      "𒉌": 4429,
      "𒉣": 4430,
      "𒊨": 4431,
      "𒊩": 4432,
      "𒊭": 4433,
      "𒊮": 4434,
      "𒋗": 4435,
      "𒋫": 4436,
      "𒋼": 4437,
      "𒌆": 4438,
      "𒌋": 4439,
      "𒌍": 4440,
      "𒌑": 4441,
      "𒌝": 4442,
      "𒌨": 4443,
      "𒌷": 4444,
      "𓀐": 4445,
      "𓂝": 4446,
      "𓂧": 4447,
      "𓄂": 4448,
      "𓄈": 4449,
      "𓅃": 4450,
      "𓅓": 4451,
      "𓇌": 4452,
      "𓈖": 4453,
      "𓉔": 4454,
      "𓋴": 4455,
      "𓎢": 4456,
      "𓏏": 4457,
      "𓏥": 4458,
      "𛀁": 4459,
      "𛀆": 4460,
      "𛄟": 4461,
      "𝋀": 4462,
      "𝋃": 4463,
      "𝋄": 4464,
      "𝋒": 4465,
      "𝑆": 4466,
      "𝑛": 4467,
      "𝑝": 4468,
      "𝒻": 4469,
      "𝔓": 4470,
      "𝛾": 4471,
      "🇭": 4472,
      "🇮": 4473,
      "🇶": 4474,
      "🇹": 4475,
      "💫": 4476,
      "😂": 4477,
      "▁ا": 4478,
      "▁ال": 4479,
      "▁t": 4480,
      "he": 4481,
      "▁a": 4482,
      "in": 4483,
      "▁the": 4484,
      "er": 4485,
      "▁م": 4486,
      "▁و": 4487,
      "on": 4488,
      "re": 4489,
      "▁o": 4490,
      "ed": 4491,
      "nd": 4492,
      "▁ف": 4493,
      "▁w": 4494,
      "▁s": 4495,
      "at": 4496,
      "ال": 4497,
      "or": 4498,
      "▁ب": 4499,
      "is": 4500,
      "en": 4501,
      "an": 4502,
      "it": 4503,
      "ية": 4504,
      "ar": 4505,
      "▁of": 4506,
      "al": 4507,
      "▁in": 4508,
      "es": 4509,
      "▁c": 4510,
      "ان": 4511,
      "▁في": 4512,
      "▁f": 4513,
      "▁ع": 4514,
      "▁b": 4515,
      "▁ل": 4516,
      "as": 4517,
      "▁and": 4518,
      "▁الم": 4519,
      "▁p": 4520,
      "ing": 4521,
      "▁ت": 4522,
      "ات": 4523,
      "ic": 4524,
      "▁1": 4525,
      "▁من": 4526,
      "ين": 4527,
      "ro": 4528,
      "ion": 4529,
      "ام": 4530,
      "▁to": 4531,
      "ار": 4532,
      "▁m": 4533,
      "لي": 4534,
      "▁d": 4535,
      "le": 4536,
      "▁h": 4537,
      "▁T": 4538,
      "▁S": 4539,
      "ou": 4540,
      "▁A": 4541,
      "▁الا": 4542,
      "▁2": 4543,
      "▁ك": 4544,
      "▁ي": 4545,
      "ent": 4546,
      "il": 4547,
      "▁C": 4548,
      "ري": 4549,
      "ها": 4550,
      "▁re": 4551,
      "st": 4552,
      "را": 4553,
      "am": 4554,
      "el": 4555,
      "om": 4556,
      "▁(": 4557,
      "▁M": 4558,
      "ون": 4559,
      "▁وال": 4560,
      "دي": 4561,
      "ol": 4562,
      "▁س": 4563,
      "ول": 4564,
      "▁l": 4565,
      "▁ح": 4566,
      "ad": 4567,
      "▁19": 4568,
      "ct": 4569,
      "▁I": 4570,
      "▁was": 4571,
      "▁الت": 4572,
      "ير": 4573,
      "▁e": 4574,
      "▁th": 4575,
      "▁20": 4576,
      "▁B": 4577,
      "▁n": 4578,
      "▁الع": 4579,
      "ur": 4580,
      "▁ه": 4581,
      "▁ان": 4582,
      "▁ن": 4583,
      "▁The": 4584,
      "ما": 4585,
      "▁H": 4586,
      "iv": 4587,
      "et": 4588,
      "▁ق": 4589,
      "ch": 4590,
      "ست": 4591,
      "▁P": 4592,
      "▁علي": 4593,
      "▁on": 4594,
      "ation": 4595,
      "▁for": 4596,
      "id": 4597,
      "ly": 4598,
      "ir": 4599,
      "ce": 4600,
      "im": 4601,
      "لا": 4602,
      "ور": 4603,
      "ig": 4604,
      "يا": 4605,
      "us": 4606,
      "ter": 4607,
      "▁g": 4608,
      "▁as": 4609,
      "▁is": 4610,
      "ra": 4611,
      "ot": 4612,
      "ut": 4613,
      "دة": 4614,
      "▁الي": 4615,
      "▁ج": 4616,
      "وا": 4617,
      "ith": 4618,
      "▁be": 4619,
      "la": 4620,
      "▁R": 4621,
      "▁D": 4622,
      "ow": 4623,
      "اب": 4624,
      "ers": 4625,
      "▁he": 4626,
      "em": 4627,
      "▁F": 4628,
      "▁with": 4629,
      "▁لل": 4630,
      "▁st": 4631,
      "un": 4632,
      "▁L": 4633,
      "▁G": 4634,
      "▁الس": 4635,
      "▁N": 4636,
      "▁by": 4637,
      "دا": 4638,
      "▁الح": 4639,
      "▁الق": 4640,
      "نا": 4641,
      "ul": 4642,
      "▁W": 4643,
      "ist": 4644,
      "th": 4645,
      "▁الب": 4646,
      "▁al": 4647,
      "لك": 4648,
      "ver": 4649,
      "▁E": 4650,
      "▁wh": 4651,
      "'s": 4652,
      "▁J": 4653,
      "▁ش": 4654,
      "رة": 4655,
      "▁at": 4656,
      "os": 4657,
      "▁مع": 4658,
      "rom": 4659,
      "▁د": 4660,
      "▁con": 4661,
      "▁an": 4662,
      "يل": 4663,
      "عة": 4664,
      "سب": 4665,
      "s,": 4666,
      "▁that": 4667,
      "her": 4668,
      "ay": 4669,
      "وم": 4670,
      "ri": 4671,
      "um": 4672,
      "▁عام": 4673,
      "ائ": 4674,
      "est": 4675,
      "رب": 4676,
      "▁الج": 4677,
      "▁\"": 4678,
      "ge": 4679,
      "سي": 4680,
      "▁O": 4681,
      "s.": 4682,
      "▁de": 4683,
      "▁الف": 4684,
      "▁كان": 4685,
      "▁In": 4686,
      "▁بال": 4687,
      "▁خ": 4688,
      "▁from": 4689,
      "▁201": 4690,
      "▁وا": 4691,
      "00": 4692,
      "وي": 4693,
      "▁se": 4694,
      "هم": 4695,
      "▁v": 4696,
      "op": 4697,
      "▁it": 4698,
      "ain": 4699,
      "شر": 4700,
      "oc": 4701,
      "في": 4702,
      "▁pro": 4703,
      "▁الن": 4704,
      "عد": 4705,
      "سم": 4706,
      "▁com": 4707,
      "▁عن": 4708,
      "pe": 4709,
      "ity": 4710,
      "▁his": 4711,
      "▁ر": 4712,
      "od": 4713,
      "▁الك": 4714,
      "بر": 4715,
      "ac": 4716,
      "av": 4717,
      "and": 4718,
      "up": 4719,
      "ber": 4720,
      "ate": 4721,
      "اد": 4722,
      "▁K": 4723,
      "ies": 4724,
      "art": 4725,
      "ud": 4726,
      "if": 4727,
      "كان": 4728,
      "res": 4729,
      "ian": 4730,
      "ab": 4731,
      "▁U": 4732,
      "وس": 4733,
      "تي": 4734,
      "▁الد": 4735,
      "ort": 4736,
      "رك": 4737,
      "ew": 4738,
      "▁وت": 4739,
      "قة": 4740,
      "قد": 4741,
      "بل": 4742,
      "▁200": 4743,
      "▁او": 4744,
      "اء": 4745,
      "ore": 4746,
      "ich": 4747,
      "▁or": 4748,
      "ia": 4749,
      "اف": 4750,
      "ld": 4751,
      "ated": 4752,
      "all": 4753,
      "ub": 4754,
      "ard": 4755,
      "مل": 4756,
      "ak": 4757,
      "se": 4758,
      "qu": 4759,
      "ill": 4760,
      "igh": 4761,
      "مي": 4762,
      "بي": 4763,
      "مة": 4764,
      "▁الر": 4765,
      "▁الخ": 4766,
      "من": 4767,
      "▁r": 4768,
      "ود": 4769,
      "▁3": 4770,
      "ag": 4771,
      "▁الش": 4772,
      "ant": 4773,
      "ment": 4774,
      "▁هذ": 4775,
      "ip": 4776,
      "ere": 4777,
      "قي": 4778,
      "ive": 4779,
      "لة": 4780,
      "▁are": 4781,
      "▁لا": 4782,
      "▁ex": 4783,
      "كن": 4784,
      "حت": 4785,
      "▁ذ": 4786,
      "ary": 4787,
      "▁التي": 4788,
      "▁St": 4789,
      "ية،": 4790,
      "▁ch": 4791,
      "ap": 4792,
      "▁غ": 4793,
      "▁اي": 4794,
      "ug": 4795,
      "ov": 4796,
      "ial": 4797,
      "▁ما": 4798,
      "ess": 4799,
      "oun": 4800,
      "▁were": 4801,
      "▁الذ": 4802,
      "ية.": 4803,
      "und": 4804,
      "▁المت": 4805,
      "ني": 4806,
      "ong": 4807,
      "▁He": 4808,
      "▁ص": 4809,
      "our": 4810,
      "▁18": 4811,
      "▁ط": 4812,
      "ast": 4813,
      "ame": 4814,
      "ear": 4815,
      "وب": 4816,
      "▁le": 4817,
      "▁Ch": 4818,
      "▁which": 4819,
      "وج": 4820,
      "▁الص": 4821,
      "نة": 4822,
      "ure": 4823,
      "▁بين": 4824,
      "▁«": 4825,
      "▁الث": 4826,
      "e,": 4827,
      "عي": 4828,
      "ell": 4829,
      "الي": 4830,
      "مر": 4831,
      "سا": 4832,
      "▁الام": 4833,
      "عت": 4834,
      "ction": 4835,
      "فا": 4836,
      "اني": 4837,
      "وق": 4838,
      ").": 4839,
      "pt": 4840,
      "ish": 4841,
      "ost": 4842,
      "ust": 4843,
      "كل": 4844,
      "▁V": 4845,
      "ord": 4846,
      "سة": 4847,
      "در": 4848,
      "ire": 4849,
      "عل": 4850,
      "ical": 4851,
      "so": 4852,
      "▁k": 4853,
      "og": 4854,
      "سبة": 4855,
      "با": 4856,
      "جم": 4857,
      "سل": 4858,
      "ine": 4859,
      "كت": 4860,
      "يات": 4861,
      "▁هو": 4862,
      "دم": 4863,
      "▁y": 4864,
      "ther": 4865,
      "uc": 4866,
      "عب": 4867,
      "▁الان": 4868,
      "▁sh": 4869,
      "ran": 4870,
      "▁لم": 4871,
      "قا": 4872,
      "te": 4873,
      "▁است": 4874,
      "ته": 4875,
      "▁had": 4876,
      "▁بن": 4877,
      "حدة": 4878,
      "▁وه": 4879,
      "ight": 4880,
      "ork": 4881,
      "▁الط": 4882,
      "▁وي": 4883,
      "▁comp": 4884,
      "cl": 4885,
      "▁ث": 4886,
      "▁با": 4887,
      "mer": 4888,
      "▁pla": 4889,
      "irst": 4890,
      "تم": 4891,
      "▁4": 4892,
      "صل": 4893,
      "▁تم": 4894,
      "▁وم": 4895,
      "وف": 4896,
      "▁un": 4897,
      "▁مت": 4898,
      "▁199": 4899,
      "ue": 4900,
      "حد": 4901,
      "ition": 4902,
      "▁also": 4903,
      "ous": 4904,
      "y,": 4905,
      "ie": 4906,
      "▁not": 4907,
      "ئي": 4908,
      "▁It": 4909,
      "ign": 4910,
      "زي": 4911,
      "▁بعد": 4912,
      "ff": 4913,
      "لال": 4914,
      "fter": 4915,
      "كي": 4916,
      "▁كانت": 4917,
      "اري": 4918,
      "ولي": 4919,
      "جل": 4920,
      "iz": 4921,
      "▁اخ": 4922,
      "▁ar": 4923,
      "ok": 4924,
      "are": 4925,
      "port": 4926,
      "▁first": 4927,
      "صر": 4928,
      "▁whe": 4929,
      "▁has": 4930,
      "هر": 4931,
      "ave": 4932,
      "per": 4933,
      "rit": 4934,
      "وع": 4935,
      "▁مح": 4936,
      "▁ام": 4937,
      "▁Un": 4938,
      "erv": 4939,
      "ric": 4940,
      "ass": 4941,
      "▁الل": 4942,
      "كر": 4943,
      "قت": 4944,
      "▁5": 4945,
      "ارة": 4946,
      "▁cont": 4947,
      "),": 4948,
      "رن": 4949,
      "▁their": 4950,
      "الم": 4951,
      "hed": 4952,
      "ry": 4953,
      "▁its": 4954,
      "▁الو": 4955,
      "e.": 4956,
      "يث": 4957,
      "▁us": 4958,
      "own": 4959,
      "وت": 4960,
      "▁te": 4961,
      "▁Al": 4962,
      "▁اب": 4963,
      "ond": 4964,
      "ater": 4965,
      "دين": 4966,
      "ult": 4967,
      "▁ro": 4968,
      "▁ad": 4969,
      "▁who": 4970,
      "ثر": 4971,
      "▁part": 4972,
      "ة،": 4973,
      "man": 4974,
      "▁تع": 4975,
      "es,": 4976,
      "▁هي": 4977,
      "▁Th": 4978,
      "ib": 4979,
      "wo": 4980,
      "▁ap": 4981,
      "▁الذي": 4982,
      "ount": 4983,
      "عض": 4984,
      "▁اس": 4985,
      "اص": 4986,
      "▁res": 4987,
      "▁الاس": 4988,
      "19": 4989,
      "ome": 4990,
      "دد": 4991,
      "▁ذلك": 4992,
      "كون": 4993,
      "▁هذه": 4994,
      "▁but": 4995,
      "ence": 4996,
      "▁her": 4997,
      "to": 4998,
      "حي": 4999,
      "cc": 5000,
      "ide": 5001,
      "ect": 5002,
      "▁وب": 5003,
      "ack": 5004,
      "ree": 5005,
      "بة": 5006,
      "▁اك": 5007,
      "es.": 5008,
      "ولا": 5009,
      "ational": 5010,
      "over": 5011,
      "▁j": 5012,
      "▁cl": 5013,
      "مال": 5014,
      "a,": 5015,
      "عا": 5016,
      "ضا": 5017,
      "لم": 5018,
      "طة": 5019,
      "ould": 5020,
      "▁ag": 5021,
      "▁ab": 5022,
      "out": 5023,
      "يرة": 5024,
      "▁6": 5025,
      "age": 5026,
      "رف": 5027,
      "▁ض": 5028,
      "▁198": 5029,
      "ang": 5030,
      "ound": 5031,
      "ثل": 5032,
      "sh": 5033,
      "قل": 5034,
      "▁هذا": 5035,
      "رت": 5036,
      "clud": 5037,
      "▁Y": 5038,
      "ugh": 5039,
      "▁Re": 5040,
      "▁وكان": 5041,
      "0.": 5042,
      "uring": 5043,
      "▁حيث": 5044,
      "ach": 5045,
      "▁one": 5046,
      "ally": 5047,
      "حة": 5048,
      "▁المن": 5049,
      "amp": 5050,
      "ru": 5051,
      "▁have": 5052,
      "y.": 5053,
      "ديد": 5054,
      "tern": 5055,
      "low": 5056,
      "▁بل": 5057,
      "يو": 5058,
      "▁year": 5059,
      "▁اله": 5060,
      "خل": 5061,
      "land": 5062,
      "▁-": 5063,
      "وري": 5064,
      "▁bec": 5065,
      "رض": 5066,
      "ember": 5067,
      "ren": 5068,
      "▁play": 5069,
      "▁per": 5070,
      "▁rec": 5071,
      "ile": 5072,
      "▁this": 5073,
      "ik": 5074,
      "▁two": 5075,
      "▁man": 5076,
      "انية": 5077,
      "▁en": 5078,
      "ice": 5079,
      "orn": 5080,
      "▁المتحدة": 5081,
      "▁includ": 5082,
      "▁وج": 5083,
      "لف": 5084,
      "رج": 5085,
      "▁Se": 5086,
      "▁been": 5087,
      "▁خلال": 5088,
      "ubl": 5089,
      "▁De": 5090,
      "تا": 5091,
      "wn": 5092,
      "▁ون": 5093,
      "fer": 5094,
      "بلغ": 5095,
      "oin": 5096,
      "▁after": 5097,
      "▁197": 5098,
      "▁والم": 5099,
      "▁Mar": 5100,
      "خت": 5101,
      "▁other": 5102,
      "اض": 5103,
      "▁ز": 5104,
      "يم": 5105,
      "وات": 5106,
      "▁قبل": 5107,
      "▁On": 5108,
      "ند": 5109,
      "▁الغ": 5110,
      "▁dis": 5111,
      "▁work": 5112,
      "ولة": 5113,
      "▁sc": 5114,
      "▁عدد": 5115,
      "خص": 5116,
      "ph": 5117,
      "20": 5118,
      "▁Ar": 5119,
      "ild": 5120,
      "▁تق": 5121,
      "ied": 5122,
      "▁tim": 5123,
      "ens": 5124,
      "فس": 5125,
      "صب": 5126,
      "▁بم": 5127,
      "aw": 5128,
      "▁comm": 5129,
      "ck": 5130,
      "gh": 5131,
      "uch": 5132,
      "for": 5133,
      "▁كل": 5134,
      "▁7": 5135,
      "▁im": 5136,
      "▁ول": 5137,
      "we": 5138,
      "ited": 5139,
      "ased": 5140,
      "وية": 5141,
      "ade": 5142,
      "جا": 5143,
      "\n\n": 5144,
      "old": 5145,
      "ted": 5146,
      "▁des": 5147,
      "مد": 5148,
      "vel": 5149,
      "رية": 5150,
      "ذا": 5151,
      "act": 5152,
      "▁8": 5153,
      "افة": 5154,
      "وسط": 5155,
      "وك": 5156,
      "▁بي": 5157,
      "دينة": 5158,
      "شا": 5159,
      "▁pre": 5160,
      "▁sp": 5161,
      "ool": 5162,
      "▁لت": 5163,
      "ark": 5164,
      "▁over": 5165,
      "▁196": 5166,
      "هد": 5167,
      "▁An": 5168,
      "سية": 5169,
      "ced": 5170,
      "▁Le": 5171,
      "ivers": 5172,
      "ations": 5173,
      "▁يت": 5174,
      "urn": 5175,
      "ريق": 5176,
      "طل": 5177,
      "▁up": 5178,
      "ory": 5179,
      "راء": 5180,
      "▁they": 5181,
      "▁الار": 5182,
      "▁ne": 5183,
      "▁out": 5184,
      "ely": 5185,
      "▁9": 5186,
      "▁off": 5187,
      "رق": 5188,
      "بار": 5189,
      "▁يم": 5190,
      "وز": 5191,
      "اس": 5192,
      "ey": 5193,
      "iss": 5194,
      "▁وقد": 5195,
      "▁اح": 5196,
      "▁سي": 5197,
      "▁into": 5198,
      "gan": 5199,
      "ail": 5200,
      "ces": 5201,
      "▁اف": 5202,
      "▁und": 5203,
      "▁she": 5204,
      "▁spe": 5205,
      "▁تحت": 5206,
      "▁As": 5207,
      "▁تح": 5208,
      "ath": 5209,
      "able": 5210,
      "ance": 5211,
      "pl": 5212,
      "▁new": 5213,
      "▁fin": 5214,
      "oy": 5215,
      "ite": 5216,
      "▁الاخ": 5217,
      "▁ev": 5218,
      "▁نسبة": 5219,
      "a.": 5220,
      "ason": 5221,
      "▁كما": 5222,
      "▁ين": 5223,
      "ah": 5224,
      "▁serv": 5225,
      "▁وفي": 5226,
      "صف": 5227,
      "▁17": 5228,
      "ough": 5229,
      ")،": 5230,
      "ة.": 5231,
      "شي": 5232,
      "▁غير": 5233,
      "تها": 5234,
      "▁لي": 5235,
      "▁all": 5236,
      "4.": 5237,
      "ose": 5238,
      "▁عشر": 5239,
      "▁194": 5240,
      "عية": 5241,
      "er,": 5242,
      "ريك": 5243,
      "▁الولا": 5244,
      "red": 5245,
      "ood": 5246,
      "▁تت": 5247,
      "ts": 5248,
      "1.": 5249,
      "▁Com": 5250,
      "ward": 5251,
      "ress": 5252,
      "ob": 5253,
      "شكل": 5254,
      "▁New": 5255,
      "داد": 5256,
      "ates": 5257,
      "ident": 5258,
      "كم": 5259,
      "▁gro": 5260,
      "rough": 5261,
      "بد": 5262,
      "▁عند": 5263,
      "▁loc": 5264,
      "rib": 5265,
      "▁sec": 5266,
      "▁وع": 5267,
      "شار": 5268,
      "▁المح": 5269,
      "▁دي": 5270,
      "▁ra": 5271,
      "▁him": 5272,
      "ين،": 5273,
      "cted": 5274,
      "▁under": 5275,
      "طن": 5276,
      "ron": 5277,
      "▁bet": 5278,
      "chool": 5279,
      "▁المع": 5280,
      "▁15": 5281,
      "▁col": 5282,
      "▁reg": 5283,
      "▁للم": 5284,
      "▁kn": 5285,
      "▁حتي": 5286,
      "▁ايضا": 5287,
      "▁195": 5288,
      "بع": 5289,
      "طا": 5290,
      "طقة": 5291,
      "ناء": 5292,
      "ious": 5293,
      "2.": 5294,
      "ft": 5295,
      "outh": 5296,
      "ished": 5297,
      "▁اع": 5298,
      "▁would": 5299,
      "▁tra": 5300,
      "▁انه": 5301,
      "▁again": 5302,
      "▁ele": 5303,
      "▁بعض": 5304,
      "ican": 5305,
      "▁–": 5306,
      "▁بح": 5307,
      "ستخ": 5308,
      "les": 5309,
      "io": 5310,
      "▁الولايات": 5311,
      "▁can": 5312,
      "▁قد": 5313,
      "▁ثم": 5314,
      "▁pl": 5315,
      "ائل": 5316,
      "▁وهو": 5317,
      "3.": 5318,
      "ذلك": 5319,
      "وار": 5320,
      "000": 5321,
      "ركة": 5322,
      "الة": 5323,
      "▁مثل": 5324,
      "يد": 5325,
      "▁cent": 5326,
      "ween": 5327,
      "orld": 5328,
      "▁له": 5329,
      "▁during": 5330,
      "▁10": 5331,
      "▁Sh": 5332,
      "▁when": 5333,
      "▁202": 5334,
      "du": 5335,
      "\".": 5336,
      "تخ": 5337,
      "▁cons": 5338,
      "oth": 5339,
      "▁att": 5340,
      "▁وح": 5341,
      "▁سنة": 5342,
      "ilm": 5343,
      "overn": 5344,
      "rad": 5345,
      "فة": 5346,
      "▁سن": 5347,
      "▁bu": 5348,
      "ئة": 5349,
      "▁more": 5350,
      "طي": 5351,
      "ook": 5352,
      "ليم": 5353,
      "ision": 5354,
      "فر": 5355,
      "▁16": 5356,
      "بات": 5357,
      "ه،": 5358,
      "ركز": 5359,
      "▁sup": 5360,
      "ual": 5361,
      "oh": 5362,
      "olog": 5363,
      "ram": 5364,
      "اث": 5365,
      "▁اكثر": 5366,
      "ince": 5367,
      "ورة": 5368,
      "▁للا": 5369,
      "ادي": 5370,
      "▁مس": 5371,
      "ors": 5372,
      "▁where": 5373,
      "▁publ": 5374,
      "▁rep": 5375,
      "ind": 5376,
      "▁Amer": 5377,
      "ral": 5378,
      "▁En": 5379,
      "ating": 5380,
      "▁between": 5381,
      "فت": 5382,
      "way": 5383,
      "▁يع": 5384,
      "ase": 5385,
      "▁والت": 5386,
      "▁ret": 5387,
      "▁ear": 5388,
      "▁اد": 5389,
      "▁الز": 5390,
      "▁pol": 5391,
      "ه.": 5392,
      "ick": 5393,
      "▁الشر": 5394,
      "▁op": 5395,
      "▁مو": 5396,
      "ener": 5397,
      "ton": 5398,
      "▁وان": 5399,
      "orth": 5400,
      "▁ind": 5401,
      "med": 5402,
      "▁ass": 5403,
      "▁وق": 5404,
      "▁pr": 5405,
      "iversity": 5406,
      "▁only": 5407,
      "▁العام": 5408,
      "▁inter": 5409,
      "▁بت": 5410,
      "rans": 5411,
      "ons": 5412,
      "▁we": 5413,
      "▁most": 5414,
      "▁Is": 5415,
      "ا،": 5416,
      "▁found": 5417,
      "وان": 5418,
      "ered": 5419,
      "▁acc": 5420,
      "ollow": 5421,
      "▁وس": 5422,
      "ict": 5423,
      "▁pe": 5424,
      "che": 5425,
      "▁تن": 5426,
      "ative": 5427,
      "▁يمكن": 5428,
      "جة": 5429,
      "وفي": 5430,
      "▁This": 5431,
      "▁She": 5432,
      "ents": 5433,
      "▁me": 5434,
      "ular": 5435,
      "▁rel": 5436,
      "▁والا": 5437,
      "▁stud": 5438,
      "دام": 5439,
      "يني": 5440,
      "▁sub": 5441,
      "1,": 5442,
      "end": 5443,
      "ريكي": 5444,
      "اريخ": 5445,
      "▁qu": 5446,
      "▁act": 5447,
      "▁193": 5448,
      "ix": 5449,
      "▁يق": 5450,
      "cess": 5451,
      "▁ومن": 5452,
      "▁Z": 5453,
      "▁العالم": 5454,
      "▁season": 5455,
      "ake": 5456,
      "▁بان": 5457,
      "▁مست": 5458,
      "amil": 5459,
      "ities": 5460,
      "سبب": 5461,
      "az": 5462,
      "ock": 5463,
      "fore": 5464,
      "ions": 5465,
      "▁12": 5466,
      "كوم": 5467,
      "▁team": 5468,
      "use": 5469,
      "▁through": 5470,
      "one": 5471,
      "▁later": 5472,
      "▁بد": 5473,
      "ans": 5474,
      "▁pres": 5475,
      "ship": 5476,
      "ين.": 5477,
      "aj": 5478,
      "رح": 5479,
      "▁كت": 5480,
      "pr": 5481,
      "▁rem": 5482,
      "▁app": 5483,
      "▁بلغ": 5484,
      "عات": 5485,
      "5.": 5486,
      "وعة": 5487,
      "▁them": 5488,
      "الية": 5489,
      "▁co": 5490,
      "▁تش": 5491,
      "دار": 5492,
      "ann": 5493,
      "ing,": 5494,
      "ank": 5495,
      "جي": 5496,
      "▁three": 5497,
      "عم": 5498,
      "▁بر": 5499,
      "لب": 5500,
      "reat": 5501,
      "كة": 5502,
      "جر": 5503,
      "er.": 5504,
      "▁film": 5505,
      "▁الاست": 5506,
      "cial": 5507,
      "نية": 5508,
      "ings": 5509,
      "ace": 5510,
      "▁لدي": 5511,
      "▁such": 5512,
      "duc": 5513,
      "▁rele": 5514,
      "▁(1": 5515,
      "▁about": 5516,
      "▁مق": 5517,
      "▁وف": 5518,
      "▁سب": 5519,
      "▁sy": 5520,
      "▁الجن": 5521,
      "ميع": 5522,
      "▁fe": 5523,
      "▁used": 5524,
      "▁دا": 5525,
      "▁ونسبة": 5526,
      "▁then": 5527,
      "ضي": 5528,
      "8.": 5529,
      "▁made": 5530,
      "▁end": 5531,
      "▁اج": 5532,
      "▁there": 5533,
      "▁اول": 5534,
      "▁inv": 5535,
      "▁(19": 5536,
      "att": 5537,
      "ific": 5538,
      "زة": 5539,
      "arg": 5540,
      "▁المم": 5541,
      "▁وهي": 5542,
      "eld": 5543,
      "▁اش": 5544,
      "▁الاول": 5545,
      "▁را": 5546,
      "ived": 5547,
      "▁العرب": 5548,
      "oci": 5549,
      "لس": 5550,
      "6.": 5551,
      "▁Col": 5552,
      "▁second": 5553,
      "▁prov": 5554,
      "▁mov": 5555,
      "▁بشكل": 5556,
      "▁known": 5557,
      "▁University": 5558,
      "▁time": 5559,
      "».": 5560,
      "▁وكانت": 5561,
      "led": 5562,
      "▁ولك": 5563,
      "رات": 5564,
      "ten": 5565,
      "▁so": 5566,
      "..": 5567,
      "pos": 5568,
      "3,": 5569,
      "7.": 5570,
      "▁became": 5571,
      "▁against": 5572,
      "▁عمل": 5573,
      "2,": 5574,
      "emb": 5575,
      "ever": 5576,
      "ئيس": 5577,
      "▁Con": 5578,
      "▁am": 5579,
      "ورية": 5580,
      "round": 5581,
      "▁num": 5582,
      "يت": 5583,
      "air": 5584,
      "ve": 5585,
      "ement": 5586,
      "▁سكان": 5587,
      "▁14": 5588,
      "برا": 5589,
      "▁Ind": 5590,
      "كا": 5591,
      "▁البح": 5592,
      "▁def": 5593,
      "▁ولكن": 5594,
      "▁ac": 5595,
      "▁than": 5596,
      "ثة": 5597,
      "▁follow": 5598,
      "ober": 5599,
      "ظام": 5600,
      "▁some": 5601,
      "▁United": 5602,
      "▁اص": 5603,
      "▁being": 5604,
      "▁Pro": 5605,
      "كس": 5606,
      "son": 5607,
      "▁ent": 5608,
      "▁dec": 5609,
      "hen": 5610,
      "ظم": 5611,
      "▁ولا": 5612,
      "▁call": 5613,
      "وض": 5614,
      "▁trans": 5615,
      "9.": 5616,
      "▁النا": 5617,
      "غير": 5618,
      "▁دول": 5619,
      "5,": 5620,
      "▁اغ": 5621,
      "▁المص": 5622,
      "▁well": 5623,
      "▁dist": 5624,
      "▁At": 5625,
      "▁pop": 5626,
      "▁انت": 5627,
      "قط": 5628,
      "▁نفس": 5629,
      "▁American": 5630,
      "ash": 5631,
      "ople": 5632,
      "▁المست": 5633,
      "فع": 5634,
      "▁كب": 5635,
      "inal": 5636,
      "ject": 5637,
      "velop": 5638,
      "▁اث": 5639,
      "ouse": 5640,
      "ather": 5641,
      "وة": 5642,
      "▁pos": 5643,
      "ed.": 5644,
      "inn": 5645,
      "راب": 5646,
      "▁mon": 5647,
      "▁ولد": 5648,
      "▁inc": 5649,
      "▁govern": 5650,
      "لكة": 5651,
      "▁lead": 5652,
      "▁Q": 5653,
      "ها.": 5654,
      "▁عبد": 5655,
      "▁مص": 5656,
      "اح": 5657,
      "انيا": 5658,
      "ern": 5659,
      "▁يتم": 5660,
      "\",": 5661,
      "0,": 5662,
      "ution": 5663,
      "eb": 5664,
      "▁مج": 5665,
      "▁including": 5666,
      "ارات": 5667,
      "▁form": 5668,
      "til": 5669,
      "▁مار": 5670,
      "▁while": 5671,
      "▁البي": 5672,
      "▁13": 5673,
      "▁والع": 5674,
      "▁وك": 5675,
      "راق": 5676,
      "وني": 5677,
      "امعة": 5678,
      "▁four": 5679,
      "▁الاج": 5680,
      "▁الاص": 5681,
      "▁appe": 5682,
      "▁set": 5683,
      "▁الال": 5684,
      "▁count": 5685,
      "erm": 5686,
      "▁اما": 5687,
      "▁ed": 5688,
      "يب": 5689,
      "ا.": 5690,
      "oot": 5691,
      "ier": 5692,
      "ism": 5693,
      "▁do": 5694,
      "form": 5695,
      "▁famil": 5696,
      "▁اكت": 5697,
      "▁record": 5698,
      "اه": 5699,
      "any": 5700,
      "8,": 5701,
      "▁before": 5702,
      "كرة": 5703,
      "قات": 5704,
      "other": 5705,
      "ctor": 5706,
      "جلس": 5707,
      "▁11": 5708,
      "owever": 5709,
      "ek": 5710,
      "▁art": 5711,
      "▁جن": 5712,
      "ep": 5713,
      "▁est": 5714,
      "امل": 5715,
      "4,": 5716,
      "eries": 5717,
      "▁الاسر": 5718,
      "▁الخام": 5719,
      "ها،": 5720,
      "7,": 5721,
      "واج": 5722,
      "aid": 5723,
      "▁ات": 5724,
      "iew": 5725,
      "مو": 5726,
      "▁اق": 5727,
      "ed,": 5728,
      "از": 5729,
      "بية": 5730,
      "The": 5731,
      "▁After": 5732,
      "tain": 5733,
      "ister": 5734,
      "شت": 5735,
      "ضم": 5736,
      "▁الثام": 5737,
      "ظهر": 5738,
      "6,": 5739,
      "ترة": 5740,
      "▁فان": 5741,
      "▁Sc": 5742,
      "لام": 5743,
      "iam": 5744,
      "▁bro": 5745,
      "▁الاح": 5746,
      "▁الات": 5747,
      "عيش": 5748,
      "▁cap": 5749,
      "ناك": 5750,
      "gy": 5751,
      "ball": 5752,
      "i,": 5753,
      "▁school": 5754,
      "▁many": 5755,
      "ros": 5756,
      "ature": 5757,
      "▁sur": 5758,
      "▁cre": 5759,
      "▁dire": 5760,
      "ural": 5761,
      "▁inst": 5762,
      "ield": 5763,
      "هة": 5764,
      "▁group": 5765,
      "▁ph": 5766,
      "▁em": 5767,
      "arri": 5768,
      "زب": 5769,
      "▁192": 5770,
      "▁وز": 5771,
      "▁جميع": 5772,
      "o,": 5773,
      "als": 5774,
      "▁القرن": 5775,
      "▁For": 5776,
      "▁Joh": 5777,
      "▁Eng": 5778,
      "سمي": 5779,
      "طر": 5780,
      "▁العديد": 5781,
      "▁191": 5782,
      "▁فر": 5783,
      "▁sign": 5784,
      "▁add": 5785,
      "▁مخت": 5786,
      "يف": 5787,
      "▁لان": 5788,
      "ia,": 5789,
      "▁مدينة": 5790,
      "very": 5791,
      "غم": 5792,
      "▁Jan": 5793,
      "▁والتي": 5794,
      "جموعة": 5795,
      "▁مما": 5796,
      "9,": 5797,
      "لاح": 5798,
      "▁اخري": 5799,
      "▁offic": 5800,
      "راف": 5801,
      "لاد": 5802,
      "▁both": 5803,
      "ation,": 5804,
      "ing.": 5805,
      "▁main": 5806,
      "▁الاولي": 5807,
      "▁المس": 5808,
      "طف": 5809,
      "ale": 5810,
      "▁مؤ": 5811,
      "راد": 5812,
      "ins": 5813,
      "زل": 5814,
      "usic": 5815,
      "▁writ": 5816,
      "▁until": 5817,
      "▁May": 5818,
      "ne": 5819,
      "enc": 5820,
      "ريط": 5821,
      "سات": 5822,
      "▁min": 5823,
      "stem": 5824,
      "▁للت": 5825,
      "▁استخ": 5826,
      "ike": 5827,
      "▁own": 5828,
      "▁Jun": 5829,
      "ation.": 5830,
      "elf": 5831,
      "الات": 5832,
      "ven": 5833,
      "▁نسم": 5834,
      "▁War": 5835,
      "ired": 5836,
      "مه": 5837,
      "رائ": 5838,
      "rict": 5839,
      "▁المج": 5840,
      "انون": 5841,
      "▁Comm": 5842,
      "▁Be": 5843,
      "▁rece": 5844,
      "▁years": 5845,
      "▁بسبب": 5846,
      "قية": 5847,
      "▁لكن": 5848,
      "▁develop": 5849,
      "▁day": 5850,
      "ized": 5851,
      "ثي": 5852,
      "▁orig": 5853,
      "▁people": 5854,
      "▁السكان": 5855,
      "▁go": 5856,
      "bum": 5857,
      "ابة": 5858,
      "ames": 5859,
      "erman": 5860,
      "▁hist": 5861,
      "▁الض": 5862,
      "▁sever": 5863,
      "دية": 5864,
      "وير": 5865,
      "▁الاف": 5866,
      "▁Ph": 5867,
      "ر،": 5868,
      "▁oper": 5869,
      "عتبر": 5870,
      "▁high": 5871,
      "▁mod": 5872,
      "▁(ال": 5873,
      ".\n\n": 5874,
      "▁no": 5875,
      "صبح": 5876,
      "سلام": 5877,
      "▁John": 5878,
      "ics": 5879,
      "غة": 5880,
      "▁Fran": 5881,
      "▁exp": 5882,
      "▁احد": 5883,
      "urch": 5884,
      "ان،": 5885,
      "▁sing": 5886,
      "amed": 5887,
      "▁جز": 5888,
      "▁|": 5889,
      "وح": 5890,
      "ower": 5891,
      "▁الذين": 5892,
      "▁World": 5893,
      "ional": 5894,
      "uss": 5895,
      "▁المنا": 5896,
      "▁Brit": 5897,
      "ذي": 5898,
      "▁بدا": 5899,
      "▁ار": 5900,
      "▁Te": 5901,
      "owever,": 5902,
      "▁Ad": 5903,
      "ll": 5904,
      "ines": 5905,
      "▁التح": 5906,
      "▁لع": 5907,
      "ved": 5908,
      "▁شخص": 5909,
      "▁spec": 5910,
      "كو": 5911,
      "▁دون": 5912,
      "enn": 5913,
      "uro": 5914,
      "▁Ju": 5915,
      "illa": 5916,
      "uary": 5917,
      "ضع": 5918,
      "▁المؤ": 5919,
      "▁العمر": 5920,
      "▁عندما": 5921,
      "▁تص": 5922,
      "▁محمد": 5923,
      "انات": 5924,
      "بت": 5925,
      "▁ست": 5926,
      "con": 5927,
      "▁الثامنة": 5928,
      "ديدة": 5929,
      "ديم": 5930,
      "▁الاع": 5931,
      "تما": 5932,
      "▁show": 5933,
      "ird": 5934,
      "يادة": 5935,
      "▁قدم": 5936,
      "▁med": 5937,
      "ys": 5938,
      "▁dif": 5939,
      "▁fl": 5940,
      "tend": 5941,
      "ime": 5942,
      "ternational": 5943,
      "▁«ال": 5944,
      "▁وبلغ": 5945,
      "▁name": 5946,
      "ke": 5947,
      "وائ": 5948,
      "ستخدم": 5949,
      "ting": 5950,
      "فض": 5951,
      "▁number": 5952,
      "▁government": 5953,
      "ague": 5954,
      "▁met": 5955,
      "وجد": 5956,
      "▁album": 5957,
      "▁تا": 5958,
      "▁حسب": 5959,
      "ple": 5960,
      "حو": 5961,
      "▁العمل": 5962,
      "قاط": 5963,
      "ually": 5964,
      "▁نسمة": 5965,
      "به": 5966,
      "ظر": 5967,
      "uth": 5968,
      "▁National": 5969,
      "ient": 5970,
      "▁دولار": 5971,
      "abl": 5972,
      "▁مصر": 5973,
      "ugust": 5974,
      "▁وجود": 5975,
      "▁الملك": 5976,
      "the": 5977,
      "▁الاد": 5978,
      "افظ": 5979,
      "ful": 5980,
      "يز": 5981,
      "يا،": 5982,
      "اصة": 5983,
      "on,": 5984,
      "ai": 5985,
      "▁gener": 5986,
      "ptember": 5987,
      "ise": 5988,
      "▁back": 5989,
      "حاد": 5990,
      "واق": 5991,
      "يش": 5992,
      "▁Sp": 5993,
      "▁ann": 5994,
      "وبر": 5995,
      "▁called": 5996,
      "ماء": 5997,
      "▁Cl": 5998,
      "xt": 5999,
      "▁Nov": 6000,
      "ars": 6001,
      "▁الامريكي": 6002,
      "▁played": 6003,
      "▁Ab": 6004,
      ".\"": 6005,
      "▁يكون": 6006,
      "▁هناك": 6007,
      "▁Oct": 6008,
      "صة": 6009,
      "▁البر": 6010,
      "ات.": 6011,
      "▁(2": 6012,
      "arl": 6013,
      "▁ري": 6014,
      "ife": 6015,
      "ract": 6016,
      "▁متوسط": 6017,
      "مان": 6018,
      "▁الخامسة": 6019,
      "▁منذ": 6020,
      "▁start": 6021,
      "▁var": 6022,
      "▁char": 6023,
      "▁build": 6024,
      "ty": 6025,
      "▁1,": 6026,
      "ute": 6027,
      "يلة": 6028,
      "▁comple": 6029,
      "ليل": 6030,
      "▁August": 6031,
      "▁تعداد": 6032,
      "▁several": 6033,
      "oman": 6034,
      "o.": 6035,
      "ax": 6036,
      "سين": 6037,
      "▁sm": 6038,
      "▁city": 6039,
      "▁September": 6040,
      "كومة": 6041,
      "▁long": 6042,
      "▁السيا": 6043,
      "rist": 6044,
      "▁released": 6045,
      "▁same": 6046,
      "▁early": 6047,
      "▁series": 6048,
      "le,": 6049,
      "نت": 6050,
      "ission": 6051,
      "▁منها": 6052,
      "▁design": 6053,
      "▁contin": 6054,
      "▁به": 6055,
      "▁فيها": 6056,
      "▁int": 6057,
      "▁ob": 6058,
      "der": 6059,
      "▁return": 6060,
      "▁suc": 6061,
      "▁كرة": 6062,
      "▁منطقة": 6063,
      "▁كم": 6064,
      "▁الحرب": 6065,
      "▁قام": 6066,
      "▁January": 6067,
      "▁2000": 6068,
      "ital": 6069,
      "▁Wh": 6070,
      "▁const": 6071,
      "▁October": 6072,
      "ويك": 6073,
      "ers,": 6074,
      "صول": 6075,
      "▁الله": 6076,
      "ures": 6077,
      "vent": 6078,
      "قب": 6079,
      "▁will": 6080,
      "▁التع": 6081,
      "ists": 6082,
      "ia.": 6083,
      "▁حول": 6084,
      "وما": 6085,
      "▁ور": 6086,
      "▁فقد": 6087,
      "ajor": 6088,
      "▁system": 6089,
      "por": 6090,
      "rid": 6091,
      "mber": 6092,
      "ause": 6093,
      "▁مر": 6094,
      "▁mat": 6095,
      "▁للس": 6096,
      "▁لعب": 6097,
      "cept": 6098,
      "ده": 6099,
      "omen": 6100,
      "▁March": 6101,
      "▁may": 6102,
      "▁game": 6103,
      "عر": 6104,
      "تخب": 6105,
      "لط": 6106,
      "pril": 6107,
      "▁Aust": 6108,
      "ury": 6109,
      "وسي": 6110,
      "▁public": 6111,
      "▁تج": 6112,
      "▁الرئي": 6113,
      "حا": 6114,
      "▁these": 6115,
      "ior": 6116,
      "▁انها": 6117,
      "▁prog": 6118,
      "▁support": 6119,
      "ters": 6120,
      "▁began": 6121,
      "ley": 6122,
      "my": 6123,
      "erson": 6124,
      "ilit": 6125,
      "▁song": 6126,
      "▁won": 6127,
      "oint": 6128,
      "▁2.": 6129,
      "▁organ": 6130,
      "ret": 6131,
      "▁بط": 6132,
      "▁الاش": 6133,
      "iver": 6134,
      "rop": 6135,
      "▁العائل": 6136,
      "قدم": 6137,
      "▁July": 6138,
      "▁سا": 6139,
      "–1": 6140,
      "▁His": 6141,
      "cember": 6142,
      "ارك": 6143,
      "af": 6144,
      "زا": 6145,
      "▁open": 6146,
      "-1": 6147,
      "▁German": 6148,
      "▁South": 6149,
      "its": 6150,
      "rab": 6151,
      "سن": 6152,
      "▁25": 6153,
      "eng": 6154,
      "▁April": 6155,
      "ilt": 6156,
      "▁They": 6157,
      "▁'": 6158,
      "▁near": 6159,
      "والي": 6160,
      "▁bel": 6161,
      "▁بالم": 6162,
      "fl": 6163,
      "▁colle": 6164,
      "ris": 6165,
      "▁الترك": 6166,
      "▁Sy": 6167,
      "▁remain": 6168,
      "ull": 6169,
      "▁اعت": 6170,
      "iet": 6171,
      "»،": 6172,
      "ued": 6173,
      "ared": 6174,
      "▁Can": 6175,
      "▁Af": 6176,
      "ثير": 6177,
      "عدة": 6178,
      "▁since": 6179,
      "▁الوق": 6180,
      "▁الجز": 6181,
      "aking": 6182,
      "▁former": 6183,
      "شف": 6184,
      "▁تط": 6185,
      "▁state": 6186,
      "هي": 6187,
      "resent": 6188,
      "▁December": 6189,
      "▁run": 6190,
      "ium": 6191,
      "ادة": 6192,
      "▁المغ": 6193,
      "ange": 6194,
      "راج": 6195,
      "ات،": 6196,
      "▁باسم": 6197,
      "ility": 6198,
      "ارج": 6199,
      "▁head": 6200,
      "▁وحدة": 6201,
      "ided": 6202,
      "▁any": 6203,
      "▁November": 6204,
      "ec": 6205,
      "min": 6206,
      "ator": 6207,
      "▁Cent": 6208,
      "▁Euro": 6209,
      "ampion": 6210,
      "وط": 6211,
      "هما": 6212,
      "▁100": 6213,
      "fess": 6214,
      "طق": 6215,
      "▁الثاني": 6216,
      "▁along": 6217,
      "ross": 6218,
      "▁produ": 6219,
      "▁eff": 6220,
      "rand": 6221,
      "▁York": 6222,
      "دري": 6223,
      "ودة": 6224,
      "▁ضمن": 6225,
      "arch": 6226,
      "▁فوق": 6227,
      "س،": 6228,
      "▁prom": 6229,
      "arm": 6230,
      "ped": 6231,
      "سان": 6232,
      "▁Ge": 6233,
      "▁polit": 6234,
      "▁حد": 6235,
      "▁Or": 6236,
      "▁June": 6237,
      "▁حين": 6238,
      "▁air": 6239,
      "ظمة": 6240,
      "▁commun": 6241,
      "▁partic": 6242,
      "دن": 6243,
      "▁يج": 6244,
      "▁Me": 6245,
      "قر": 6246,
      "▁||": 6247,
      "▁مركز": 6248,
      "الت": 6249,
      "raph": 6250,
      "ers.": 6251,
      "ised": 6252,
      "▁child": 6253,
      "▁ثلا": 6254,
      "▁الاخري": 6255,
      "an,": 6256,
      "▁المملكة": 6257,
      "▁did": 6258,
      "▁اسم": 6259,
      "ible": 6260,
      "▁British": 6261,
      "▁disc": 6262,
      "▁bl": 6263,
      "▁occ": 6264,
      "ically": 6265,
      "▁قدر": 6266,
      "▁music": 6267,
      "ينية": 6268,
      "ئية": 6269,
      "حية": 6270,
      "وقع": 6271,
      "▁الفر": 6272,
      "بط": 6273,
      "▁المدينة": 6274,
      "ives": 6275,
      "rol": 6276,
      "▁Am": 6277,
      "ulation": 6278,
      "▁مي": 6279,
      "▁30": 6280,
      "▁ني": 6281,
      "تر": 6282,
      "▁pass": 6283,
      "▁desc": 6284,
      "▁book": 6285,
      "▁str": 6286,
      "▁190": 6287,
      "اي": 6288,
      "هل": 6289,
      "▁land": 6290,
      "▁care": 6291,
      "امج": 6292,
      "▁تلك": 6293,
      "pend": 6294,
      "▁الدول": 6295,
      "▁Ass": 6296,
      "▁tit": 6297,
      "▁2010": 6298,
      "-b": 6299,
      "اليا": 6300,
      "▁local": 6301,
      "ابات": 6302,
      "▁الري": 6303,
      "قتص": 6304,
      "▁result": 6305,
      "تاج": 6306,
      "▁ذات": 6307,
      "▁family": 6308,
      "▁يون": 6309,
      "▁مم": 6310,
      "▁لديها": 6311,
      "au": 6312,
      "▁ins": 6313,
      "سط": 6314,
      "▁البل": 6315,
      "فل": 6316,
      "ذه": 6317,
      "part": 6318,
      "▁II": 6319,
      "فاع": 6320,
      "▁خط": 6321,
      "كري": 6322,
      "▁Min": 6323,
      "gypt": 6324,
      "▁تكون": 6325,
      "▁بها": 6326,
      "▁memb": 6327,
      "▁held": 6328,
      "▁establ": 6329,
      "▁rev": 6330,
      "ene": 6331,
      "▁following": 6332,
      "▁Count": 6333,
      "خر": 6334,
      "طفال": 6335,
      "▁use": 6336,
      "ابل": 6337,
      "▁تر": 6338,
      "duced": 6339,
      "arn": 6340,
      "ائلة": 6341,
      "▁الاسلام": 6342,
      "▁took": 6343,
      "▁استخدام": 6344,
      "ink": 6345,
      "ham": 6346,
      "ined": 6347,
      "▁place": 6348,
      "anc": 6349,
      "▁sim": 6350,
      "ina": 6351,
      "▁التج": 6352,
      "ربي": 6353,
      "▁gu": 6354,
      "▁al-": 6355,
      "ندا": 6356,
      "ارية": 6357,
      "▁event": 6358,
      "▁report": 6359,
      "حل": 6360,
      "بال": 6361,
      "▁ومع": 6362,
      "▁والار": 6363,
      "▁School": 6364,
      "▁عدة": 6365,
      "▁الاك": 6366,
      "▁North": 6367,
      "▁الرا": 6368,
      "▁major": 6369,
      "▁differ": 6370,
      "▁ابن": 6371,
      "ording": 6372,
      "aving": 6373,
      "▁cur": 6374,
      "▁dr": 6375,
      "-s": 6376,
      "illion": 6377,
      "▁around": 6378,
      "▁بج": 6379,
      "دف": 6380,
      "▁member": 6381,
      "▁ref": 6382,
      "ebru": 6383,
      "دير": 6384,
      "ebruary": 6385,
      "yn": 6386,
      "iving": 6387,
      "▁could": 6388,
      "▁التن": 6389,
      "▁يوم": 6390,
      "نادي": 6391,
      "ox": 6392,
      "▁Pr": 6393,
      "اج": 6394,
      "ues": 6395,
      "▁Europe": 6396,
      "▁التق": 6397,
      "▁الساب": 6398,
      "oard": 6399,
      "201": 6400,
      "سر": 6401,
      "▁small": 6402,
      "▁ذلك،": 6403,
      "mp": 6404,
      "iod": 6405,
      "▁All": 6406,
      "ored": 6407,
      "▁club": 6408,
      "لاء": 6409,
      "▁نادي": 6410,
      "▁مجموعة": 6411,
      "▁Egypt": 6412,
      "ضل": 6413,
      "▁مسا": 6414,
      "▁each": 6415,
      "مية": 6416,
      "ival": 6417,
      "chn": 6418,
      "امي": 6419,
      "▁بينما": 6420,
      "اضي": 6421,
      "▁program": 6422,
      "▁ضد": 6423,
      "عادة": 6424,
      "دل": 6425,
      "حدث": 6426,
      "arge": 6427,
      "▁189": 6428,
      "ورا": 6429,
      "▁due": 6430,
      "▁لاعب": 6431,
      "▁King": 6432,
      "ون،": 6433,
      "▁Gu": 6434,
      "▁said": 6435,
      "▁القا": 6436,
      "els": 6437,
      "▁February": 6438,
      "نان": 6439,
      "ootball": 6440,
      "S.": 6441,
      "تج": 6442,
      "▁villa": 6443,
      "▁world": 6444,
      "▁Christ": 6445,
      "▁الكت": 6446,
      "▁اكبر": 6447,
      "▁Pol": 6448,
      "▁served": 6449,
      "لاق": 6450,
      "▁21": 6451,
      "راض": 6452,
      "رجة": 6453,
      "ctions": 6454,
      "كور": 6455,
      "▁طريق": 6456,
      "▁مجلس": 6457,
      "▁Man": 6458,
      "▁عاما": 6459,
      "▁جامعة": 6460,
      "غي": 6461,
      "▁دخل": 6462,
      "▁join": 6463,
      "داء": 6464,
      "▁اخر": 6465,
      "▁وخ": 6466,
      "atic": 6467,
      "▁العل": 6468,
      "lack": 6469,
      "▁located": 6470,
      "▁histor": 6471,
      "▁24": 6472,
      "▁death": 6473,
      "▁القدم": 6474,
      "مس": 6475,
      "▁فيه": 6476,
      "ويل": 6477,
      "▁compet": 6478,
      "tle": 6479,
      "وبي": 6480,
      "yl": 6481,
      "▁فقط": 6482,
      "▁However,": 6483,
      "augh": 6484,
      "▁named": 6485,
      "rent": 6486,
      "▁والس": 6487,
      "وص": 6488,
      "و،": 6489,
      "انب": 6490,
      "let": 6491,
      "▁اصل": 6492,
      "ivision": 6493,
      "though": 6494,
      "ently": 6495,
      "by": 6496,
      "اير": 6497,
      "رم": 6498,
      "▁tr": 6499,
      "وال": 6500,
      "▁الوقت": 6501,
      "▁There": 6502,
      "واء": 6503,
      "▁احت": 6504,
      "▁national": 6505,
      "▁down": 6506,
      "-c": 6507,
      "ert": 6508,
      "▁عمر": 6509,
      "▁El": 6510,
      "5%": 6511,
      "ريل": 6512,
      "قيق": 6513,
      "ged": 6514,
      "شرين": 6515,
      "▁Austral": 6516,
      "▁received": 6517,
      "▁US": 6518,
      "ified": 6519,
      "▁State": 6520,
      "inc": 6521,
      "▁hel": 6522,
      "▁Bro": 6523,
      "ience": 6524,
      "▁المسل": 6525,
      "▁rest": 6526,
      "▁ext": 6527,
      "▁كبير": 6528,
      "▁&": 6529,
      "▁last": 6530,
      "pect": 6531,
      "غل": 6532,
      "شرة": 6533,
      "▁Will": 6534,
      "▁عليه": 6535,
      "▁City": 6536,
      "uthor": 6537,
      "▁law": 6538,
      "ants": 6539,
      "▁left": 6540,
      "▁Pres": 6541,
      "▁شي": 6542,
      "lay": 6543,
      "ments": 6544,
      "▁لها": 6545,
      "rew": 6546,
      "▁perfor": 6547,
      "راك": 6548,
      "▁لح": 6549,
      "▁رئيس": 6550,
      "▁eng": 6551,
      "كتب": 6552,
      "▁اض": 6553,
      "▁based": 6554,
      "▁area": 6555,
      "▁وقت": 6556,
      "▁town": 6557,
      "▁للح": 6558,
      "▁مرة": 6559,
      "ring": 6560,
      "▁det": 6561,
      "▁imp": 6562,
      "▁success": 6563,
      "50": 6564,
      "▁kill": 6565,
      "▁بع": 6566,
      "هم،": 6567,
      "▁الامريك": 6568,
      "▁يح": 6569,
      "▁بما": 6570,
      "▁Cal": 6571,
      "وه": 6572,
      "▁الوسط": 6573,
      "▁عم": 6574,
      "▁band": 6575,
      "▁built": 6576,
      "▁war": 6577,
      "ets": 6578,
      "ounc": 6579,
      "aster": 6580,
      "▁During": 6581,
      "▁right": 6582,
      "▁تاريخ": 6583,
      "▁يد": 6584,
      "ابعة": 6585,
      "▁attack": 6586,
      "▁describ": 6587,
      "▁عبر": 6588,
      "-p": 6589,
      "▁Ed": 6590,
      "▁camp": 6591,
      "ourt": 6592,
      "▁المنطقة": 6593,
      "▁تس": 6594,
      "▁يبلغ": 6595,
      "▁ملي": 6596,
      "▁2011": 6597,
      "-d": 6598,
      "▁اور": 6599,
      "رابعة": 6600,
      "▁Mon": 6601,
      "▁المتحدة.": 6602,
      "▁adv": 6603,
      "▁car": 6604,
      "ampionship": 6605,
      "▁اخت": 6606,
      "rench": 6607,
      "▁لن": 6608,
      "laim": 6609,
      "▁Afric": 6610,
      "en,": 6611,
      "ياء": 6612,
      "لاف": 6613,
      "▁within": 6614,
      "▁members": 6615,
      "طب": 6616,
      "▁States": 6617,
      "▁period": 6618,
      "▁six": 6619,
      "oung": 6620,
      "▁charact": 6621,
      "▁trad": 6622,
      "▁consid": 6623,
      "▁final": 6624,
      "▁published": 6625,
      "▁Car": 6626,
      "▁188": 6627,
      "سكر": 6628,
      "▁العربية": 6629,
      "ies,": 6630,
      "▁milit": 6631,
      "اضافة": 6632,
      "جموع": 6633,
      "يا.": 6634,
      "▁اذا": 6635,
      "alth": 6636,
      "▁(b": 6637,
      "▁term": 6638,
      "▁سيا": 6639,
      "وث": 6640,
      "▁because": 6641,
      "انت": 6642,
      "▁البحر": 6643,
      "▁والح": 6644,
      "▁الكب": 6645,
      "▁القر": 6646,
      "ies.": 6647,
      "▁للسكان": 6648,
      "ميز": 6649,
      "▁لج": 6650,
      "ief": 6651,
      "▁شركة": 6652,
      "▁مختلف": 6653,
      "▁mark": 6654,
      "▁الرغم": 6655,
      "▁Her": 6656,
      "▁حق": 6657,
      "▁now": 6658,
      "▁large": 6659,
      "estern": 6660,
      "▁represent": 6661,
      "▁لب": 6662,
      "ott": 6663,
      "ثافة": 6664,
      "▁West": 6665,
      "د،": 6666,
      "▁ty": 6667,
      "افظة": 6668,
      "انا": 6669,
      "ourn": 6670,
      "اما": 6671,
      "▁Bar": 6672,
      "كات": 6673,
      "▁appro": 6674,
      "▁بالت": 6675,
      "▁الارض": 6676,
      "▁والست": 6677,
      "ured": 6678,
      "▁Arab": 6679,
      "ality": 6680,
      "طلق": 6681,
      "▁والذي": 6682,
      "▁north": 6683,
      "ians": 6684,
      "ثال": 6685,
      "orm": 6686,
      "isc": 6687,
      "علم": 6688,
      "▁five": 6689,
      "▁manag": 6690,
      "▁الاي": 6691,
      "صد": 6692,
      "▁كتاب": 6693,
      "ove": 6694,
      "طني": 6695,
      "▁لكرة": 6696,
      "row": 6697,
      "▁مارس": 6698,
      "▁ها": 6699,
      "ately": 6700,
      "▁leg": 6701,
      "stit": 6702,
      "شروع": 6703,
      "▁والد": 6704,
      "واس": 6705,
      "▁la": 6706,
      "▁الدا": 6707,
      "▁23": 6708,
      "ocial": 6709,
      "▁bus": 6710,
      "▁العائلات": 6711,
      "▁حوالي": 6712,
      "▁top": 6713,
      "▁requ": 6714,
      "▁led": 6715,
      "روف": 6716,
      "▁لاح": 6717,
      "▁larg": 6718,
      "8%": 6719,
      "اش": 6720,
      "omet": 6721,
      "ung": 6722,
      "ion,": 6723,
      ".S.": 6724,
      "▁Har": 6725,
      "▁League": 6726,
      "فن": 6727,
      "▁dem": 6728,
      "▁بار": 6729,
      "▁الرئيسي": 6730,
      "uk": 6731,
      "▁old": 6732,
      "ble": 6733,
      "جلي": 6734,
      "▁deb": 6735,
      "ograph": 6736,
      "▁bas": 6737,
      "idd": 6738,
      "بارا": 6739,
      "ياة": 6740,
      "▁class": 6741,
      "▁allow": 6742,
      "▁French": 6743,
      "▁تل": 6744,
      "▁حجم": 6745,
      "▁22": 6746,
      "▁Colle": 6747,
      "7%": 6748,
      "درسة": 6749,
      "▁اكتوبر": 6750,
      "▁ذكر": 6751,
      "▁الانت": 6752,
      "3%": 6753,
      "▁conc": 6754,
      "▁الاجتما": 6755,
      "▁Geor": 6756,
      "▁اذ": 6757,
      "ومات": 6758,
      "براير": 6759,
      "▁عض": 6760,
      "ان.": 6761,
      "▁يناير": 6762,
      "قم": 6763,
      "▁tri": 6764,
      "ساء": 6765,
      "hes": 6766,
      "راسة": 6767,
      "▁X": 6768,
      "▁الفترة": 6769,
      "طنين": 6770,
      "get": 6771,
      "▁واست": 6772,
      "▁profess": 6773,
      "▁تقع": 6774,
      "▁included": 6775,
      "iqu": 6776,
      "▁Rep": 6777,
      "reen": 6778,
      "i.": 6779,
      "الف": 6780,
      "قدر": 6781,
      "uck": 6782,
      "▁born": 6783,
      "▁الشي": 6784,
      "▁ظ": 6785,
      "▁الثال": 6786,
      "used": 6787,
      "ثم": 6788,
      "angu": 6789,
      "▁مايو": 6790,
      "▁بالاضافة": 6791,
      "▁third": 6792,
      "رير": 6793,
      "▁fac": 6794,
      "▁ونادي": 6795,
      "ially": 6796,
      "قال": 6797,
      "ربية": 6798,
      "reet": 6799,
      "oss": 6800,
      "▁قر": 6801,
      "▁present": 6802,
      "▁incre": 6803,
      "اك": 6804,
      "4%": 6805,
      "صاء": 6806,
      "▁تب": 6807,
      "omin": 6808,
      "ese": 6809,
      "▁Pal": 6810,
      "ruct": 6811,
      "ادر": 6812,
      "▁person": 6813,
      "▁الموا": 6814,
      "ony": 6815,
      "▁بق": 6816,
      "تمبر": 6817,
      "6%": 6818,
      "▁واحد": 6819,
      "طار": 6820,
      "ديث": 6821,
      "▁Canad": 6822,
      "uff": 6823,
      "سون": 6824,
      "▁الفرن": 6825,
      "▁الاتحاد": 6826,
      "▁By": 6827,
      "ستخدام": 6828,
      "2%": 6829,
      "▁الامريكيين": 6830,
      "▁short": 6831,
      "مت": 6832,
      "arried": 6833,
      "iven": 6834,
      "▁prev": 6835,
      "▁Ex": 6836,
      "▁po": 6837,
      "rem": 6838,
      "▁cor": 6839,
      "ليات": 6840,
      "▁population": 6841,
      "ينا": 6842,
      "▁يولي": 6843,
      "▁ارت": 6844,
      "لاج": 6845,
      "▁186": 6846,
      "▁دور": 6847,
      "▁resp": 6848,
      "1%": 6849,
      "▁Part": 6850,
      "us,": 6851,
      "▁Par": 6852,
      "ولوج": 6853,
      "ument": 6854,
      "ban": 6855,
      "▁post": 6856,
      "eter": 6857,
      "in,": 6858,
      "ندي": 6859,
      "▁وذلك": 6860,
      "▁like": 6861,
      "خة": 6862,
      "bor": 6863,
      "▁عاما،": 6864,
      "تل": 6865,
      "▁اسرة": 6866,
      "▁women": 6867,
      "▁احدي": 6868,
      "▁الدولة": 6869,
      "ology": 6870,
      "▁south": 6871,
      "▁اعل": 6872,
      "هود": 6873,
      "▁crit": 6874,
      "▁vers": 6875,
      "هاية": 6876,
      "▁فبراير": 6877,
      "▁just": 6878,
      "ouncil": 6879,
      "▁امريكي": 6880,
      "ضاء": 6881,
      "▁announ": 6882,
      "تين": 6883,
      "ices": 6884,
      "عود": 6885,
      "يلم": 6886,
      "▁المخ": 6887,
      "ودي": 6888,
      "▁Mc": 6889,
      "-f": 6890,
      "tal": 6891,
      "▁home": 6892,
      "▁And": 6893,
      "واقع": 6894,
      ",000": 6895,
      "9%": 6896,
      "▁2009": 6897,
      "▁الطبي": 6898,
      "▁lit": 6899,
      "▁Sec": 6900,
      "فق": 6901,
      "▁سبتمبر": 6902,
      "شاء": 6903,
      "eder": 6904,
      "ae": 6905,
      "زية": 6906,
      "ion.": 6907,
      "istr": 6908,
      "امة": 6909,
      "lish": 6910,
      "lev": 6911,
      "ze": 6912,
      "▁company": 6913,
      "جوم": 6914,
      "▁million": 6915,
      "▁addition": 6916,
      "alf": 6917,
      "▁stat": 6918,
      "▁اغسط": 6919,
      "▁single": 6920,
      "▁اليوم": 6921,
      "▁نشر": 6922,
      "▁ابريل": 6923,
      "▁iss": 6924,
      "conom": 6925,
      "uman": 6926,
      "▁different": 6927,
      "صي": 6928,
      "▁بالن": 6929,
      "ling": 6930,
      "▁فت": 6931,
      "▁الاور": 6932,
      "▁اثناء": 6933,
      "raft": 6934,
      "amb": 6935,
      "▁vis": 6936,
      "▁$": 6937,
      "▁2006": 6938,
      "▁واس": 6939,
      "تمع": 6940,
      "▁الحكومة": 6941,
      "rael": 6942,
      "ريد": 6943,
      "ائية": 6944,
      "▁among": 6945,
      "▁appear": 6946,
      "▁U.S.": 6947,
      "urg": 6948,
      "▁though": 6949,
      "▁still": 6950,
      "▁يونيو": 6951,
      "جد": 6952,
      "مبر": 6953,
      "▁وش": 6954,
      "▁often": 6955,
      "▁position": 6956,
      "par": 6957,
      "▁line": 6958,
      "▁house": 6959,
      "الب": 6960,
      "▁نوف": 6961,
      "▁another": 6962,
      "▁187": 6963,
      "▁Co": 6964,
      "▁sold": 6965,
      "▁فرن": 6966,
      "com": 6967,
      "ugg": 6968,
      "▁if": 6969,
      "ily": 6970,
      "▁died": 6971,
      "▁مش": 6972,
      "ization": 6973,
      "جن": 6974,
      "▁author": 6975,
      "▁Russ": 6976,
      "▁2012": 6977,
      "▁village": 6978,
      "▁الهند": 6979,
      "▁station": 6980,
      "▁Air": 6981,
      "▁المتحدة،": 6982,
      "وغ": 6983,
      "▁2020": 6984,
      "▁Med": 6985,
      "▁/": 6986,
      "ner": 6987,
      "▁جي": 6988,
      "▁very": 6989,
      "tended": 6990,
      "▁البريط": 6991,
      "▁الاسرة": 6992,
      "▁سكانها": 6993,
      "قتصاد": 6994,
      "▁2008": 6995,
      "▁moved": 6996,
      "ched": 6997,
      "▁fore": 6998,
      "▁late": 6999,
      "▁father": 7000,
      "▁علم": 7001,
      "ruction": 7002,
      "▁av": 7003,
      "لسط": 7004,
      "▁يش": 7005,
      "▁include": 7006,
      "▁sit": 7007,
      "▁win": 7008,
      "▁water": 7009,
      "▁قائ": 7010,
      "▁Ne": 7011,
      "▁فترة": 7012,
      "قاطعة": 7013,
      "▁عليها": 7014,
      "▁ep": 7015,
      "ides": 7016,
      "سمبر": 7017,
      "اته": 7018,
      "لاب": 7019,
      "▁stand": 7020,
      "اتي": 7021,
      "▁الدين": 7022,
      "▁par": 7023,
      "alk": 7024,
      "▁list": 7025,
      "▁import": 7026,
      "▁26": 7027,
      "inning": 7028,
      "م،": 7029,
      "riend": 7030,
      "▁2004.": 7031,
      "▁English": 7032,
      "▁اغسطس": 7033,
      "▁hand": 7034,
      "▁سجل": 7035,
      "▁Lond": 7036,
      "ظيم": 7037,
      "▁William": 7038,
      "نف": 7039,
      "hem": 7040,
      "attle": 7041,
      "▁الوطني": 7042,
      "ضة": 7043,
      "▁those": 7044,
      "▁son": 7045,
      "▁month": 7046,
      "▁المي": 7047,
      "▁award": 7048,
      "▁للع": 7049,
      "-19": 7050,
      "ينة": 7051,
      "▁داخل": 7052,
      "▁port": 7053,
      "براط": 7054,
      "▁Reg": 7055,
      "▁cr": 7056,
      "▁Jap": 7057,
      "hip": 7058,
      "work": 7059,
      "▁Sw": 7060,
      "vers": 7061,
      "▁equ": 7062,
      "ياب": 7063,
      "▁exper": 7064,
      "اند": 7065,
      "▁Acc": 7066,
      "ps": 7067,
      "30": 7068,
      "▁المد": 7069,
      "▁منا": 7070,
      "▁Bl": 7071,
      "▁week": 7072,
      "▁لكل": 7073,
      "ane": 7074,
      "▁children": 7075,
      "▁best": 7076,
      "▁military": 7077,
      "▁educ": 7078,
      "▁يوليو": 7079,
      "▁poss": 7080,
      "▁Dist": 7081,
      "▁building": 7082,
      "iness": 7083,
      "▁even": 7084,
      "▁الاز": 7085,
      "▁way": 7086,
      "-t": 7087,
      "▁claim": 7088,
      "ster": 7089,
      "▁نظام": 7090,
      "▁جم": 7091,
      "ivil": 7092,
      "▁(A": 7093,
      "▁نوفمبر": 7094,
      "▁السي": 7095,
      "لية": 7096,
      "▁International": 7097,
      "▁ديسمبر": 7098,
      "▁Israel": 7099,
      "ison": 7100,
      "ارب": 7101,
      "▁يست": 7102,
      "▁es": 7103,
      "▁مل": 7104,
      "▁الشمال": 7105,
      "▁الاحت": 7106,
      "▁يعيش": 7107,
      "omb": 7108,
      "▁1.": 7109,
      "▁del": 7110,
      "▁what": 7111,
      "غيرة": 7112,
      "adem": 7113,
      "▁men": 7114,
      "دت": 7115,
      "▁نظ": 7116,
      "ald": 7117,
      "▁established": 7118,
      "▁27": 7119,
      "▁original": 7120,
      "▁28": 7121,
      "▁قال": 7122,
      "▁country": 7123,
      "▁فا": 7124,
      "▁previous": 7125,
      "empt": 7126,
      "aren": 7127,
      "▁0.": 7128,
      "ats": 7129,
      "▁2013": 7130,
      "▁Ro": 7131,
      "▁power": 7132,
      "▁وص": 7133,
      "▁ترك": 7134,
      "ript": 7135,
      "▁football": 7136,
      "▁واحدة": 7137,
      "▁ود": 7138,
      "ploy": 7139,
      "side": 7140,
      "▁aff": 7141,
      "زيد": 7142,
      "uted": 7143,
      "read": 7144,
      "▁معظم": 7145,
      "ociet": 7146,
      "▁يقع": 7147,
      "▁beg": 7148,
      "ford": 7149,
      "▁اجل": 7150,
      "▁cult": 7151,
      "▁التص": 7152,
      "▁Phil": 7153,
      "حف": 7154,
      "▁بش": 7155,
      "▁Comp": 7156,
      "▁ارب": 7157,
      "▁came": 7158,
      "▁project": 7159,
      "▁pat": 7160,
      "▁التاريخ": 7161,
      "ica": 7162,
      "▁control": 7163,
      "▁Kh": 7164,
      "▁announced": 7165,
      "▁والن": 7166,
      "▁درجة": 7167,
      "عدد": 7168,
      "▁Dav": 7169,
      "▁مب": 7170,
      "▁وبعد": 7171,
      "▁الاق": 7172,
      "epend": 7173,
      "▁centur": 7174,
      "ريقة": 7175,
      "-l": 7176,
      "▁المب": 7177,
      "▁(S": 7178,
      "▁activ": 7179,
      "is,": 7180,
      "واسطة": 7181,
      "▁tak": 7182,
      "طح": 7183,
      "غر": 7184,
      "-y": 7185,
      "ublic": 7186,
      "▁الجيش": 7187,
      "▁College": 7188,
      "ي،": 7189,
      "▁arch": 7190,
      "▁invol": 7191,
      "ense": 7192,
      "▁جنوب": 7193,
      "▁political": 7194,
      "▁ship": 7195,
      "▁الاب": 7196,
      "ode": 7197,
      "ائر": 7198,
      "▁Fl": 7199,
      "▁اصبح": 7200,
      "صال": 7201,
      "▁High": 7202,
      "▁2014": 7203,
      "al,": 7204,
      "▁تد": 7205,
      "ilar": 7206,
      "oph": 7207,
      "▁وتوفي": 7208,
      "5،": 7209,
      "▁تخ": 7210,
      "ining": 7211,
      "osp": 7212,
      "▁When": 7213,
      "▁بواسطة": 7214,
      "حيط": 7215,
      "▁سنوات": 7216,
      "▁Cup": 7217,
      "▁نحو": 7218,
      "اذ": 7219,
      "▁فلك": 7220,
      "زال": 7221,
      "مين": 7222,
      "▁نق": 7223,
      "urther": 7224,
      "rest": 7225,
      "▁sent": 7226,
      "▁وفقا": 7227,
      "▁الشخص": 7228,
      "▁الوطن": 7229,
      "▁role": 7230,
      "ريف": 7231,
      "-A": 7232,
      "دات": 7233,
      "واع": 7234,
      "▁origin": 7235,
      "▁level": 7236,
      "▁current": 7237,
      "▁fre": 7238,
      "▁حزب": 7239,
      "▁لس": 7240,
      "self": 7241,
      "▁وتم": 7242,
      "دمة": 7243,
      "يران": 7244,
      "ches": 7245,
      "س.": 7246,
      "▁init": 7247,
      "7،": 7248,
      "▁اعمال": 7249,
      "▁الامريكية": 7250,
      "▁Res": 7251,
      "▁repla": 7252,
      "ضر": 7253,
      "▁لعام": 7254,
      "▁المركز": 7255,
      "▁العم": 7256,
      "an.": 7257,
      "▁القدي": 7258,
      "olution": 7259,
      "جمع": 7260,
      "▁turn": 7261,
      "▁make": 7262,
      "▁Sup": 7263,
      "▁species": 7264,
      "كار": 7265,
      "▁much": 7266,
      "تيجة": 7267,
      "urs": 7268,
      "In": 7269,
      "▁Cor": 7270,
      "▁Ital": 7271,
      "▁فما": 7272,
      "▁القاطنين": 7273,
      "▁المو": 7274,
      "▁ter": 7275,
      "▁non": 7276,
      "ering": 7277,
      "▁various": 7278,
      "▁San": 7279,
      "ront": 7280,
      "لت": 7281,
      "ency": 7282,
      "▁شكل": 7283,
      "rote": 7284,
      "▁وغير": 7285,
      "ference": 7286,
      "▁ابو": 7287,
      "▁عملية": 7288,
      "زام": 7289,
      "▁الالم": 7290,
      "▁grad": 7291,
      "eneral": 7292,
      "ائزة": 7293,
      "▁اسب": 7294,
      "r.": 7295,
      "▁عرض": 7296,
      "▁young": 7297,
      "كية": 7298,
      "▁effect": 7299,
      "10": 7300,
      "▁الاغ": 7301,
      "خي": 7302,
      "▁went": 7303,
      "▁نوع": 7304,
      "▁وما": 7305,
      "▁الجم": 7306,
      "عيد": 7307,
      "▁اسا": 7308,
      "ختلف": 7309,
      "▁المه": 7310,
      "▁ca": 7311,
      "▁المق": 7312,
      "▁المر": 7313,
      "▁الجنوب": 7314,
      "astern": 7315,
      "ata": 7316,
      "ages": 7317,
      "▁feature": 7318,
      "▁East": 7319,
      "▁بنسبة": 7320,
      "▁described": 7321,
      "-2": 7322,
      "▁conf": 7323,
      "وش": 7324,
      "▁ولم": 7325,
      "▁command": 7326,
      "▁val": 7327,
      "▁Art": 7328,
      "▁age": 7329,
      "▁Park": 7330,
      "▁كبيرة": 7331,
      "ذكر": 7332,
      "▁Ang": 7333,
      "▁عل": 7334,
      "▁title": 7335,
      "▁defe": 7336,
      "-S": 7337,
      "▁(C": 7338,
      "▁La": 7339,
      "و.": 7340,
      "هم.": 7341,
      "▁29": 7342,
      "▁السل": 7343,
      "▁يوجد": 7344,
      "نع": 7345,
      "▁بني": 7346,
      "بعين": 7347,
      "▁election": 7348,
      "▁dra": 7349,
      "hern": 7350,
      "ointed": 7351,
      "▁رئي": 7352,
      "▁حصل": 7353,
      "صبحت": 7354,
      "ministr": 7355,
      "▁النظام": 7356,
      "▁بناء": 7357,
      "▁Tr": 7358,
      "مهورية": 7359,
      "▁ساب": 7360,
      "▁langu": 7361,
      "rick": 7362,
      "▁cover": 7363,
      "▁الكويك": 7364,
      "unic": 7365,
      "▁3.": 7366,
      "mit": 7367,
      "عضاء": 7368,
      "▁clos": 7369,
      "ached": 7370,
      "▁infl": 7371,
      "app": 7372,
      "▁اللا": 7373,
      "▁الحر": 7374,
      "▁Br": 7375,
      "▁tem": 7376,
      "▁وضع": 7377,
      "ray": 7378,
      "▁اليمن": 7379,
      "ien": 7380,
      "باب": 7381,
      "eth": 7382,
      "▁district": 7383,
      "lam": 7384,
      "▁تست": 7385,
      "of": 7386,
      "▁وار": 7387,
      "▁الاسا": 7388,
      "ياه": 7389,
      "▁contain": 7390,
      "▁techn": 7391,
      "▁started": 7392,
      "▁اهم": 7393,
      "▁يؤ": 7394,
      "posed": 7395,
      "ele": 7396,
      "▁احمد": 7397,
      "ويت": 7398,
      "▁common": 7399,
      "▁Ag": 7400,
      "▁order": 7401,
      "iber": 7402,
      "ara": 7403,
      "▁international": 7404,
      "cast": 7405,
      "ليا": 7406,
      "▁Award": 7407,
      "▁having": 7408,
      "وبا": 7409,
      "ani": 7410,
      "▁شارك": 7411,
      "▁كار": 7412,
      "ves": 7413,
      "▁جزء": 7414,
      "▁المصري": 7415,
      "▁(born": 7416,
      "ead": 7417,
      "سيس": 7418,
      "▁joined": 7419,
      "▁These": 7420,
      "aff": 7421,
      "ament": 7422,
      "▁مد": 7423,
      "▁Em": 7424,
      "▁تو": 7425,
      "ger": 7426,
      "اط": 7427,
      "itor": 7428,
      "قرا": 7429,
      "ملة": 7430,
      "رفة": 7431,
      "lin": 7432,
      "▁field": 7433,
      "▁District": 7434,
      "umb": 7435,
      "▁حالة": 7436,
      "▁شريك": 7437,
      "▁using": 7438,
      "▁2016": 7439,
      "▁bre": 7440,
      "داث": 7441,
      "▁become": 7442,
      "▁next": 7443,
      "هور": 7444,
      "▁rese": 7445,
      "ody": 7446,
      "imes": 7447,
      "▁ابي": 7448,
      "▁المسي": 7449,
      "ille": 7450,
      "▁[": 7451,
      "زم": 7452,
      "sequ": 7453,
      "▁rad": 7454,
      "رائيل": 7455,
      "▁فوق.": 7456,
      "▁كر": 7457,
      "▁Championship": 7458,
      "▁few": 7459,
      "▁والرابعة": 7460,
      "ively": 7461,
      "▁Roman": 7462,
      "▁السكن": 7463,
      "▁Pe": 7464,
      "▁كون": 7465,
      "alt": 7466,
      "▁لق": 7467,
      "▁الرئيس": 7468,
      "ridge": 7469,
      "outher": 7470,
      "▁official": 7471,
      "راة": 7472,
      "قيقة": 7473,
      "ush": 7474,
      "▁el": 7475,
      "▁فيلم": 7476,
      "اليد": 7477,
      "▁الخاص": 7478,
      "▁life": 7479,
      "▁شمال": 7480,
      "▁الثالث": 7481,
      "▁chang": 7482,
      "▁take": 7483,
      "ales": 7484,
      "▁One": 7485,
      "orthern": 7486,
      "▁العالمية": 7487,
      "▁President": 7488,
      "▁tradition": 7489,
      "aul": 7490,
      "صور": 7491,
      "dom": 7492,
      "▁fact": 7493,
      "▁يقدر": 7494,
      "▁development": 7495,
      "▁القانون": 7496,
      "outhern": 7497,
      "▁House": 7498,
      "ummer": 7499,
      "صار": 7500,
      "▁50": 7501,
      "ef": 7502,
      "▁السن": 7503,
      "▁point": 7504,
      "جز": 7505,
      "▁الفيلم": 7506,
      "sk": 7507,
      "▁الوسطي": 7508,
      "▁given": 7509,
      "▁واق": 7510,
      "▁الاسب": 7511,
      "ington": 7512,
      "day": 7513,
      "▁حل": 7514,
      "▁special": 7515,
      "▁We": 7516,
      "reek": 7517,
      "▁worked": 7518,
      "▁sk": 7519,
      "a's": 7520,
      "م.": 7521,
      "▁Govern": 7522,
      "▁البعض": 7523,
      "▁مليون": 7524,
      "66": 7525,
      "▁beh": 7526,
      "levision": 7527,
      "▁اه": 7528,
      "ورت": 7529,
      "▁tw": 7530,
      "▁ولاية": 7531,
      "▁مخ": 7532,
      "▁(18": 7533,
      "iy": 7534,
      "▁mag": 7535,
      "▁الطب": 7536,
      "▁attempt": 7537,
      "off": 7538,
      "طلاق": 7539,
      "كال": 7540,
      "ابي": 7541,
      "partment": 7542,
      "▁prim": 7543,
      "▁side": 7544,
      "▁بير": 7545,
      "ett": 7546,
      "▁المصر": 7547,
      "...": 7548,
      "▁president": 7549,
      "البا": 7550,
      "رنامج": 7551,
      "زيز": 7552,
      "ينغ": 7553,
      "ask": 7554,
      "ائي": 7555,
      "▁returned": 7556,
      "▁Mor": 7557,
      "▁every": 7558,
      "▁موا": 7559,
      "ضمن": 7560,
      "▁gen": 7561,
      "▁تي": 7562,
      "▁ident": 7563,
      "▁wrote": 7564,
      "iment": 7565,
      "▁از": 7566,
      "▁امريك": 7567,
      "هاد": 7568,
      "▁promot": 7569,
      "▁وعلي": 7570,
      "▁prote": 7571,
      "▁التش": 7572,
      "int": 7573,
      "ention": 7574,
      "ماعة": 7575,
      "▁created": 7576,
      "▁great": 7577,
      "irc": 7578,
      "▁الحد": 7579,
      "oyal": 7580,
      "راسات": 7581,
      "باراة": 7582,
      "زن": 7583,
      "▁disp": 7584,
      "▁England": 7585,
      "as,": 7586,
      "▁total": 7587,
      "ليين": 7588,
      "-m": 7589,
      "وء": 7590,
      "▁According": 7591,
      "▁brother": 7592,
      "▁موسم": 7593,
      "▁vol": 7594,
      "▁Japan": 7595,
      "hel": 7596,
      "▁الثانية": 7597,
      "ape": 7598,
      "reg": 7599,
      "▁career": 7600,
      "▁فيما": 7601,
      "▁social": 7602,
      "▁(م": 7603,
      "ested": 7604,
      "8،": 7605,
      "راه": 7606,
      "▁community": 7607,
      "▁London": 7608,
      "▁European": 7609,
      "▁Port": 7610,
      "0s": 7611,
      "ميم": 7612,
      "▁بالق": 7613,
      "ize": 7614,
      "oon": 7615,
      "▁Ale": 7616,
      "▁القوات": 7617,
      "▁With": 7618,
      "▁continued": 7619,
      "▁without": 7620,
      "▁معيل": 7621,
      "rian": 7622,
      "▁البلاد": 7623,
      "▁round": 7624,
      "▁Per": 7625,
      "▁general": 7626,
      "ivid": 7627,
      "2،": 7628,
      "▁ren": 7629,
      "lect": 7630,
      "▁حا": 7631,
      "ological": 7632,
      "▁considered": 7633,
      "▁Des": 7634,
      "▁Jew": 7635,
      "▁مستوي": 7636,
      "▁مقاطعة": 7637,
      "▁المغرب": 7638,
      "▁المش": 7639,
      "▁\"The": 7640,
      "ferred": 7641,
      "▁similar": 7642,
      "▁قص": 7643,
      "همة": 7644,
      "ogn": 7645,
      "▁pri": 7646,
      "▁Sch": 7647,
      "▁العراق": 7648,
      "▁Indian": 7649,
      "▁character": 7650,
      "▁From": 7651,
      "▁الحزب": 7652,
      "▁والب": 7653,
      "▁examp": 7654,
      "▁econom": 7655,
      "▁عشر،": 7656,
      "▁ينت": 7657,
      "ly,": 7658,
      "▁dep": 7659,
      "▁track": 7660,
      "▁pain": 7661,
      "▁pract": 7662,
      "وبة": 7663,
      "▁associ": 7664,
      "▁العامة": 7665,
      "▁عائلة": 7666,
      "atter": 7667,
      "–19": 7668,
      "1،": 7669,
      "or,": 7670,
      "▁written": 7671,
      "▁در": 7672,
      "▁نهاية": 7673,
      "▁دائ": 7674,
      "▁host": 7675,
      "▁popular": 7676,
      "اثير": 7677,
      "عين": 7678,
      "▁(M": 7679,
      "▁Ber": 7680,
      "▁2007": 7681,
      "-w": 7682,
      "ادل": 7683,
      "useum": 7684,
      "▁production": 7685,
      "rated": 7686,
      "▁بدات": 7687,
      "▁Council": 7688,
      "▁ادي": 7689,
      "طية": 7690,
      "ce,": 7691,
      "▁السلط": 7692,
      "▁need": 7693,
      "▁الروم": 7694,
      "▁الخاصة": 7695,
      "tt": 7696,
      "▁Mus": 7697,
      "▁lim": 7698,
      "ورد": 7699,
      "▁31": 7700,
      "▁intro": 7701,
      "▁Pl": 7702,
      "▁حكم": 7703,
      "na": 7704,
      "اهرة": 7705,
      "▁Church": 7706,
      "▁view": 7707,
      "–2": 7708,
      "’s": 7709,
      "▁vot": 7710,
      "▁dest": 7711,
      "▁عادة": 7712,
      "▁influ": 7713,
      "▁رب": 7714,
      "▁40": 7715,
      "40": 7716,
      "وريا": 7717,
      "ellow": 7718,
      "▁road": 7719,
      "▁والق": 7720,
      "ستر": 7721,
      "ards": 7722,
      "▁half": 7723,
      "iol": 7724,
      "▁عالم": 7725,
      "▁جون": 7726,
      "▁“": 7727,
      "▁particip": 7728,
      "▁ant": 7729,
      "▁sl": 7730,
      "شاف": 7731,
      "غا": 7732,
      "sp": 7733,
      "▁comb": 7734,
      "uel": 7735,
      "▁كا": 7736,
      "اليف": 7737,
      "▁Mich": 7738,
      "قاف": 7739,
      "ئا": 7740,
      "▁General": 7741,
      "▁Ac": 7742,
      "▁invest": 7743,
      "ius": 7744,
      "▁Associ": 7745,
      "▁قب": 7746,
      "ountain": 7747,
      "طلب": 7748,
      "▁friend": 7749,
      "▁الذكور": 7750,
      "yle": 7751,
      "iron": 7752,
      "وزع": 7753,
      "▁match": 7754,
      "▁fun": 7755,
      "▁185": 7756,
      "▁التابعة": 7757,
      "لي،": 7758,
      "▁سم": 7759,
      "▁sol": 7760,
      "ق،": 7761,
      "▁مه": 7762,
      "▁كتب": 7763,
      "▁further": 7764,
      "aign": 7765,
      "ون.": 7766,
      "▁hig": 7767,
      "▁lost": 7768,
      "pecial": 7769,
      "▁rul": 7770,
      "9،": 7771,
      "▁Stat": 7772,
      "▁Street": 7773,
      "iddle": 7774,
      "▁بالا": 7775,
      "حدات": 7776,
      "▁2015": 7777,
      "▁ord": 7778,
      "ays": 7779,
      "▁ثلاث": 7780,
      "ورن": 7781,
      "dition": 7782,
      "line": 7783,
      "▁بك": 7784,
      "▁و0.": 7785,
      "ev": 7786,
      "▁2004": 7787,
      "▁افراد": 7788,
      "▁الموج": 7789,
      "itte": 7790,
      "▁نا": 7791,
      "'t": 7792,
      "▁direct": 7793,
      "▁broad": 7794,
      "▁Gl": 7795,
      "▁Ap": 7796,
      "▁Island": 7797,
      "رحلة": 7798,
      "▁gr": 7799,
      "جال": 7800,
      "▁appointed": 7801,
      "▁produced": 7802,
      "▁الاث": 7803,
      "باط": 7804,
      "▁Tur": 7805,
      "راز": 7806,
      "ournal": 7807,
      "ges": 7808,
      "▁العر": 7809,
      "▁vict": 7810,
      "طع": 7811,
      "▁service": 7812,
      "field": 7813,
      "بعة": 7814,
      "▁الدولي": 7815,
      "▁القديمة": 7816,
      "انة": 7817,
      "ness": 7818,
      "avy": 7819,
      "▁الشيخ": 7820,
      "▁feat": 7821,
      "ino": 7822,
      "▁ولي": 7823,
      "▁business": 7824,
      "هدف": 7825,
      "▁sw": 7826,
      "طاع": 7827,
      "▁الحم": 7828,
      "▁نش": 7829,
      "▁compos": 7830,
      "ريت": 7831,
      "▁اللغة": 7832,
      "خذ": 7833,
      "▁الامبراط": 7834,
      "ورك": 7835,
      "▁ملك": 7836,
      "▁المل": 7837,
      "▁مرت": 7838,
      "▁important": 7839,
      "▁تضم": 7840,
      "ثلة": 7841,
      "اصمة": 7842,
      "▁بريط": 7843,
      "▁رس": 7844,
      "لسلة": 7845,
      "▁2,": 7846,
      "ومي": 7847,
      "lim": 7848,
      ".\n": 7849,
      "▁يس": 7850,
      "▁وفا": 7851,
      "▁reported": 7852,
      "aughter": 7853,
      "ونية": 7854,
      "سكرية": 7855,
      "▁مك": 7856,
      "▁particular": 7857,
      "عاب": 7858,
      "▁Gro": 7859,
      "ole": 7860,
      "▁elect": 7861,
      "ler": 7862,
      "▁ثلاثة": 7863,
      "▁full": 7864,
      "▁الطا": 7865,
      "▁يعت": 7866,
      "▁human": 7867,
      "uf": 7868,
      "▁ميل": 7869,
      "ership": 7870,
      "▁(200": 7871,
      "▁للن": 7872,
      "▁اقل": 7873,
      "▁والف": 7874,
      "▁epis": 7875,
      "▁مجال": 7876,
      "▁يجب": 7877,
      "▁منه": 7878,
      "eh": 7879,
      "▁عرق": 7880,
      "▁فرنسا": 7881,
      "▁cer": 7882,
      "ربة": 7883,
      "▁المحيط": 7884,
      "كمة": 7885,
      "▁منت": 7886,
      "▁Bel": 7887,
      "▁بطولة": 7888,
      "وين": 7889,
      "▁lab": 7890,
      "ابع": 7891,
      "▁tro": 7892,
      "▁Val": 7893,
      "▁مشا": 7894,
      "راع": 7895,
      "▁قا": 7896,
      "ery": 7897,
      "▁عب": 7898,
      "▁married": 7899,
      "▁Char": 7900,
      "▁real": 7901,
      "جه": 7902,
      "▁himself": 7903,
      "هب": 7904,
      "▁الرياض": 7905,
      "▁appeared": 7906,
      "ning": 7907,
      "▁\"S": 7908,
      "▁روا": 7909,
      "▁compan": 7910,
      "sc": 7911,
      "▁find": 7912,
      "جاه": 7913,
      "idence": 7914,
      "▁modern": 7915,
      "▁hold": 7916,
      "ياس": 7917,
      "-year": 7918,
      "سمية": 7919,
      "etwork": 7920,
      "▁Mal": 7921,
      "uit": 7922,
      "▁الصح": 7923,
      "▁كانوا": 7924,
      "▁قانون": 7925,
      "▁الياب": 7926,
      "▁والعشرين": 7927,
      "▁Hol": 7928,
      "▁بالنسبة": 7929,
      "en.": 7930,
      "hib": 7931,
      "▁church": 7932,
      "▁process": 7933,
      "▁امام": 7934,
      "lear": 7935,
      "▁arr": 7936,
      "ana": 7937,
      "▁انتاج": 7938,
      "▁Sm": 7939,
      "ومة": 7940,
      "▁laun": 7941,
      "▁مكان": 7942,
      "▁Hist": 7943,
      "▁surv": 7944,
      "ither": 7945,
      "ine,": 7946,
      "دي،": 7947,
      "▁الشم": 7948,
      "▁فبلغ": 7949,
      "60": 7950,
      "جار": 7951,
      "▁الوز": 7952,
      "3،": 7953,
      "ividual": 7954,
      "ones": 7955,
      "▁belie": 7956,
      "خاص": 7957,
      "▁offer": 7958,
      "▁mult": 7959,
      "▁زوج": 7960,
      "80": 7961,
      "be": 7962,
      "▁Division": 7963,
      "▁وكذلك": 7964,
      "i-": 7965,
      "ij": 7966,
      "iforn": 7967,
      "▁ke": 7968,
      "▁priv": 7969,
      "جيل": 7970,
      "▁المدار": 7971,
      "▁elected": 7972,
      "▁جديدة": 7973,
      "▁لمدة": 7974,
      "▁سر": 7975,
      "▁signed": 7976,
      "▁help": 7977,
      "▁الشعب": 7978,
      "ying": 7979,
      "▁Christian": 7980,
      "▁اصبحت": 7981,
      "▁فع": 7982,
      "▁خاصة": 7983,
      "▁المسا": 7984,
      "▁research": 7985,
      "ائج": 7986,
      "istic": 7987,
      "▁relig": 7988,
      "وفر": 7989,
      "▁الوطنية": 7990,
      "▁للق": 7991,
      "▁expl": 7992,
      "ream": 7993,
      "rap": 7994,
      "▁وام": 7995,
      "▁العلم": 7996,
      "▁administr": 7997,
      "▁افريق": 7998,
      "▁debut": 7999,
      "view": 8000,
      "▁للد": 8001,
      "▁meet": 8002,
      "BC": 8003,
      "▁Rober": 8004,
      "ensive": 8005,
      "حات": 8006,
      "▁George": 8007,
      "▁lif": 8008,
      "▁founded": 8009,
      "▁التركيب": 8010,
      "▁Dem": 8011,
      "▁يعتبر": 8012,
      "ably": 8013,
      "▁inf": 8014,
      "▁مدي": 8015,
      "▁دوار": 8016,
      "▁mer": 8017,
      "▁good": 8018,
      "▁تف": 8019,
      "▁Army": 8020,
      "▁Rec": 8021,
      "▁struct": 8022,
      "▁vide": 8023,
      "▁Californ": 8024,
      "▁كاس": 8025,
      "▁performan": 8026,
      "▁century": 8027,
      "▁السكنية": 8028,
      "▁should": 8029,
      "كني": 8030,
      "rag": 8031,
      "▁independ": 8032,
      "زوج": 8033,
      "▁deg": 8034,
      "▁mid": 8035,
      "▁الخارج": 8036,
      "فه": 8037,
      "▁Thom": 8038,
      "▁While": 8039,
      "▁قي": 8040,
      "▁Rich": 8041,
      "▁عدم": 8042,
      "▁television": 8043,
      "el,": 8044,
      "ops": 8045,
      "عار": 8046,
      "▁ويت": 8047,
      "ديل": 8048,
      "▁proper": 8049,
      "▁indust": 8050,
      "▁cas": 8051,
      "▁كي": 8052,
      "oor": 8053,
      "pite": 8054,
      "▁arm": 8055,
      "ويس": 8056,
      "▁Minister": 8057,
      "▁engine": 8058,
      "▁time,": 8059,
      "▁across": 8060,
      "▁fem": 8061,
      "▁(P": 8062,
      "▁ادارة": 8063,
      "▁للان": 8064,
      "▁الرسمي": 8065,
      "ination": 8066,
      "▁مسل": 8067,
      "▁تمت": 8068,
      "▁المجموع": 8069,
      "غيير": 8070,
      "▁الثان": 8071,
      "طاق": 8072,
      "▁review": 8073,
      "ex": 8074,
      "▁formed": 8075,
      "co": 8076,
      "▁fail": 8077,
      "▁rail": 8078,
      "▁ظهر": 8079,
      "▁red": 8080,
      "▁gl": 8081,
      "▁let": 8082,
      "▁director": 8083,
      "▁فئة": 8084,
      "▁جدا": 8085,
      "▁mother": 8086,
      "ests": 8087,
      "سام": 8088,
      "▁squ": 8089,
      "واب": 8090,
      "wards": 8091,
      "ained": 8092,
      "تش": 8093,
      "▁Act": 8094,
      ".,": 8095,
      "د.": 8096,
      "▁my": 8097,
      "▁professional": 8098,
      "▁hon": 8099,
      "▁east": 8100,
      "ha": 8101,
      "▁read": 8102,
      "▁Sal": 8103,
      "▁65": 8104,
      "نيسة": 8105,
      "▁Qu": 8106,
      "▁قري": 8107,
      "▁شر": 8108,
      "most": 8109,
      "▁منصب": 8110,
      "▁للك": 8111,
      "▁الحيو": 8112,
      "▁er": 8113,
      "▁player": 8114,
      "▁Royal": 8115,
      "▁region": 8116,
      "▁agre": 8117,
      "▁working": 8118,
      "ينات": 8119,
      "▁sour": 8120,
      "لايا": 8121,
      "ishing": 8122,
      "▁grow": 8123,
      "▁2005": 8124,
      "▁سل": 8125,
      "▁الجديدة": 8126,
      "ipp": 8127,
      "▁recorded": 8128,
      "▁although": 8129,
      "▁الكثير": 8130,
      "▁اقليم": 8131,
      "▁184": 8132,
      "▁inform": 8133,
      "-g": 8134,
      "▁الكتاب": 8135,
      "طرة": 8136,
      "▁Ma": 8137,
      "▁ground": 8138,
      "arliam": 8139,
      "irl": 8140,
      "▁low": 8141,
      "▁مكتب": 8142,
      "▁signific": 8143,
      "ارت": 8144,
      "▁version": 8145,
      "▁exist": 8146,
      "▁سبيل": 8147,
      "▁الاعل": 8148,
      "▁Stud": 8149,
      "▁الهي": 8150,
      "▁منتخب": 8151,
      "craft": 8152,
      "ocr": 8153,
      "جان": 8154,
      "▁محا": 8155,
      "وائل": 8156,
      "▁Instit": 8157,
      "ساب": 8158,
      "rain": 8159,
      "▁campaign": 8160,
      "arliament": 8161,
      "▁star": 8162,
      "حتوي": 8163,
      "▁عاما.": 8164,
      "▁التعليم": 8165,
      "▁الاقتصاد": 8166,
      "▁hom": 8167,
      "▁daughter": 8168,
      "▁history": 8169,
      "▁المناطق": 8170,
      "▁typ": 8171,
      "وست": 8172,
      "nect": 8173,
      "▁assist": 8174,
      "▁individual": 8175,
      "atch": 8176,
      "▁toget": 8177,
      "▁reb": 8178,
      "▁الفي": 8179,
      "▁opened": 8180,
      "هاز": 8181,
      "▁2017": 8182,
      "▁together": 8183,
      "12": 8184,
      "▁وصف": 8185,
      "▁الكثافة": 8186,
      "▁افضل": 8187,
      "▁employ": 8188,
      "تائج": 8189,
      "▁word": 8190,
      "▁جانب": 8191,
      "ula": 8192,
      "unicip": 8193,
      "املة": 8194,
      "▁making": 8195,
      "▁وتوزع": 8196,
      "▁David": 8197,
      "▁games": 8198,
      "فظ": 8199,
      "▁capt": 8200,
      "now": 8201,
      "▁gradu": 8202,
      "ont": 8203,
      "▁strong": 8204,
      "▁توفي": 8205,
      "شاركة": 8206,
      "▁يص": 8207,
      "▁Que": 8208,
      "▁سطح": 8209,
      "▁Islam": 8210,
      "ising": 8211,
      "ceed": 8212,
      "▁story": 8213,
      "عمل": 8214,
      "▁aut": 8215,
      "–0": 8216,
      "فيذ": 8217,
      "وجه": 8218,
      "دمات": 8219,
      "▁وصل": 8220,
      "▁fund": 8221,
      "راس": 8222,
      "▁light": 8223,
      "▁black": 8224,
      "-M": 8225,
      "▁areas": 8226,
      "▁recogn": 8227,
      "هرب": 8228,
      "▁rock": 8229,
      "▁separ": 8230,
      "▁less": 8231,
      "قبل": 8232,
      "▁موقع": 8233,
      "▁Sa": 8234,
      "▁language": 8235,
      "▁الحق": 8236,
      "▁killed": 8237,
      "▁site": 8238,
      "▁الانجلي": 8239,
      "▁civil": 8240,
      "▁المانيا": 8241,
      "▁ten": 8242,
      "ar,": 8243,
      "ce.": 8244,
      "▁الدم": 8245,
      "▁الخط": 8246,
      "▁goal": 8247,
      "ule": 8248,
      "nder": 8249,
      "ories": 8250,
      "anish": 8251,
      "bs": 8252,
      "▁المعل": 8253,
      "شارك": 8254,
      "▁يستخدم": 8255,
      "▁nov": 8256,
      "نائ": 8257,
      "حيد": 8258,
      "ارس": 8259,
      "▁السا": 8260,
      "▁James": 8261,
      "itect": 8262,
      "▁0": 8263,
      "▁الفق": 8264,
      "▁contrib": 8265,
      "▁يكن": 8266,
      "▁(w": 8267,
      "▁طول": 8268,
      "يه": 8269,
      "▁cour": 8270,
      "▁St.": 8271,
      "وقف": 8272,
      "▁fight": 8273,
      "▁بول": 8274,
      "▁مقابل": 8275,
      "▁لد": 8276,
      "▁فريق": 8277,
      "ries": 8278,
      "▁River": 8279,
      "▁متر": 8280,
      "تمر": 8281,
      "imately": 8282,
      "▁الحكوم": 8283,
      "▁الثلا": 8284,
      "فية": 8285,
      "▁inj": 8286,
      "▁شهر": 8287,
      "اني،": 8288,
      "ري،": 8289,
      "ك،": 8290,
      "▁يل": 8291,
      "▁west": 8292,
      "▁Sam": 8293,
      "▁Arm": 8294,
      "▁(بال": 8295,
      "▁does": 8296,
      "▁فلكية،": 8297,
      "ought": 8298,
      "ديمقرا": 8299,
      "▁حيات": 8300,
      "lymp": 8301,
      "▁successful": 8302,
      "ened": 8303,
      "▁get": 8304,
      "ثلا": 8305,
      "▁suff": 8306,
      "▁produc": 8307,
      "▁مؤس": 8308,
      "▁اطفال": 8309,
      "lo": 8310,
      "▁works": 8311,
      "▁الفن": 8312,
      "4،": 8313,
      "▁ide": 8314,
      "▁لو": 8315,
      "▁critic": 8316,
      "itive": 8317,
      "▁Hen": 8318,
      "▁Red": 8319,
      "▁mater": 8320,
      "olic": 8321,
      "▁\"A": 8322,
      "▁never": 8323,
      "قيمة": 8324,
      "▁قتل": 8325,
      "▁fire": 8326,
      "▁الانسان": 8327,
      "cy": 8328,
      "▁exec": 8329,
      "دان": 8330,
      "▁Nor": 8331,
      "▁وغ": 8332,
      "▁mar": 8333,
      "ناة": 8334,
      "▁مبا": 8335,
      "▁somet": 8336,
      "▁خارج": 8337,
      "ibr": 8338,
      "▁الدوري": 8339,
      "3)": 8340,
      "▁appl": 8341,
      "امية": 8342,
      "▁انح": 8343,
      "داف": 8344,
      "akes": 8345,
      "▁يعرف": 8346,
      "ym": 8347,
      "▁foc": 8348,
      "▁1990": 8349,
      "-h": 8350,
      "▁التط": 8351,
      "▁Sen": 8352,
      "هاب": 8353,
      "ociety": 8354,
      "▁z": 8355,
      "▁forces": 8356,
      "▁Olymp": 8357,
      "طال": 8358,
      "▁اقت": 8359,
      "▁mot": 8360,
      "▁Ste": 8361,
      "ترا": 8362,
      "▁اير": 8363,
      "utive": 8364,
      "ثيل": 8365,
      "▁sugg": 8366,
      "▁محافظة": 8367,
      "▁الحديث": 8368,
      "ate,": 8369,
      "▁شار": 8370,
      "▁التر": 8371,
      "▁island": 8372,
      "anted": 8373,
      "▁tre": 8374,
      "2)": 8375,
      "erb": 8376,
      "raq": 8377,
      "▁واب": 8378,
      "▁Alex": 8379,
      "ماية": 8380,
      "irm": 8381,
      "▁Court": 8382,
      "▁becom": 8383,
      "▁gave": 8384,
      "▁الاخر": 8385,
      "غط": 8386,
      "▁lo": 8387,
      "▁however,": 8388,
      "11": 8389,
      "▁كيل": 8390,
      "جية": 8391,
      "ael": 8392,
      "▁العثم": 8393,
      "▁polic": 8394,
      "▁prot": 8395,
      "ظي": 8396,
      "▁Bra": 8397,
      "▁\"I": 8398,
      "▁انتقل": 8399,
      "▁Some": 8400,
      "▁بيانات": 8401,
      "▁doc": 8402,
      "▁الوا": 8403,
      "▁Off": 8404,
      "val": 8405,
      "لق": 8406,
      "▁قوات": 8407,
      "▁الاعمال": 8408,
      "ots": 8409,
      "ئات": 8410,
      "ينما": 8411,
      "▁القي": 8412,
      "▁يوما": 8413,
      "▁taken": 8414,
      "▁السكانية": 8415,
      "جرة": 8416,
      "▁live": 8417,
      "▁اليه": 8418,
      "ريا": 8419,
      "لاقة": 8420,
      "leg": 8421,
      "▁ليس": 8422,
      "iting": 8423,
      "▁اللي": 8424,
      "▁مدار": 8425,
      "▁wid": 8426,
      "▁developed": 8427,
      "▁بحسب": 8428,
      "▁كلا": 8429,
      "▁والخ": 8430,
      "▁المعروف": 8431,
      "▁استمر": 8432,
      "▁صف": 8433,
      "شاط": 8434,
      "ع،": 8435,
      "▁الدفاع": 8436,
      "حق": 8437,
      "▁نقل": 8438,
      "▁days": 8439,
      "▁مشروع": 8440,
      "cent": 8441,
      "▁بغ": 8442,
      "▁Central": 8443,
      "سكري": 8444,
      "arter": 8445,
      "▁2018": 8446,
      "▁rank": 8447,
      "▁Party": 8448,
      "▁دم": 8449,
      "▁hous": 8450,
      "▁Mag": 8451,
      "urity": 8452,
      "ida": 8453,
      "ز،": 8454,
      "▁how": 8455,
      "yd": 8456,
      "fic": 8457,
      "▁الامير": 8458,
      "▁والاربعين": 8459,
      "▁County": 8460,
      "▁Black": 8461,
      "▁الشرق": 8462,
      "▁coach": 8463,
      "omm": 8464,
      "▁avail": 8465,
      "▁اعادة": 8466,
      "▁playing": 8467,
      "▁African": 8468,
      "▁يعد": 8469,
      "▁للب": 8470,
      "▁بانه": 8471,
      "ee": 8472,
      "▁المرت": 8473,
      "ure,": 8474,
      "▁throughout": 8475,
      "▁تستخدم": 8476,
      "▁Lou": 8477,
      "▁موج": 8478,
      "▁طبي": 8479,
      "▁remained": 8480,
      "▁واي": 8481,
      "on.": 8482,
      "▁الامر": 8483,
      "ports": 8484,
      "▁جهة": 8485,
      "▁stri": 8486,
      "ration": 8487,
      "▁وعدد": 8488,
      "▁تقري": 8489,
      "▁court": 8490,
      "▁earl": 8491,
      "70": 8492,
      "▁Western": 8493,
      "▁النق": 8494,
      "نيف": 8495,
      "▁market": 8496,
      "ادرة": 8497,
      "▁تك": 8498,
      "▁امت": 8499,
      "▁party": 8500,
      "تخابات": 8501,
      "▁مسير": 8502,
      "سيم": 8503,
      "▁trib": 8504,
      "▁تعيش": 8505,
      "arian": 8506,
      "▁relation": 8507,
      "▁construction": 8508,
      "▁التاس": 8509,
      "▁الرح": 8510,
      "▁الاعت": 8511,
      "▁Paul": 8512,
      "igned": 8513,
      "shire": 8514,
      "▁largest": 8515,
      "▁سلسلة": 8516,
      "▁significant": 8517,
      "ama": 8518,
      "ma": 8519,
      "صائ": 8520,
      "is.": 8521,
      "▁Mad": 8522,
      "لاقات": 8523,
      "▁عضو": 8524,
      "▁cast": 8525,
      "▁باستخدام": 8526,
      "▁المجتمع": 8527,
      "ارا": 8528,
      "▁2019": 8529,
      "▁183": 8530,
      "-C": 8531,
      "▁(201": 8532,
      "▁النساء": 8533,
      "ential": 8534,
      "1)": 8535,
      "▁stated": 8536,
      "خفض": 8537,
      "25": 8538,
      "▁«م": 8539,
      "▁القد": 8540,
      "▁front": 8541,
      "▁نصف": 8542,
      "estival": 8543,
      "que": 8544,
      "▁Egyptian": 8545,
      "atural": 8546,
      "▁Mac": 8547,
      "blem": 8548,
      "▁شرق": 8549,
      "ي.": 8550,
      "▁الاطفال": 8551,
      "▁(N": 8552,
      "▁consist": 8553,
      "▁وتح": 8554,
      "طول": 8555,
      "▁completed": 8556,
      "▁dev": 8557,
      "▁فل": 8558,
      "▁Australian": 8559,
      "▁قرية": 8560,
      "▁originally": 8561,
      "▁First": 8562,
      "ification": 8563,
      "▁circ": 8564,
      "▁free": 8565,
      "van": 8566,
      "ينت": 8567,
      "▁الناس": 8568,
      "▁leading": 8569,
      "▁والص": 8570,
      "▁المثال": 8571,
      "▁To": 8572,
      "urd": 8573,
      "▁رم": 8574,
      "▁بعضهم": 8575,
      "▁put": 8576,
      "▁Pri": 8577,
      "▁دولة": 8578,
      "▁الكلي": 8579,
      "ump": 8580,
      "هير": 8581,
      "▁health": 8582,
      "▁ويم": 8583,
      "▁subsequ": 8584,
      "cer": 8585,
      "كيل": 8586,
      "ospital": 8587,
      "صوص": 8588,
      "▁away": 8589,
      "▁seven": 8590,
      "▁استر": 8591,
      "▁students": 8592,
      "▁بالل": 8593,
      "▁contract": 8594,
      "▁لسنة": 8595,
      "▁القري": 8596,
      "▁بداية": 8597,
      "قتل": 8598,
      "bert": 8599,
      "hest": 8600,
      "▁المرض": 8601,
      "4)": 8602,
      "▁Pat": 8603,
      "15": 8604,
      "شن": 8605,
      "▁cross": 8606,
      "▁منهم": 8607,
      "▁Iraq": 8608,
      "iding": 8609,
      "▁condu": 8610,
      "▁الشع": 8611,
      "دو": 8612,
      "▁لاحقا": 8613,
      "▁الفلك": 8614,
      "لفزي": 8615,
      "▁المصرية": 8616,
      "itz": 8617,
      "▁راس": 8618,
      "6،": 8619,
      "ability": 8620,
      "▁والش": 8621,
      "▁king": 8622,
      "ks": 8623,
      "▁اعلي": 8624,
      "▁ينتمي": 8625,
      "▁الحكم": 8626,
      "▁الفئة": 8627,
      "▁cost": 8628,
      "▁كلية": 8629,
      "▁Mart": 8630,
      "ateg": 8631,
      "▁Department": 8632,
      "ريات": 8633,
      "▁حرب": 8634,
      "دة.": 8635,
      "وزي": 8636,
      "ari": 8637,
      "▁عهد": 8638,
      "\nThe": 8639,
      "elt": 8640,
      "▁(ا": 8641,
      "▁Road": 8642,
      "▁الحياة": 8643,
      "شفي": 8644,
      "▁برنامج": 8645,
      "icle": 8646,
      "طلح": 8647,
      "▁season,": 8648,
      "بكة": 8649,
      "▁Hall": 8650,
      "▁test": 8651,
      "علق": 8652,
      "▁respons": 8653,
      "▁Mary": 8654,
      "▁tour": 8655,
      "▁لاول": 8656,
      "▁enc": 8657,
      "▁impro": 8658,
      "ورج": 8659,
      "▁Although": 8660,
      "الح": 8661,
      "▁تعتبر": 8662,
      "▁Sim": 8663,
      "cher": 8664,
      "▁فاز": 8665,
      "▁plan": 8666,
      "قاء": 8667,
      "▁finished": 8668,
      "▁entire": 8669,
      "▁السابق": 8670,
      "▁anim": 8671,
      "▁dam": 8672,
      "خصص": 8673,
      "▁Robert": 8674,
      "ذج": 8675,
      "utes": 8676,
      "▁مغ": 8677,
      "▁eight": 8678,
      "حث": 8679,
      "▁انشاء": 8680,
      "▁الحا": 8681,
      "90": 8682,
      "ederal": 8683,
      "▁الدولية": 8684,
      "ances": 8685,
      "▁والج": 8686,
      "▁fall": 8687,
      "▁Greek": 8688,
      "هو": 8689,
      "▁division": 8690,
      "▁حاليا": 8691,
      "▁competition": 8692,
      "▁السوفي": 8693,
      "aint": 8694,
      "▁بب": 8695,
      "▁القب": 8696,
      "▁least": 8697,
      "ope": 8698,
      "▁وبالت": 8699,
      "hood": 8700,
      "mb": 8701,
      "viron": 8702,
      "▁sch": 8703,
      "▁الاناث": 8704,
      "▁طب": 8705,
      "▁season.": 8706,
      "▁anc": 8707,
      "▁يب": 8708,
      "وذ": 8709,
      "▁Mu": 8710,
      "▁للاس": 8711,
      "-st": 8712,
      "▁الديمقرا": 8713,
      "ستان": 8714,
      "▁نفسه": 8715,
      "▁capital": 8716,
      "ب،": 8717,
      "▁المجلس": 8718,
      "▁مختلفة": 8719,
      "al.": 8720,
      "▁باك": 8721,
      "▁اشهر": 8722,
      "▁league": 8723,
      "▁الاكثر": 8724,
      "de": 8725,
      "ili": 8726,
      "here": 8727,
      "ركات": 8728,
      "▁phys": 8729,
      "▁eventually": 8730,
      "▁خاص": 8731,
      "hab": 8732,
      "ؤول": 8733,
      "▁Group": 8734,
      "شل": 8735,
      "▁عاد": 8736,
      "▁performed": 8737,
      "▁حركة": 8738,
      "oll": 8739,
      "▁UK": 8740,
      "▁4.": 8741,
      "عاية": 8742,
      "18": 8743,
      "▁تبلغ": 8744,
      "er's": 8745,
      "▁Cong": 8746,
      "chie": 8747,
      "ity.": 8748,
      "▁Je": 8749,
      "▁Union": 8750,
      "▁followed": 8751,
      "▁must": 8752,
      "▁Kingdom": 8753,
      "▁لتح": 8754,
      "ؤلاء": 8755,
      "▁اليون": 8756,
      "elling": 8757,
      "▁liter": 8758,
      "▁tax": 8759,
      "berg": 8760,
      "▁غالبا": 8761,
      "▁Cap": 8762,
      "▁الساد": 8763,
      "▁نتيجة": 8764,
      "▁سجلت": 8765,
      "▁تطوير": 8766,
      "▁امريكي،": 8767,
      "▁div": 8768,
      "▁available": 8769,
      "▁Bay": 8770,
      "▁حر": 8771,
      "كسي": 8772,
      "▁وزارة": 8773,
      "▁محد": 8774,
      "▁الفرنسي": 8775,
      "▁acqu": 8776,
      "▁يعمل": 8777,
      "▁board": 8778,
      "ائرة": 8779,
      "▁النها": 8780,
      "▁المنزل": 8781,
      "ney": 8782,
      "▁bo": 8783,
      "▁2003": 8784,
      "▁الوحدات": 8785,
      "▁انواع": 8786,
      "emor": 8787,
      "▁وتع": 8788,
      "▁الصنا": 8789,
      "less": 8790,
      "▁able": 8791,
      "▁regular": 8792,
      "▁الطاقة": 8793,
      "▁arg": 8794,
      "or.": 8795,
      "roy": 8796,
      "▁discover": 8797,
      "▁الكويكبات": 8798,
      "▁لذلك": 8799,
      "ilities": 8800,
      "▁للج": 8801,
      "ارقة": 8802,
      "▁viol": 8803,
      "CA": 8804,
      "▁الموسي": 8805,
      "▁you": 8806,
      "▁البيض": 8807,
      "icated": 8808,
      "asc": 8809,
      "ونة": 8810,
      "▁once": 8811,
      "▁Academ": 8812,
      "▁material": 8813,
      "▁year,": 8814,
      "▁central": 8815,
      "asing": 8816,
      "ار،": 8817,
      "ريض": 8818,
      "▁colla": 8819,
      "ry,": 8820,
      "ام،": 8821,
      "▁Its": 8822,
      "▁\"the": 8823,
      "▁الشمس": 8824,
      "المي": 8825,
      "▁بو": 8826,
      "75": 8827,
      "uter": 8828,
      "rup": 8829,
      "فاعل": 8830,
      "ولت": 8831,
      "us.": 8832,
      "oe": 8833,
      "يبة": 8834,
      "sec": 8835,
      "ity,": 8836,
      "▁الانس": 8837,
      "▁ste": 8838,
      "▁sele": 8839,
      "▁وتق": 8840,
      "▁know": 8841,
      "▁night": 8842,
      "▁condition": 8843,
      "▁lik": 8844,
      "▁انش": 8845,
      "▁فن": 8846,
      "▁السعود": 8847,
      "▁Prov": 8848,
      "▁واض": 8849,
      "▁phot": 8850,
      "▁منظمة": 8851,
      "ماع": 8852,
      "دة،": 8853,
      "برز": 8854,
      "▁النس": 8855,
      "▁اسرائيل": 8856,
      "▁سان": 8857,
      "ways": 8858,
      "right": 8859,
      "▁الواقع": 8860,
      "wood": 8861,
      "▁times": 8862,
      "▁مز": 8863,
      "▁ill": 8864,
      "head": 8865,
      "▁بص": 8866,
      "امين": 8867,
      "▁Tra": 8868,
      "ences": 8869,
      "ations.": 8870,
      "rought": 8871,
      "▁Wash": 8872,
      "هن": 8873,
      "hod": 8874,
      "▁وهذا": 8875,
      "7)": 8876,
      "▁bank": 8877,
      "▁والستين": 8878,
      "▁غر": 8879,
      "▁تقريبا": 8880,
      "▁Law": 8881,
      "▁الاحصاء": 8882,
      "▁البن": 8883,
      "▁Great": 8884,
      "▁aver": 8885,
      "ressed": 8886,
      "▁Serv": 8887,
      "▁designed": 8888,
      "▁interest": 8889,
      "▁qual": 8890,
      "▁body": 8891,
      "▁BC": 8892,
      "سمح": 8893,
      "▁say": 8894,
      "فاق": 8895,
      "▁امر": 8896,
      "▁\"B": 8897,
      "▁والث": 8898,
      "▁either": 8899,
      "▁القاهرة": 8900,
      "▁respect": 8901,
      "▁includes": 8902,
      "▁لف": 8903,
      "تن": 8904,
      "ranch": 8905,
      "vironment": 8906,
      "▁scored": 8907,
      "▁اكتشف": 8908,
      "sy": 8909,
      "▁الجديد": 8910,
      "▁account": 8911,
      "iers": 8912,
      "ظا": 8913,
      "▁seen": 8914,
      "لول": 8915,
      "▁flow": 8916,
      "▁architect": 8917,
      "حر": 8918,
      "▁Ham": 8919,
      "▁الداخل": 8920,
      "▁كثافة": 8921,
      "▁replaced": 8922,
      "▁مدرسة": 8923,
      "▁Im": 8924,
      "isl": 8925,
      "▁تال": 8926,
      "ويورك": 8927,
      "▁1980": 8928,
      "▁قامت": 8929,
      "▁occur": 8930,
      "جات": 8931,
      "▁مباراة": 8932,
      "▁عين": 8933,
      "اتب": 8934,
      "▁Wal": 8935,
      "▁study": 8936,
      "قافة": 8937,
      "ويكب": 8938,
      "▁video": 8939,
      "rd": 8940,
      "▁instead": 8941,
      "▁involved": 8942,
      "▁لمن": 8943,
      "▁der": 8944,
      "▁رقم": 8945,
      "▁استخدم": 8946,
      "▁TV": 8947,
      "▁(H": 8948,
      "▁الفلسط": 8949,
      "قيم": 8950,
      "▁Club": 8951,
      "ولد": 8952,
      "▁كري": 8953,
      "▁والر": 8954,
      "lah": 8955,
      "▁provided": 8956,
      "▁range": 8957,
      "▁روس": 8958,
      "▁يقوم": 8959,
      "me": 8960,
      "▁problem": 8961,
      "▁access": 8962,
      "▁constit": 8963,
      "▁sound": 8964,
      "وسف": 8965,
      "▁الاوروبي": 8966,
      "تيار": 8967,
      "ician": 8968,
      "توسط": 8969,
      "▁cand": 8970,
      "▁treat": 8971,
      "ique": 8972,
      "▁reached": 8973,
      "ونغ": 8974,
      "▁Since": 8975,
      "istry": 8976,
      "اث.": 8977,
      "ittee": 8978,
      "▁الاصل": 8979,
      "▁غرب": 8980,
      "سك": 8981,
      "ور،": 8982,
      "-B": 8983,
      "▁صحي": 8984,
      "▁60": 8985,
      "rown": 8986,
      "▁انجل": 8987,
      "▁J.": 8988,
      "▁بالك": 8989,
      "جاز": 8990,
      "medi": 8991,
      "لندا": 8992,
      "▁neg": 8993,
      "22": 8994,
      "oul": 8995,
      "ولات": 8996,
      "rim": 8997,
      "▁الروا": 8998,
      "aper": 8999,
      "جب": 9000,
      "▁My": 9001,
      "وقي": 9002,
      "▁fig": 9003,
      "▁Mer": 9004,
      "▁5.": 9005,
      "▁انحاء": 9006,
      "▁اعضاء": 9007,
      "▁(B": 9008,
      "oints": 9009,
      "▁Washington": 9010,
      "ure.": 9011,
      "▁اوروبا": 9012,
      "▁المرك": 9013,
      "ander": 9014,
      "▁Vir": 9015,
      "▁نهر": 9016,
      "فاظ": 9017,
      "▁الاسلامية": 9018,
      "band": 9019,
      "▁product": 9020,
      "▁Russian": 9021,
      "▁placed": 9022,
      "عة،": 9023,
      "▁موسي": 9024,
      "▁accept": 9025,
      "13": 9026,
      "▁aircraft": 9027,
      "▁المحت": 9028,
      "رة،": 9029,
      "incip": 9030,
      "▁نس": 9031,
      "▁قسم": 9032,
      "▁جعل": 9033,
      "▁plant": 9034,
      "▁sem": 9035,
      "▁دراسة": 9036,
      "▁featured": 9037,
      "▁Thomas": 9038,
      "apt": 9039,
      "▁Ze": 9040,
      "-in": 9041,
      "mar": 9042,
      "rig": 9043,
      "زمة": 9044,
      "▁dou": 9045,
      "▁الصغيرة": 9046,
      "▁الشركة": 9047,
      "14": 9048,
      "burg": 9049,
      "▁tourn": 9050,
      "aged": 9051,
      "unn": 9052,
      "▁السف": 9053,
      "▁resident": 9054,
      "▁Mex": 9055,
      "oid": 9056,
      "سيا": 9057,
      "▁past": 9058,
      "position": 9059,
      "▁et": 9060,
      "▁دار": 9061,
      "▁\"M": 9062,
      "ate.": 9063,
      "▁المز": 9064,
      "▁coast": 9065,
      "▁اللات": 9066,
      "ندن": 9067,
      "فيد": 9068,
      "erous": 9069,
      "▁هؤلاء": 9070,
      "▁case": 9071,
      "راث": 9072,
      "▁base": 9073,
      "▁الرس": 9074,
      "▁years.": 9075,
      "5)": 9076,
      "6)": 9077,
      "لاك": 9078,
      "▁Lat": 9079,
      "عيين": 9080,
      "▁السياسي": 9081,
      "iles": 9082,
      "ells": 9083,
      "▁العربي": 9084,
      "▁Muslim": 9085,
      "▁cop": 9086,
      "ونت": 9087,
      "▁Franc": 9088,
      "▁aud": 9089,
      "▁transl": 9090,
      "▁والان": 9091,
      "▁واقعة": 9092,
      "▁occup": 9093,
      "▁Republic": 9094,
      "▁Angel": 9095,
      "▁تعد": 9096,
      "▁student": 9097,
      "▁sen": 9098,
      "ائد": 9099,
      "▁بات": 9100,
      "ائق": 9101,
      "aut": 9102,
      "▁upon": 9103,
      "▁Palest": 9104,
      "▁البشر": 9105,
      "وبية": 9106,
      "▁النف": 9107,
      "ours": 9108,
      "مسة": 9109,
      "▁مال": 9110,
      "▁وبالتالي": 9111,
      "gin": 9112,
      "ror": 9113,
      "▁fav": 9114,
      "stand": 9115,
      "▁الجام": 9116,
      "▁time.": 9117,
      "8)": 9118,
      "▁اهل": 9119,
      "امر": 9120,
      "▁network": 9121,
      "ations,": 9122,
      "▁2001": 9123,
      "▁close": 9124,
      "▁الاخت": 9125,
      "ديو": 9126,
      "ollowing": 9127,
      "▁anal": 9128,
      "▁2022": 9129,
      "tar": 9130,
      "▁pay": 9131,
      "▁hit": 9132,
      "▁Met": 9133,
      "▁southern": 9134,
      "▁الاسي": 9135,
      "▁white": 9136,
      "▁mean": 9137,
      "▁Italian": 9138,
      "▁Grand": 9139,
      "ude": 9140,
      "▁Cath": 9141,
      "▁الغرب": 9142,
      "طان": 9143,
      "▁Hill": 9144,
      "▁—": 9145,
      "▁عقد": 9146,
      "▁bar": 9147,
      "▁(\"": 9148,
      "ارض": 9149,
      "▁العمرية": 9150,
      "atory": 9151,
      "▁Museum": 9152,
      "▁الكر": 9153,
      "▁private": 9154,
      "▁وتت": 9155,
      "cript": 9156,
      "▁باست": 9157,
      "▁usually": 9158,
      "▁travel": 9159,
      "▁directed": 9160,
      "عمال": 9161,
      "▁saw": 9162,
      "▁العسكرية": 9163,
      "udd": 9164,
      "▁(199": 9165,
      "▁stage": 9166,
      "▁Jack": 9167,
      "مار": 9168,
      "▁تؤ": 9169,
      "▁اللعب": 9170,
      "▁effort": 9171,
      "▁الميلاد": 9172,
      "▁2002": 9173,
      "▁Charles": 9174,
      "go": 9175,
      "hold": 9176,
      "▁عق": 9177,
      "▁But": 9178,
      "inese": 9179,
      "▁(the": 9180,
      "▁services": 9181,
      "▁الرئيسية": 9182,
      "▁according": 9183,
      "▁schol": 9184,
      "▁miss": 9185,
      "▁2021": 9186,
      "▁البط": 9187,
      "in.": 9188,
      "▁تاثير": 9189,
      "▁Emp": 9190,
      "▁العصر": 9191,
      "▁انثي": 9192,
      "▁فض": 9193,
      "▁برا": 9194,
      "▁1999": 9195,
      "ength": 9196,
      "خرج": 9197,
      "نين": 9198,
      "▁No.": 9199,
      "mad": 9200,
      "ights": 9201,
      "ving": 9202,
      "علي": 9203,
      "▁حم": 9204,
      "▁Other": 9205,
      "▁subject": 9206,
      "▁radio": 9207,
      "▁تقدم": 9208,
      "لمان": 9209,
      "▁movement": 9210,
      "ولوجيا": 9211,
      "▁تنا": 9212,
      "▁municip": 9213,
      "▁المعيش": 9214,
      "▁fourth": 9215,
      "▁(D": 9216,
      "▁الهاد": 9217,
      "▁التاسع": 9218,
      "t,": 9219,
      "▁Rail": 9220,
      "▁واح": 9221,
      "▁حكومة": 9222,
      "▁اوا": 9223,
      "▁\"C": 9224,
      "cing": 9225,
      "ned": 9226,
      "▁obs": 9227,
      "▁wind": 9228,
      "▁rather": 9229,
      "▁وسط": 9230,
      "▁الازواج": 9231,
      "▁Mark": 9232,
      "▁plann": 9233,
      "▁وبلغت": 9234,
      "▁السياسية": 9235,
      "▁الاسم": 9236,
      "▁change": 9237,
      "▁المال": 9238,
      "اتها": 9239,
      "شرون": 9240,
      "▁3,": 9241,
      "▁Arch": 9242,
      "pecially": 9243,
      "▁teams": 9244,
      "▁decision": 9245,
      "atre": 9246,
      "sel": 9247,
      "▁action": 9248,
      "▁Pet": 9249,
      "▁whose": 9250,
      "▁document": 9251,
      "▁press": 9252,
      "▁Trans": 9253,
      "▁Music": 9254,
      "▁جمهورية": 9255,
      "onst": 9256,
      "▁ser": 9257,
      "▁release": 9258,
      "▁northern": 9259,
      "0,000": 9260,
      "▁Association": 9261,
      "▁عرف": 9262,
      "▁الجزء": 9263,
      "iter": 9264,
      "acher": 9265,
      "rel": 9266,
      "▁reve": 9267,
      "▁Vict": 9268,
      "▁جائزة": 9269,
      "▁instit": 9270,
      "فضل": 9271,
      "▁pot": 9272,
      "لاحظ": 9273,
      "▁conv": 9274,
      "انيون": 9275,
      "▁الجنسي": 9276,
      "راح": 9277,
      "▁المقد": 9278,
      "▁Op": 9279,
      "acy": 9280,
      "تمام": 9281,
      "▁police": 9282,
      "▁Democr": 9283,
      "▁المشا": 9284,
      "aval": 9285,
      "▁Up": 9286,
      "▁الدكت": 9287,
      "▁features": 9288,
      "▁كول": 9289,
      "▁وين": 9290,
      "▁previously": 9291,
      "بن": 9292,
      "▁القص": 9293,
      "▁Ben": 9294,
      "lag": 9295,
      "▁years,": 9296,
      "▁(I": 9297,
      "حاب": 9298,
      "حافظة": 9299,
      "▁كذلك": 9300,
      "▁Rad": 9301,
      "aching": 9302,
      "▁وات": 9303,
      "arily": 9304,
      "et,": 9305,
      "imate": 9306,
      "▁Don": 9307,
      "▁زي": 9308,
      "ري.": 9309,
      "retary": 9310,
      "▁سمي": 9311,
      "▁look": 9312,
      "▁Jewish": 9313,
      "▁brought": 9314,
      "▁mus": 9315,
      "رنت": 9316,
      "زو": 9317,
      "▁sex": 9318,
      "▁situ": 9319,
      "سار": 9320,
      "▁pur": 9321,
      "▁neigh": 9322,
      "الد": 9323,
      "▁Cons": 9324,
      "تاح": 9325,
      "▁Sk": 9326,
      "▁Japanese": 9327,
      "نب": 9328,
      "oviet": 9329,
      "▁المؤس": 9330,
      "ment,": 9331,
      "▁بمتوسط": 9332,
      "▁افت": 9333,
      "▁God": 9334,
      "فاء": 9335,
      "▁year.": 9336,
      "ih": 9337,
      "خول": 9338,
      "▁المشت": 9339,
      "ice,": 9340,
      "▁Bill": 9341,
      "▁العق": 9342,
      "ساعد": 9343,
      "▁model": 9344,
      "▁candid": 9345,
      "▁almost": 9346,
      "▁35": 9347,
      "▁mass": 9348,
      "▁بدلا": 9349,
      "▁قدره": 9350,
      "واد": 9351,
      "▁territ": 9352,
      "aled": 9353,
      "▁edition": 9354,
      "▁provide": 9355,
      "▁المشروع": 9356,
      "▁تسمي": 9357,
      "ic,": 9358,
      "ير،": 9359,
      "▁learn": 9360,
      "▁يؤدي": 9361,
      "▁فران": 9362,
      "▁النوع": 9363,
      "▁نيويورك": 9364,
      "جاب": 9365,
      "aur": 9366,
      "ply": 9367,
      "لين": 9368,
      "▁Vol": 9369,
      "land,": 9370,
      "▁artist": 9371,
      "▁Tex": 9372,
      "▁Michael": 9373,
      "▁awarded": 9374,
      "▁الاه": 9375,
      "▁Rev": 9376,
      "▁حدث": 9377,
      "▁مناطق": 9378,
      "▁cou": 9379,
      "وارد": 9380,
      "kn": 9381,
      "lav": 9382,
      "▁Gold": 9383,
      "▁وجه": 9384,
      "▁cal": 9385,
      "▁نطاق": 9386,
      "▁للش": 9387,
      "▁\"W": 9388,
      "▁و«": 9389,
      "▁gold": 9390,
      "▁jud": 9391,
      "▁Jer": 9392,
      "▁المعلومات": 9393,
      "▁الهادئ": 9394,
      "▁تاس": 9395,
      "▁Chinese": 9396,
      "▁زيادة": 9397,
      "▁الاراضي": 9398,
      "▁مسيرته": 9399,
      "▁Lu": 9400,
      "iction": 9401,
      "▁wife": 9402,
      "▁اليهود": 9403,
      "▁(E": 9404,
      "▁تنظيم": 9405,
      "▁college": 9406,
      "▁achie": 9407,
      "امب": 9408,
      "▁للف": 9409,
      "▁ذوي": 9410,
      "▁space": 9411,
      "▁magaz": 9412,
      "تح": 9413,
      "▁الخلي": 9414,
      "علقة": 9415,
      "▁novel": 9416,
      "تهم": 9417,
      "قلال": 9418,
      "▁bord": 9419,
      "▁A.": 9420,
      "▁رسم": 9421,
      "▁training": 9422,
      "▁ask": 9423,
      "▁connect": 9424,
      "▁بالح": 9425,
      "▁section": 9426,
      "78": 9427,
      "▁\"T": 9428,
      "▁vo": 9429,
      "vert": 9430,
      "▁مجموع": 9431,
      "غيل": 9432,
      "▁مقيمة": 9433,
      "▁السنة": 9434,
      "▁Cont": 9435,
      "▁الرابع": 9436,
      "▁Following": 9437,
      "▁معهم،": 9438,
      "ancial": 9439,
      "itch": 9440,
      "▁bi": 9441,
      "▁Lab": 9442,
      "▁Canadian": 9443,
      "▁sil": 9444,
      "▁Jose": 9445,
      "▁الامن": 9446,
      "▁regard": 9447,
      "II": 9448,
      "irth": 9449,
      "▁paren": 9450,
      "ume": 9451,
      "▁fif": 9452,
      "▁180": 9453,
      "▁تعرض": 9454,
      "▁points": 9455,
      "وي،": 9456,
      "▁Record": 9457,
      "▁Ir": 9458,
      "ounter": 9459,
      "▁Spanish": 9460,
      "▁حقوق": 9461,
      "وتر": 9462,
      "▁1970": 9463,
      "▁office": 9464,
      "▁approx": 9465,
      "▁tournament": 9466,
      "asion": 9467,
      "duction": 9468,
      "▁months": 9469,
      "yp": 9470,
      "▁نمو": 9471,
      "200": 9472,
      "▁mix": 9473,
      "▁ويمكن": 9474,
      "▁نف": 9475,
      "▁relationship": 9476,
      "0%": 9477,
      "▁Inter": 9478,
      "▁broadcast": 9479,
      "▁جاء": 9480,
      "▁التقلي": 9481,
      "ورات": 9482,
      "▁بحث": 9483,
      "▁meas": 9484,
      "▁Institute": 9485,
      "ya": 9486,
      "▁see": 9487,
      "▁عبارة": 9488,
      "▁المعيشية": 9489,
      "عاون": 9490,
      "porary": 9491,
      "▁بف": 9492,
      "▁Just": 9493,
      "16": 9494,
      "mercial": 9495,
      "▁Richard": 9496,
      "35": 9497,
      "رخ": 9498,
      "▁المث": 9499,
      "west": 9500,
      "▁via": 9501,
      "ع.": 9502,
      "▁المياه": 9503,
      "▁investig": 9504,
      "▁بس": 9505,
      "enced": 9506,
      "▁بالع": 9507,
      "▁Wil": 9508,
      "▁اجراء": 9509,
      "▁تالفت": 9510,
      "▁(L": 9511,
      "▁بالف": 9512,
      "▁unit": 9513,
      "▁السكانية.": 9514,
      "▁المختلف": 9515,
      "▁التس": 9516,
      "▁تعمل": 9517,
      "هام": 9518,
      "وحة": 9519,
      "▁باري": 9520,
      "▁decided": 9521,
      "▁type": 9522,
      "▁جري": 9523,
      "كتر": 9524,
      "ورغ": 9525,
      "▁Fore": 9526,
      "▁esc": 9527,
      "ston": 9528,
      "n,": 9529,
      "▁اثر": 9530,
      "▁Sing": 9531,
      "▁Ear": 9532,
      "▁الظ": 9533,
      "▁wall": 9534,
      "▁pers": 9535,
      "ج،": 9536,
      "▁قدره.": 9537,
      "t.": 9538,
      "▁Second": 9539,
      "▁باب": 9540,
      "▁den": 9541,
      "▁الاجتماعية": 9542,
      "▁style": 9543,
      "▁العائلات.": 9544,
      "\n-": 9545,
      "▁allowed": 9546,
      "inent": 9547,
      "▁والسكني": 9548,
      "بيق": 9549,
      "▁currently": 9550,
      "▁للاسر،": 9551,
      "هار": 9552,
      "▁Scott": 9553,
      "▁وحتي": 9554,
      "▁Bur": 9555,
      "▁الفريق": 9556,
      "esh": 9557,
      "▁Tor": 9558,
      "▁far": 9559,
      "▁المجال": 9560,
      "▁Abd": 9561,
      "▁النو": 9562,
      "▁مواليد": 9563,
      "شة": 9564,
      "ground": 9565,
      "▁توجد": 9566,
      "ico": 9567,
      "▁الاصليين": 9568,
      "▁distrib": 9569,
      "▁fut": 9570,
      "as.": 9571,
      "▁الجامعة": 9572,
      "▁journal": 9573,
      "▁cut": 9574,
      "▁attended": 9575,
      "▁Henry": 9576,
      "دريب": 9577,
      "▁صدر": 9578,
      "اق": 9579,
      "▁وو": 9580,
      "▁outside": 9581,
      "ibrary": 9582,
      "iff": 9583,
      "▁maintain": 9584,
      "اوية": 9585,
      "ضية": 9586,
      "طاء": 9587,
      "▁شريك،": 9588,
      "▁information": 9589,
      "▁added": 9590,
      "eg": 9591,
      "▁الجمه": 9592,
      "ماد": 9593,
      "▁معركة": 9594,
      "▁رفض": 9595,
      "▁Mos": 9596,
      "▁force": 9597,
      "17": 9598,
      "▁army": 9599,
      "▁معيلات": 9600,
      "yr": 9601,
      "ators": 9602,
      "▁frequ": 9603,
      "ue,": 9604,
      "▁الكنيسة": 9605,
      "▁اواخر": 9606,
      "▁لش": 9607,
      "▁religious": 9608,
      "9)": 9609,
      "واصل": 9610,
      "▁active": 9611,
      "▁اربعة": 9612,
      "غال": 9613,
      "▁فال": 9614,
      "▁room": 9615,
      "cle": 9616,
      "تون": 9617,
      "نوان": 9618,
      "▁لندن": 9619,
      "▁الفرد": 9620,
      "▁المعا": 9621,
      "▁reason": 9622,
      "ment.": 9623,
      "annel": 9624,
      "▁gun": 9625,
      "▁المجموعة": 9626,
      "▁Miss": 9627,
      "ناصر": 9628,
      "▁quest": 9629,
      "▁County,": 9630,
      "انية،": 9631,
      "clus": 9632,
      "▁1998": 9633,
      "▁العلوم": 9634,
      "▁parts": 9635,
      "ادية": 9636,
      "▁prem": 9637,
      "▁اضافة": 9638,
      "▁Film": 9639,
      "▁7.": 9640,
      "▁الشمالية": 9641,
      "▁جديد": 9642,
      "▁especially": 9643,
      "▁والي": 9644,
      "▁شعب": 9645,
      "▁عمليات": 9646,
      "▁العرقي": 9647,
      "▁farm": 9648,
      "▁تولي": 9649,
      "ements": 9650,
      "▁taking": 9651,
      "▁(ب": 9652,
      "وضع": 9653,
      "▁Turk": 9654,
      "ios": 9655,
      "بطة": 9656,
      "▁فلسط": 9657,
      "▁اكثر.": 9658,
      "ونا": 9659,
      "يل،": 9660,
      "▁مساحة": 9661,
      "▁انتخب": 9662,
      "ocal": 9663,
      "▁launched": 9664,
      "حاث": 9665,
      "▁اند": 9666,
      "ته،": 9667,
      "▁grand": 9668,
      "▁الدوار": 9669,
      "قتصادي": 9670,
      "▁defeated": 9671,
      "▁behind": 9672,
      "▁Commission": 9673,
      "▁بالقرب": 9674,
      "▁Iran": 9675,
      "▁العاصمة": 9676,
      "▁الحدود": 9677,
      "▁رجل": 9678,
      "▁text": 9679,
      "▁degree": 9680,
      "▁عنه": 9681,
      "▁البدا": 9682,
      "elled": 9683,
      "▁whom": 9684,
      "▁العائلة": 9685,
      "▁loss": 9686,
      "▁السري": 9687,
      "24": 9688,
      "ستي": 9689,
      "▁6.": 9690,
      "▁players": 9691,
      "▁Frank": 9692,
      "AS": 9693,
      "▁towards": 9694,
      "▁km": 9695,
      "n't": 9696,
      "كام": 9697,
      "oring": 9698,
      "▁education": 9699,
      "▁يف": 9700,
      "▁نيو": 9701,
      "▁احصاء": 9702,
      "face": 9703,
      "جين": 9704,
      "ذب": 9705,
      "▁وض": 9706,
      "▁sus": 9707,
      "▁emb": 9708,
      "▁opt": 9709,
      "▁Green": 9710,
      "nes": 9711,
      "▁(R": 9712,
      "▁سياسي": 9713,
      "زاء": 9714,
      "▁الاصول": 9715,
      "▁Che": 9716,
      "ليب": 9717,
      "▁طلب": 9718,
      "▁متن": 9719,
      "▁تشمل": 9720,
      "ز.": 9721,
      "▁Mo": 9722,
      "▁الهجوم": 9723,
      "▁perform": 9724,
      "▁groups": 9725,
      "-P": 9726,
      "board": 9727,
      "i's": 9728,
      "▁winning": 9729,
      "▁Ter": 9730,
      "▁colon": 9731,
      "ria": 9732,
      "شيخة": 9733,
      "وفا": 9734,
      "▁بلاد": 9735,
      "ونات": 9736,
      "▁حي": 9737,
      "fit": 9738,
      "▁(in": 9739,
      "▁exhib": 9740,
      "▁الوزراء": 9741,
      "▁لكنه": 9742,
      "▁صغيرة": 9743,
      "▁France": 9744,
      "▁المعت": 9745,
      "▁Tom": 9746,
      "▁(F": 9747,
      "▁العالمي": 9748,
      "ذهب": 9749,
      "▁الاجتماعي": 9750,
      "ضيض": 9751,
      "▁اعلن": 9752,
      "زين": 9753,
      "▁events": 9754,
      "▁ended": 9755,
      "▁stop": 9756,
      "▁collection": 9757,
      "23": 9758,
      "action": 9759,
      "اثولي": 9760,
      "▁افريقيا": 9761,
      "حن": 9762,
      "▁لهم": 9763,
      "▁للام": 9764,
      "▁شخصية": 9765,
      "تع": 9766,
      "▁بري": 9767,
      "▁العليا": 9768,
      "▁Atl": 9769,
      "▁الامم": 9770,
      "▁data": 9771,
      "ناعة": 9772,
      "▁الماء": 9773,
      "▁Two": 9774,
      "▁concern": 9775,
      "▁purch": 9776,
      "▁2011,": 9777,
      "▁traditional": 9778,
      "▁Peter": 9779,
      "▁possible": 9780,
      "زلة": 9781,
      "بعون": 9782,
      "known": 9783,
      "▁fle": 9784,
      "ائف": 9785,
      "▁destroy": 9786,
      "▁ملا": 9787,
      "ديا": 9788,
      "تخاب": 9789,
      "▁ever": 9790,
      "▁introduced": 9791,
      "▁bur": 9792,
      "ss": 9793,
      "▁cit": 9794,
      "▁food": 9795,
      "▁prison": 9796,
      "eleb": 9797,
      "▁المغربية.": 9798,
      "▁Battle": 9799,
      "▁السلام": 9800,
      "جنة": 9801,
      "▁(T": 9802,
      "▁itself": 9803,
      "▁remov": 9804,
      "راهيم": 9805,
      "▁البحرية": 9806,
      "▁rights": 9807,
      "رع": 9808,
      "unt": 9809,
      "ine.": 9810,
      "▁lower": 9811,
      "▁states": 9812,
      "▁وقال": 9813,
      "▁episode": 9814,
      "رائي": 9815,
      "▁Los": 9816,
      "▁Empire": 9817,
      "▁بيت": 9818,
      "▁تحتوي": 9819,
      "▁رئيسي": 9820,
      "▁لما": 9821,
      "▁wood": 9822,
      "road": 9823,
      "▁Ah": 9824,
      "▁كال": 9825,
      "▁2010،": 9826,
      "▁economic": 9827,
      "▁nar": 9828,
      "▁Victor": 9829,
      "▁البريطاني": 9830,
      "▁النتائج": 9831,
      "بدو": 9832,
      "▁سكانه": 9833,
      "▁Not": 9834,
      "▁observ": 9835,
      "s'": 9836,
      "▁قائمة": 9837,
      "u,": 9838,
      "▁(s": 9839,
      "هدة": 9840,
      "-G": 9841,
      "▁organization": 9842,
      "▁average": 9843,
      "▁Catholic": 9844,
      "▁تتم": 9845,
      "atal": 9846,
      "▁Dire": 9847,
      "▁2012,": 9848,
      "▁البار": 9849,
      "▁draw": 9850,
      "▁re-": 9851,
      "▁above": 9852,
      "▁وحضيض": 9853,
      "▁الزرا": 9854,
      "▁Louis": 9855,
      "▁1960": 9856,
      "▁(3": 9857,
      "▁centre": 9858,
      "▁Bo": 9859,
      "▁Sant": 9860,
      "▁natural": 9861,
      "▁مجلة": 9862,
      "▁وزير": 9863,
      "▁هم": 9864,
      "▁standard": 9865,
      "aland": 9866,
      "▁وتن": 9867,
      "▁المتعلقة": 9868,
      "▁generally": 9869,
      "▁writing": 9870,
      "هرة": 9871,
      "قة،": 9872,
      "▁primary": 9873,
      "▁عد": 9874,
      "▁Town": 9875,
      "▁deal": 9876,
      "▁الغربية": 9877,
      "لبية": 9878,
      "▁method": 9879,
      "▁bomb": 9880,
      "▁Soviet": 9881,
      "▁معدل": 9882,
      "ibility": 9883,
      "▁surround": 9884,
      "▁المراة": 9885,
      "▁جورج": 9886,
      "وكي": 9887,
      "▁sat": 9888,
      "▁Sur": 9889,
      "▁سبا": 9890,
      "▁object": 9891,
      "▁سابقا": 9892,
      "▁النوا": 9893,
      "ishop": 9894,
      "▁وعند": 9895,
      "pected": 9896,
      "▁4,": 9897,
      "▁اطلاق": 9898,
      "atives": 9899,
      "▁spent": 9900,
      "▁defend": 9901,
      "ras": 9902,
      "▁تحديد": 9903,
      "▁soon": 9904,
      "ication": 9905,
      "▁beginning": 9906,
      "uz": 9907,
      "▁ge": 9908,
      "▁قوة": 9909,
      "▁تقديم": 9910,
      "▁لهذا": 9911,
      "يفية": 9912,
      "▁السود": 9913,
      "c.": 9914,
      "▁الالعاب": 9915,
      "▁Company": 9916,
      "▁وتش": 9917,
      "▁تكن": 9918,
      "uty": 9919,
      "▁الدراسات": 9920,
      "▁independent": 9921,
      "ores": 9922,
      "▁اوائل": 9923,
      "▁وسجل": 9924,
      "ville": 9925,
      "ware": 9926,
      "ويد": 9927,
      "▁key": 9928,
      "▁complex": 9929,
      "▁2010.": 9930,
      "منطقة": 9931,
      "▁sister": 9932,
      "ice.": 9933,
      "▁Book": 9934,
      "aker": 9935,
      "▁determ": 9936,
      "▁الخارجية": 9937,
      "▁كثير": 9938,
      "▁ير": 9939,
      "▁البرت": 9940,
      "▁commission": 9941,
      "▁بجماعة": 9942,
      "فين": 9943,
      "▁park": 9944,
      "▁don": 9945,
      "olf": 9946,
      "▁الجمهورية": 9947,
      "▁ايط": 9948,
      "▁summer": 9949,
      "\")": 9950,
      "▁الامبراطورية": 9951,
      "▁certain": 9952,
      "▁جزيرة": 9953,
      "▁lived": 9954,
      "▁التركيبة": 9955,
      "▁امريكا": 9956,
      "شق": 9957,
      "لات": 9958,
      "▁Virgin": 9959,
      "45": 9960,
      "▁emer": 9961,
      "▁India": 9962,
      "يين": 9963,
      "▁#": 9964,
      "ems": 9965,
      "الي،": 9966,
      "-T": 9967,
      "▁nomin": 9968,
      "-based": 9969,
      "▁مباشرة": 9970,
      "▁mission": 9971,
      "▁Bank": 9972,
      "ulf": 9973,
      "ago": 9974,
      "▁America": 9975,
      "rey": 9976,
      "▁دعم": 9977,
      "▁عامي": 9978,
      "▁Smith": 9979,
      "▁ويل": 9980,
      "at,": 9981,
      "▁marri": 9982,
      "ulated": 9983,
      "▁جزءا": 9984,
      "iation": 9985,
      "▁pow": 9986,
      "انية.": 9987,
      "▁179": 9988,
      "▁بحلول": 9989,
      "▁Super": 9990,
      "▁باعت": 9991,
      "▁الغربي": 9992,
      "▁مان": 9993,
      "▁princip": 9994,
      "▁settle": 9995,
      "sych": 9996,
      "▁commercial": 9997,
      "▁الشرقية": 9998,
      "bour": 9999,
      "غو": 10000,
      "rack": 10001,
      "ائرات": 10002,
      "▁represented": 10003,
      "▁little": 10004,
      "adium": 10005,
      "▁لمشيخة": 10006,
      "ready": 10007,
      "▁الاخيرة": 10008,
      "▁Tim": 10009,
      "▁الصف": 10010,
      "85": 10011,
      "▁ايام": 10012,
      "▁بلا": 10013,
      "▁Kore": 10014,
      "ena": 10015,
      "ابت": 10016,
      "▁it.": 10017,
      "ظاهر": 10018,
      "s:": 10019,
      "ergy": 10020,
      "▁المط": 10021,
      "▁خل": 10022,
      "ريم": 10023,
      "FL": 10024,
      "▁race": 10025,
      "wa": 10026,
      "▁يعتقد": 10027,
      "▁المدن": 10028,
      "▁1996": 10029,
      "utions": 10030,
      "ندية": 10031,
      "▁Histor": 10032,
      "heast": 10033,
      "▁الحدي": 10034,
      "▁Georg": 10035,
      "▁arrest": 10036,
      "▁studio": 10037,
      "▁الافارقة": 10038,
      "▁Cast": 10039,
      "▁(الم": 10040,
      "▁evidence": 10041,
      "اديمية": 10042,
      "not": 10043,
      "▁عام).": 10044,
      "▁1997": 10045,
      "▁adop": 10046,
      "▁للكويكب": 10047,
      "ricult": 10048,
      "▁ball": 10049,
      "▁نسب": 10050,
      "▁قاد": 10051,
      "▁woman": 10052,
      "▁الحركة": 10053,
      "▁2013,": 10054,
      "▁وادي": 10055,
      "▁Chic": 10056,
      "▁8.": 10057,
      "▁الاخير": 10058,
      "▁multip": 10059,
      "▁length": 10060,
      "▁درا": 10061,
      "teg": 10062,
      "▁البحث": 10063,
      "تال": 10064,
      "▁Camp": 10065,
      "earch": 10066,
      "▁Mont": 10067,
      "▁sometimes": 10068,
      "ارنة": 10069,
      "▁جبل": 10070,
      "unk": 10071,
      "▁cho": 10072,
      "طيع": 10073,
      "▁الحمراء": 10074,
      "▁الرابعة": 10075,
      "ficult": 10076,
      "▁noted": 10077,
      "ance,": 10078,
      "هزة": 10079,
      "▁lack": 10080,
      "amer": 10081,
      "▁Day": 10082,
      "89": 10083,
      "IS": 10084,
      "▁ارا": 10085,
      "▁Saint": 10086,
      "oper": 10087,
      "▁النم": 10088,
      "▁focus": 10089,
      "▁living": 10090,
      "▁البريطانية": 10091,
      "اية": 10092,
      "▁Sir": 10093,
      "▁Bas": 10094,
      "▁Ott": 10095,
      "▁1992": 10096,
      "▁score": 10097,
      "▁منح": 10098,
      "▁threat": 10099,
      "och": 10100,
      "▁مشت": 10101,
      "▁battle": 10102,
      "rog": 10103,
      "▁ens": 10104,
      "mon": 10105,
      "دائ": 10106,
      "وسية": 10107,
      "embly": 10108,
      "▁Mel": 10109,
      "▁break": 10110,
      "ويلة": 10111,
      "▁باي": 10112,
      "▁sett": 10113,
      "▁مختلط": 10114,
      "▁(G": 10115,
      "▁2015,": 10116,
      "▁hard": 10117,
      "▁والام": 10118,
      "▁لر": 10119,
      "وس،": 10120,
      "▁ماي": 10121,
      "▁cred": 10122,
      "▁Football": 10123,
      "▁exc": 10124,
      "▁championship": 10125,
      "▁organiz": 10126,
      "omp": 10127,
      "▁others": 10128,
      "▁Society": 10129,
      "▁Year": 10130,
      "جاح": 10131,
      "▁mountain": 10132,
      "ستور": 10133,
      "▁decl": 10134,
      "▁ran": 10135,
      "▁بانها": 10136,
      "▁leader": 10137,
      "صائص": 10138,
      "▁Most": 10139,
      "ression": 10140,
      "وانين": 10141,
      "▁اجتما": 10142,
      "▁academ": 10143,
      "C.": 10144,
      "▁prob": 10145,
      "لي.": 10146,
      "▁Many": 10147,
      "▁المدرسة": 10148,
      "لة،": 10149,
      "▁legal": 10150,
      "▁required": 10151,
      "▁الفرنسية": 10152,
      "تيب": 10153,
      "ولاية": 10154,
      "▁Center": 10155,
      "▁century,": 10156,
      "ك.": 10157,
      "ونس": 10158,
      "▁financial": 10159,
      "raw": 10160,
      "▁imm": 10161,
      "عه": 10162,
      "كد": 10163,
      "amous": 10164,
      "▁Du": 10165,
      "عة.": 10166,
      "▁environment": 10167,
      "▁changed": 10168,
      "▁difficult": 10169,
      "▁الاشخاص": 10170,
      "▁العشر": 10171,
      "▁انضم": 10172,
      "▁chief": 10173,
      "▁Australia": 10174,
      "▁تغ": 10175,
      "▁Fin": 10176,
      "▁2014,": 10177,
      "▁block": 10178,
      "uge": 10179,
      "▁western": 10180,
      "▁حياة": 10181,
      "▁العلاج": 10182,
      "وخ": 10183,
      "▁chart": 10184,
      "▁السر": 10185,
      "isk": 10186,
      "▁Best": 10187,
      "alled": 10188,
      "back": 10189,
      "aring": 10190,
      "حتها": 10191,
      "▁تاسيس": 10192,
      "▁ارتفاع": 10193,
      "▁الاشت": 10194,
      "قة.": 10195,
      "▁النفس": 10196,
      "▁plat": 10197,
      "▁الانترنت": 10198,
      "▁يلعب": 10199,
      "يار": 10200,
      "▁and,": 10201,
      "airs": 10202,
      "▁White": 10203,
      "▁confl": 10204,
      "▁except": 10205,
      "يميا": 10206,
      "inet": 10207,
      "▁(al": 10208,
      "▁Under": 10209,
      "▁الخلايا": 10210,
      "▁studied": 10211,
      "▁اصدر": 10212,
      "33": 10213,
      "ally,": 10214,
      "▁claimed": 10215,
      "▁(W": 10216,
      "-H": 10217,
      "▁Ram": 10218,
      "plement": 10219,
      "▁Mil": 10220,
      "▁سلط": 10221,
      "ify": 10222,
      "▁center": 10223,
      "▁الموسم": 10224,
      "كثر": 10225,
      "▁Del": 10226,
      "▁الكبير": 10227,
      "▁وفاة": 10228,
      "NA": 10229,
      "▁جيش": 10230,
      "▁approximately": 10231,
      "▁وث": 10232,
      "▁Lord": 10233,
      "umn": 10234,
      "▁Israeli": 10235,
      "▁السلطان": 10236,
      "▁ancient": 10237,
      "-up": 10238,
      "عددة": 10239,
      "▁رؤ": 10240,
      "▁نشرت": 10241,
      "▁Parliament": 10242,
      "65": 10243,
      "كب": 10244,
      "▁Old": 10245,
      "▁2012.": 10246,
      "son,": 10247,
      "▁function": 10248,
      "▁performance": 10249,
      "حب": 10250,
      "▁انهم": 10251,
      "▁foreign": 10252,
      "▁يعيشون": 10253,
      "▁female": 10254,
      "▁يسمي": 10255,
      "▁Women": 10256,
      "▁الجزيرة": 10257,
      "▁caused": 10258,
      "هات": 10259,
      "▁الدي": 10260,
      "▁السينما": 10261,
      "ضايا": 10262,
      "▁مدة": 10263,
      "▁2010,": 10264,
      "عبد": 10265,
      "▁later,": 10266,
      "▁entered": 10267,
      "ics,": 10268,
      "▁هدف": 10269,
      "les,": 10270,
      "عاد": 10271,
      "▁حال": 10272,
      "▁songs": 10273,
      "▁increased": 10274,
      "▁personal": 10275,
      "▁dom": 10276,
      "▁thus": 10277,
      "ault": 10278,
      "▁ارض": 10279,
      "▁مكت": 10280,
      "بيرا": 10281,
      "ension": 10282,
      "▁وط": 10283,
      "▁self": 10284,
      "▁pen": 10285,
      "ياسي": 10286,
      "▁شا": 10287,
      "▁معروف": 10288,
      "▁Leg": 10289,
      "▁والاربعة": 10290,
      "وية،": 10291,
      "▁Oper": 10292,
      "aught": 10293,
      "ufact": 10294,
      "▁already": 10295,
      "▁النبات": 10296,
      "▁يا": 10297,
      "▁تعليم": 10298,
      "21": 10299,
      "▁link": 10300,
      "▁Academy": 10301,
      "▁Mass": 10302,
      "urb": 10303,
      "▁III": 10304,
      "▁الاسيوية": 10305,
      "▁تظهر": 10306,
      "▁Ha": 10307,
      "▁طا": 10308,
      "▁associated": 10309,
      "▁related": 10310,
      "reme": 10311,
      "▁يخ": 10312,
      "▁girl": 10313,
      "▁Liber": 10314,
      "جمالي": 10315,
      "▁اخذ": 10316,
      "▁500": 10317,
      "▁Gra": 10318,
      "ructed": 10319,
      "راتي": 10320,
      "▁مختلطين": 10321,
      "▁وظ": 10322,
      "ingu": 10323,
      "enth": 10324,
      "▁Bu": 10325,
      "▁2013.": 10326,
      "▁الصين": 10327,
      "▁majority": 10328,
      "-D": 10329,
      "▁معل": 10330,
      "رتفع": 10331,
      "▁عرقين": 10332,
      "▁اليها": 10333,
      "▁establish": 10334,
      "▁senior": 10335,
      "▁عشرة": 10336,
      "antic": 10337,
      "▁اسبانيا": 10338,
      "▁Rock": 10339,
      "مة،": 10340,
      "▁بلدة": 10341,
      "▁تقوم": 10342,
      "▁train": 10343,
      "▁مرض": 10344,
      "▁Squ": 10345,
      "▁تعرف": 10346,
      "▁بور": 10347,
      "change": 10348,
      "▁شهد": 10349,
      "▁come": 10350,
      "سلوب": 10351,
      "▁higher": 10352,
      "▁bene": 10353,
      "▁اصدار": 10354,
      "▁Joseph": 10355,
      "كول": 10356,
      "▁Middle": 10357,
      "تهي": 10358,
      "▁supported": 10359,
      "▁Carol": 10360,
      "▁المواد": 10361,
      "oo": 10362,
      "▁Found": 10363,
      "ist,": 10364,
      "rying": 10365,
      "▁خلف": 10366,
      "▁becoming": 10367,
      "29": 10368,
      "aries": 10369,
      "▁التم": 10370,
      "▁واد": 10371,
      "ادات": 10372,
      "▁clear": 10373,
      "▁التخ": 10374,
      "▁Gr": 10375,
      "▁\"L": 10376,
      "▁railway": 10377,
      "▁Islamic": 10378,
      "▁celeb": 10379,
      "▁los": 10380,
      "▁ابراهيم": 10381,
      "▁newsp": 10382,
      "▁Rob": 10383,
      "▁2011.": 10384,
      "▁him.": 10385,
      "▁mostly": 10386,
      "▁الحالات": 10387,
      "▁expand": 10388,
      "▁abs": 10389,
      "احب": 10390,
      "▁immedi": 10391,
      "▁thought": 10392,
      "▁initially": 10393,
      "ميد": 10394,
      "لة.": 10395,
      "▁الوصول": 10396,
      "▁اشت": 10397,
      "يرات": 10398,
      "het": 10399,
      "▁\"P": 10400,
      "s)": 10401,
      "▁قطر": 10402,
      "▁estim": 10403,
      "▁الجنوبية": 10404,
      "ala": 10405,
      "▁cens": 10406,
      "▁فير": 10407,
      "▁hor": 10408,
      "rief": 10409,
      "▁enter": 10410,
      "▁السلطة": 10411,
      "27": 10412,
[...]
